{
  "version": "1.0",
  "truncation": null,
  "padding": null,
  "added_tokens": [
    {
      "id": 0,
      "content": "<start>",
      "single_word": false,
      "lstrip": false,
      "rstrip": false,
      "normalized": false,
      "special": true
    },
    {
      "id": 1,
      "content": "<end>",
      "single_word": false,
      "lstrip": false,
      "rstrip": false,
      "normalized": false,
      "special": true
    },
    {
      "id": 2,
      "content": "<pad>",
      "single_word": false,
      "lstrip": false,
      "rstrip": false,
      "normalized": false,
      "special": true
    },
    {
      "id": 3,
      "content": "<unk>",
      "single_word": false,
      "lstrip": false,
      "rstrip": false,
      "normalized": false,
      "special": true
    }
  ],
  "normalizer": null,
  "pre_tokenizer": {
    "type": "ByteLevel",
    "add_prefix_space": false,
    "trim_offsets": true,
    "use_regex": true
  },
  "post_processor": {
    "type": "ByteLevel",
    "add_prefix_space": true,
    "trim_offsets": false,
    "use_regex": true
  },
  "decoder": {
    "type": "ByteLevel",
    "add_prefix_space": true,
    "trim_offsets": true,
    "use_regex": true
  },
  "model": {
    "type": "BPE",
    "dropout": null,
    "unk_token": null,
    "continuing_subword_prefix": null,
    "end_of_word_suffix": null,
    "fuse_unk": false,
    "byte_fallback": false,
    "ignore_merges": false,
    "vocab": {
      "<start>": 0,
      "<end>": 1,
      "<pad>": 2,
      "<unk>": 3,
      "!": 4,
      "\"": 5,
      "$": 6,
      "%": 7,
      "&": 8,
      "'": 9,
      "(": 10,
      ")": 11,
      "+": 12,
      ",": 13,
      "-": 14,
      ".": 15,
      "/": 16,
      "0": 17,
      "1": 18,
      "2": 19,
      "3": 20,
      "4": 21,
      "5": 22,
      "6": 23,
      "7": 24,
      "8": 25,
      "9": 26,
      ":": 27,
      ";": 28,
      "?": 29,
      "a": 30,
      "b": 31,
      "c": 32,
      "d": 33,
      "e": 34,
      "f": 35,
      "g": 36,
      "h": 37,
      "i": 38,
      "j": 39,
      "k": 40,
      "l": 41,
      "m": 42,
      "n": 43,
      "o": 44,
      "p": 45,
      "q": 46,
      "r": 47,
      "s": 48,
      "t": 49,
      "u": 50,
      "v": 51,
      "w": 52,
      "x": 53,
      "y": 54,
      "z": 55,
      "¡": 56,
      "¢": 57,
      "£": 58,
      "¤": 59,
      "¥": 60,
      "§": 61,
      "©": 62,
      "¬": 63,
      "°": 64,
      "²": 65,
      "³": 66,
      "µ": 67,
      "¶": 68,
      "º": 69,
      "¿": 70,
      "Â": 71,
      "Ã": 72,
      "Æ": 73,
      "â": 74,
      "Ċ": 75,
      "č": 76,
      "Ġ": 77,
      "Ģ": 78,
      "Ĥ": 79,
      "Ĵ": 80,
      "ľ": 81,
      "Ŀ": 82,
      "Ń": 83,
      "an": 84,
      "er": 85,
      "Ġd": 86,
      "Ġm": 87,
      "en": 88,
      "ar": 89,
      "Ġs": 90,
      "ang": 91,
      "Ġp": 92,
      "Ġb": 93,
      "at": 94,
      "Ġt": 95,
      "la": 96,
      "in": 97,
      "Ġk": 98,
      "ak": 99,
      "un": 100,
      "čĊ": 101,
      "as": 102,
      "Ġdi": 103,
      "em": 104,
      "da": 105,
      "Ġmen": 106,
      "ah": 107,
      "Ġse": 108,
      "al": 109,
      "Ġy": 110,
      "kan": 111,
      "Ġyang": 112,
      "ya": 113,
      "tu": 114,
      "is": 115,
      "am": 116,
      "Ġdan": 117,
      "ik": 118,
      "Ġke": 119,
      "ada": 120,
      "Ġter": 121,
      "ap": 122,
      "Ġber": 123,
      "or": 124,
      "eb": 125,
      "eng": 126,
      "ing": 127,
      "ut": 128,
      "us": 129,
      "ari": 130,
      "Ġmem": 131,
      "di": 132,
      "ga": 133,
      "Ġper": 134,
      "Ġl": 135,
      "lah": 136,
      "el": 137,
      "il": 138,
      "it": 139,
      "akan": 140,
      "Ġh": 141,
      "es": 142,
      "on": 143,
      "ara": 144,
      "ek": 145,
      "ur": 146,
      "Ġj": 147,
      "et": 148,
      "nya": 149,
      "um": 150,
      "Ġmeng": 151,
      "Ġr": 152,
      "lam": 153,
      "ung": 154,
      "asi": 155,
      "uk": 156,
      "tuk": 157,
      "Ġin": 158,
      "id": 159,
      "Ġun": 160,
      "ol": 161,
      "ba": 162,
      "ir": 163,
      "Ġuntuk": 164,
      "ih": 165,
      "Ġdari": 166,
      "ti": 167,
      "ja": 168,
      "ul": 169,
      "engan": 170,
      "Ġc": 171,
      "wa": 172,
      "Ġdengan": 173,
      "Ġa": 174,
      "Ġn": 175,
      "ia": 176,
      "im": 177,
      "Ġla": 178,
      "per": 179,
      "ata": 180,
      "gi": 181,
      "Ġmer": 182,
      "Ġada": 183,
      "Ġan": 184,
      "Ġpen": 185,
      "ot": 186,
      "ela": 187,
      "idak": 188,
      "Ġg": 189,
      "Ġini": 190,
      "alam": 191,
      "pat": 192,
      "uh": 193,
      "si": 194,
      "om": 195,
      "Ġbah": 196,
      "Ġtidak": 197,
      "up": 198,
      "seb": 199,
      "eg": 200,
      "ama": 201,
      "Ġsa": 202,
      "Ġba": 203,
      "orang": 204,
      "ebih": 205,
      "bu": 206,
      "asa": 207,
      "eka": 208,
      "ai": 209,
      "Ġpada": 210,
      "Ġdalam": 211,
      "Ġf": 212,
      "Ġlebih": 213,
      "elah": 214,
      "ukan": 215,
      "anya": 216,
      "eh": 217,
      "Ġadalah": 218,
      "any": 219,
      "ok": 220,
      "atau": 221,
      "sebut": 222,
      "emb": 223,
      "itu": 224,
      "Ġatau": 225,
      "ua": 226,
      "Ġanda": 227,
      "ika": 228,
      "lu": 229,
      "Ġw": 230,
      "Ġmereka": 231,
      "Ġpr": 232,
      "angan": 233,
      "jadi": 234,
      "Ġtersebut": 235,
      "atan": 236,
      "Ġpeng": 237,
      "amp": 238,
      "oleh": 239,
      "ep": 240,
      "Ġtah": 241,
      "gai": 242,
      "apa": 243,
      "os": 244,
      "isi": 245,
      "Ġbahwa": 246,
      "tr": 247,
      "Ġ1": 248,
      "atu": 249,
      "Ġseba": 250,
      "Ġser": 251,
      "ter": 252,
      "Ġitu": 253,
      "Ġtahun": 254,
      "op": 255,
      "ub": 256,
      "uan": 257,
      "Ġorang": 258,
      "Ġakan": 259,
      "Ġmemb": 260,
      "anyak": 261,
      "and": 262,
      "esar": 263,
      "empat": 264,
      "Ġneg": 265,
      "Ġlain": 266,
      "ula": 267,
      "alan": 268,
      "Ġpem": 269,
      "Ġoleh": 270,
      "apat": 271,
      "etap": 272,
      "dah": 273,
      "Ġdapat": 274,
      "gian": 275,
      "ali": 276,
      "Ġsek": 277,
      "ati": 278,
      "ta": 279,
      "Ġmeny": 280,
      "00": 281,
      "ent": 282,
      "isa": 283,
      "aan": 284,
      "bat": 285,
      "Ġtetap": 286,
      "Ġmenjadi": 287,
      "perti": 288,
      "cara": 289,
      "Ġbar": 290,
      "angg": 291,
      "Ġsaat": 292,
      "Ġtelah": 293,
      "ra": 294,
      "iki": 295,
      "Ġnegara": 296,
      "aran": 297,
      "Ġbanyak": 298,
      "sa": 299,
      "wan": 300,
      "kin": 301,
      "Ġpert": 302,
      "ana": 303,
      "pada": 304,
      "Ġkem": 305,
      "Ġ2": 306,
      "Ġsel": 307,
      "ungkin": 308,
      "Ġsatu": 309,
      "Ġseperti": 310,
      "ong": 311,
      "ri": 312,
      "Ġsem": 313,
      "Ġmel": 314,
      "ota": 315,
      "se": 316,
      "angk": 317,
      "dia": 318,
      "Ġak": 319,
      "Ġ(": 320,
      "Ġbisa": 321,
      "Ġkar": 322,
      "uga": 323,
      "Ġ\"": 324,
      "Ġat": 325,
      "eri": 326,
      "ahan": 327,
      "iliki": 328,
      "ant": 329,
      "eber": 330,
      "Ġbesar": 331,
      "ip": 332,
      "Ġtetapi": 333,
      "Ġmela": 334,
      "gun": 335,
      "aya": 336,
      "Ġv": 337,
      "Ġas": 338,
      "ena": 339,
      "Ġkec": 340,
      "Ġset": 341,
      "Ġjuga": 342,
      "ed": 343,
      "Ġmemiliki": 344,
      ".\"": 345,
      "aw": 346,
      "anj": 347,
      "eberapa": 348,
      "inya": 349,
      "unj": 350,
      "Ġtempat": 351,
      "Ġsebagai": 352,
      "Ġberb": 353,
      "Ġmenc": 354,
      "Ġsu": 355,
      "Ġker": 356,
      "aman": 357,
      "Ġar": 358,
      "int": 359,
      "ab": 360,
      "Ġut": 361,
      "Ġsen": 362,
      "Ġkon": 363,
      "og": 364,
      "Ġseb": 365,
      "amb": 366,
      "Ġterb": 367,
      "itas": 368,
      "Ġmerup": 369,
      "Ġmerupakan": 370,
      "gunakan": 371,
      "anc": 372,
      "ingg": 373,
      "od": 374,
      "pa": 375,
      "ungan": 376,
      "Ġbi": 377,
      "dang": 378,
      "arkan": 379,
      "lak": 380,
      "por": 381,
      "ob": 382,
      "Ġmus": 383,
      "Ġmungkin": 384,
      "Ġberk": 385,
      "eda": 386,
      "ud": 387,
      "ami": 388,
      "Ġbeberapa": 389,
      "lama": 390,
      "Ġdik": 391,
      "Ġmengh": 392,
      "jalan": 393,
      "ita": 394,
      "Ġhar": 395,
      "Ġhal": 396,
      "atakan": 397,
      "ist": 398,
      "Ġkota": 399,
      "end": 400,
      "Ġdib": 401,
      "Ġdit": 402,
      "Ġsecara": 403,
      "elum": 404,
      "onal": 405,
      "ew": 406,
      "ju": 407,
      "diri": 408,
      "uran": 409,
      "Ġtan": 410,
      "ini": 411,
      "Ġsebu": 412,
      "Ġkarena": 413,
      "Ġsebuah": 414,
      "udi": 415,
      "Ġmemper": 416,
      "Ġmend": 417,
      "orm": 418,
      "epat": 419,
      "asan": 420,
      "ingin": 421,
      "itar": 422,
      "ibat": 423,
      "Ġti": 424,
      "Ġdun": 425,
      "Ġkom": 426,
      "Ġsej": 427,
      "ulan": 428,
      "buat": 429,
      "Ġbaru": 430,
      "Ġma": 431,
      "Ġja": 432,
      "Ġmas": 433,
      "eks": 434,
      "Ġant": 435,
      "pen": 436,
      "angat": 437,
      "unya": 438,
      "Ġhari": 439,
      "Ġkeb": 440,
      "ingk": 441,
      "Ġbahasa": 442,
      "Ġsekitar": 443,
      "ch": 444,
      "hir": 445,
      "Ġku": 446,
      "Ġair": 447,
      "ila": 448,
      "Ġket": 449,
      "Ġterl": 450,
      "Ġatas": 451,
      "esi": 452,
      "Ġbagian": 453,
      "Ġdunia": 454,
      "ian": 455,
      "Ġia": 456,
      "Ġrum": 457,
      "Ġtim": 458,
      "dapat": 459,
      "Ġlu": 460,
      "umum": 461,
      "ihat": 462,
      "ulai": 463,
      "Ġsetelah": 464,
      "Ġal": 465,
      "asil": 466,
      "adap": 467,
      "Ġterk": 468,
      "Ġpertama": 469,
      "Ġo": 470,
      "Ġpas": 471,
      "Ġdip": 472,
      "ingga": 473,
      "imp": 474,
      "Ġhanya": 475,
      "Ġdua": 476,
      "Ġpeny": 477,
      "oh": 478,
      "Ġsama": 479,
      "Ġsangat": 480,
      "Ġpal": 481,
      "Ġlalu": 482,
      "Ġrumah": 483,
      "Ġlainnya": 484,
      "uj": 485,
      "emukan": 486,
      "Ġharus": 487,
      "arga": 488,
      "Ġra": 489,
      "elaj": 490,
      "Ġapa": 491,
      "Ġsp": 492,
      "ind": 493,
      "aktu": 494,
      "unc": 495,
      "amer": 496,
      "umlah": 497,
      "Ġkes": 498,
      "Ġsebelum": 499,
      "Ġmu": 500,
      "Ġpel": 501,
      "Ġberada": 502,
      "ilm": 503,
      "Ġag": 504,
      "Ġmusim": 505,
      "mas": 506,
      "Ġbu": 507,
      "Ġli": 508,
      "Ġsemua": 509,
      "usia": 510,
      "Ġmengatakan": 511,
      "erikan": 512,
      "Ġkecil": 513,
      "ain": 514,
      "ec": 515,
      "Ġdia": 516,
      "entang": 517,
      "ki": 518,
      "man": 519,
      "Ġkita": 520,
      "asanya": 521,
      "Ġsep": 522,
      "Ġmenggunakan": 523,
      "Ġinter": 524,
      "ima": 525,
      "uhan": 526,
      "Ġbaik": 527,
      "Ġwaktu": 528,
      "Ġmasa": 529,
      "Ġben": 530,
      "Ġdis": 531,
      "Ġmenga": 532,
      "Ġterh": 533,
      "apan": 534,
      "Ġmembuat": 535,
      "li": 536,
      "ov": 537,
      "Ġi": 538,
      "Ġmak": 539,
      "angun": 540,
      "Ġpara": 541,
      "Ġselama": 542,
      "anjang": 543,
      "ui": 544,
      "Ġmil": 545,
      "Ġtur": 546,
      "Ġperjalan": 547,
      "Ġluar": 548,
      "Ġperjalanan": 549,
      "wal": 550,
      "Ġpemb": 551,
      "Ġseh": 552,
      "wala": 553,
      "elas": 554,
      "yar": 555,
      "Ġ3": 556,
      "arang": 557,
      "Ġst": 558,
      "las": 559,
      "Ġkepada": 560,
      "utan": 561,
      "Ġpend": 562,
      "Ġkh": 563,
      "Ġbiasanya": 564,
      "ban": 565,
      "pr": 566,
      "Ġumum": 567,
      "Ġsitu": 568,
      "Ġpol": 569,
      "Ġtr": 570,
      "usah": 571,
      "eker": 572,
      "Ġbagi": 573,
      "anding": 574,
      "Ġpaling": 575,
      "Ġap": 576,
      "Ġpa": 577,
      "Ġberba": 578,
      "Ġ19": 579,
      "Ġberbeda": 580,
      "ev": 581,
      "akit": 582,
      "tuh": 583,
      "Ġsering": 584,
      "Ġserta": 585,
      "Ġutara": 586,
      "kukan": 587,
      "Ġga": 588,
      "Ġbulan": 589,
      "Ġdim": 590,
      "emp": 591,
      "Ġsedang": 592,
      "ikasi": 593,
      "Ġberl": 594,
      "Ġpers": 595,
      "uka": 596,
      "Ġcara": 597,
      "embali": 598,
      "Ġsudah": 599,
      "Ġsendiri": 600,
      "Ġamer": 601,
      "tur": 602,
      "Ġkek": 603,
      "apal": 604,
      "asional": 605,
      "Ġantara": 606,
      "Ġberbagai": 607,
      "Ġamerika": 608,
      "ewan": 609,
      "lan": 610,
      "oc": 611,
      "enal": 612,
      "Ġpar": 613,
      "Ġtel": 614,
      "Ġterhadap": 615,
      "amun": 616,
      "elit": 617,
      "baik": 618,
      "Ġlaut": 619,
      "Ġanak": 620,
      "ekerja": 621,
      "ris": 622,
      "Ġbers": 623,
      "Ġperang": 624,
      "unjung": 625,
      "Ġutama": 626,
      "ber": 627,
      "de": 628,
      "ic": 629,
      "ting": 630,
      "Ġeks": 631,
      "etah": 632,
      "Ġpemer": 633,
      "Ġ20": 634,
      "Ġmelakukan": 635,
      "inggal": 636,
      "Ġtanpa": 637,
      "hal": 638,
      "jak": 639,
      "men": 640,
      "Ġer": 641,
      "ers": 642,
      "Ġmet": 643,
      "angkan": 644,
      "Ġbum": 645,
      "Ġkas": 646,
      "Ġkali": 647,
      "Ġbert": 648,
      "bad": 649,
      "Ġsebagian": 650,
      "Ġmemberikan": 651,
      "obil": 652,
      "Ġketika": 653,
      "disi": 654,
      "ikan": 655,
      "Ġz": 656,
      "antu": 657,
      "Ġdin": 658,
      "Ġmalam": 659,
      "angs": 660,
      "Ġkembali": 661,
      "engah": 662,
      "asih": 663,
      "udian": 664,
      "ac": 665,
      "Ġmobil": 666,
      "Ġdiper": 667,
      "Ġlok": 668,
      "idup": 669,
      "atif": 670,
      "Ġkemudian": 671,
      "Ġakibat": 672,
      "Ġintern": 673,
      "gan": 674,
      "ans": 675,
      "Ġpop": 676,
      "daya": 677,
      "ilih": 678,
      "uler": 679,
      "Ġcuk": 680,
      "ef": 681,
      "ger": 682,
      "if": 683,
      "ern": 684,
      "Ġpes": 685,
      "Ġkapal": 686,
      "alia": 687,
      "tus": 688,
      "Ġterjadi": 689,
      "Ġterbaik": 690,
      "Ġpern": 691,
      "Ġgr": 692,
      "upun": 693,
      "awat": 694,
      "ea": 695,
      "fr": 696,
      "Ġis": 697,
      "enc": 698,
      "arah": 699,
      "akhir": 700,
      "Ġterp": 701,
      "ont": 702,
      "Ġres": 703,
      "elak": 704,
      "Ġselatan": 705,
      "ingkat": 706,
      "Ġmudah": 707,
      "ag": 708,
      "eja": 709,
      "ola": 710,
      "Ġman": 711,
      "entu": 712,
      "Ġbur": 713,
      "Ġtentang": 714,
      "isata": 715,
      "seba": 716,
      "usahaan": 717,
      "ait": 718,
      "jika": 719,
      "Ġdingin": 720,
      "Ġme": 721,
      "ensi": 722,
      "Ġpun": 723,
      "Ġdigunakan": 724,
      "Ġked": 725,
      "Ġhewan": 726,
      "Ġch": 727,
      "Ġawal": 728,
      "raf": 729,
      "unjuk": 730,
      "Ġsitus": 731,
      "angsung": 732,
      "dik": 733,
      "tasi": 734,
      "Ġpula": 735,
      "emen": 736,
      "Ġsalah": 737,
      "masuk": 738,
      "Ġor": 739,
      "anak": 740,
      "Ġpan": 741,
      "atang": 742,
      "ina": 743,
      "Ġmendapat": 744,
      "isasi": 745,
      "esk": 746,
      "eta": 747,
      "Ġtimur": 748,
      ").": 749,
      "ekan": 750,
      "me": 751,
      "pan": 752,
      "set": 753,
      "wah": 754,
      "anan": 755,
      "arik": 756,
      "Ġtak": 757,
      "ori": 758,
      "ekat": 759,
      "Ġjika": 760,
      "tiap": 761,
      "lui": 762,
      "Ġ200": 763,
      "Ġcukup": 764,
      "namun": 765,
      "uang": 766,
      "Ġkata": 767,
      "Ġjalan": 768,
      "Ġabad": 769,
      "alaman": 770,
      "ubl": 771,
      "lakukan": 772,
      "Ġpemerint": 773,
      "Ġbumi": 774,
      "adi": 775,
      "Ġangg": 776,
      "Ġmakan": 777,
      "Ġsal": 778,
      "ahkan": 779,
      "Ġses": 780,
      "ikut": 781,
      "Ġperlu": 782,
      "olo": 783,
      "ulu": 784,
      "uhi": 785,
      "Ġbawah": 786,
      "butuh": 787,
      "opa": 788,
      "Ġmelalui": 789,
      "Ġkons": 790,
      "ad": 791,
      "Ġsat": 792,
      "Ġbekerja": 793,
      "Ġkr": 794,
      "isan": 795,
      "Ġkel": 796,
      "Ġberh": 797,
      "urang": 798,
      "uruh": 799,
      "Ġjut": 800,
      "iran": 801,
      "Ġbahkan": 802,
      "Ġmenyeb": 803,
      "Ġbudaya": 804,
      "peng": 805,
      "tor": 806,
      "erb": 807,
      "Ġda": 808,
      "Ġsi": 809,
      "Ġdir": 810,
      "Ġmenemukan": 811,
      "Ġsetiap": 812,
      "adai": 813,
      "inggi": 814,
      "usus": 815,
      "Ġmemba": 816,
      "Ġperusahaan": 817,
      "Ġjam": 818,
      "inggris": 819,
      "iv": 820,
      "mer": 821,
      "yak": 822,
      "Ġ4": 823,
      "Ġinggris": 824,
      "erman": 825,
      "Ġmat": 826,
      "enis": 827,
      "Ġpos": 828,
      "Ġtermasuk": 829,
      "Ġhingga": 830,
      "angka": 831,
      "Ġakhir": 832,
      "Ġterbesar": 833,
      "Ġkomp": 834,
      "Ġliar": 835,
      "walau": 836,
      "Ġeropa": 837,
      "frika": 838,
      "Ġot": 839,
      "Ġtinggi": 840,
      "Ġkelu": 841,
      "Ġters": 842,
      "apai": 843,
      "ustr": 844,
      "lami": 845,
      "tif": 846,
      "Ġafrika": 847,
      "Ġpenting": 848,
      "Ġgun": 849,
      "form": 850,
      "anda": 851,
      "Ġdar": 852,
      "Ġsamp": 853,
      "lalu": 854,
      "akai": 855,
      "Ġmembantu": 856,
      "entara": 857,
      "tik": 858,
      "era": 859,
      "Ġmar": 860,
      "enang": 861,
      "Ġbuk": 862,
      "Ġtra": 863,
      "aki": 864,
      "ons": 865,
      "ump": 866,
      "tiv": 867,
      "anyakan": 868,
      "Ġpros": 869,
      "ampir": 870,
      "epon": 871,
      "000": 872,
      "saat": 873,
      "ipun": 874,
      "porkan": 875,
      "Ġtiga": 876,
      "Ġsejumlah": 877,
      "eskipun": 878,
      "ologi": 879,
      "yah": 880,
      "Ġmulai": 881,
      "Ġdisebut": 882,
      "Ġsedik": 883,
      "Ġtert": 884,
      "ungg": 885,
      "ulang": 886,
      "Ġsaja": 887,
      "ampak": 888,
      "ambil": 889,
      "uduk": 890,
      "Ġmengalami": 891,
      "Ġsehingga": 892,
      "etahui": 893,
      "Ġmanusia": 894,
      "Ġsedikit": 895,
      "ca": 896,
      "mi": 897,
      "Ġmin": 898,
      "Ġmasih": 899,
      "entuk": 900,
      "Ġka": 901,
      "ungai": 902,
      "isme": 903,
      "Ġjerman": 904,
      "etak": 905,
      "Ġsaya": 906,
      "istem": 907,
      "Ġditemukan": 908,
      "epatan": 909,
      "Ġpulau": 910,
      "ublik": 911,
      "ib": 912,
      "Ġdem": 913,
      "Ġmana": 914,
      "ahaya": 915,
      "Ġkep": 916,
      "ilan": 917,
      "Ġhidup": 918,
      "Ġjar": 919,
      "uksi": 920,
      "Ġdaripada": 921,
      "waj": 922,
      "Ġalam": 923,
      "Ġnasional": 924,
      "epang": 925,
      "abkan": 926,
      "Ġjauh": 927,
      "ilmu": 928,
      "Ġkhusus": 929,
      "Ġtrans": 930,
      "sebagian": 931,
      "Ġpanas": 932,
      "Ġmakanan": 933,
      "mereka": 934,
      "le": 935,
      "Ġek": 936,
      "Ġol": 937,
      "Ġtengah": 938,
      "Ġkat": 939,
      "aksi": 940,
      "asar": 941,
      "Ġmenarik": 942,
      "Ġyai": 943,
      "Ġkeh": 944,
      "elu": 945,
      "urut": 946,
      "Ġjepang": 947,
      "Ġrut": 948,
      "ulit": 949,
      "Ġge": 950,
      "Ġseluruh": 951,
      "ograf": 952,
      "ancis": 953,
      "ode": 954,
      "Ġ201": 955,
      "Ġorgan": 956,
      "Ġjuta": 957,
      "Ġyaitu": 958,
      "tan": 959,
      "ani": 960,
      "Ġdekat": 961,
      "Ġbr": 962,
      "Ġbel": 963,
      "Ġkm": 964,
      "ikat": 965,
      "Ġberp": 966,
      "Ġhampir": 967,
      "ukum": 968,
      "Ġger": 969,
      "omp": 970,
      "Ġbarat": 971,
      "elajar": 972,
      "Ġmendapatkan": 973,
      "lukan": 974,
      "mb": 975,
      "oba": 976,
      "sat": 977,
      "Ġsistem": 978,
      "Ġbukan": 979,
      "Ġbadai": 980,
      "inasi": 981,
      "Ġkan": 982,
      "Ġdil": 983,
      "emuan": 984,
      "Ġmener": 985,
      "Ġhukum": 986,
      "urat": 987,
      "tikan": 988,
      "uluh": 989,
      "Ġcepat": 990,
      "Ġacara": 991,
      "upa": 992,
      "Ġwisata": 993,
      "ulasi": 994,
      "Ġmelihat": 995,
      "seorang": 996,
      "poran": 997,
      "ewat": 998,
      "ilayah": 999,
      "Ġmasalah": 1000,
      "unjungi": 1001,
      "elakaan": 1002,
      "unjukkan": 1003,
      "bi": 1004,
      "etu": 1005,
      "ft": 1006,
      "ha": 1007,
      "Ġes": 1008,
      "Ġsk": 1009,
      "Ġsungai": 1010,
      "itik": 1011,
      "Ġjumlah": 1012,
      "Ġjenis": 1013,
      "Ġrom": 1014,
      "ulkan": 1015,
      "Ġform": 1016,
      "Ġsekarang": 1017,
      "Ġsejak": 1018,
      "Ġspesi": 1019,
      "Ġsepanjang": 1020,
      "Ġpernah": 1021,
      "Ġsampai": 1022,
      "bila": 1023,
      "neg": 1024,
      "ow": 1025,
      "Ã¢": 1026,
      "Ã£": 1027,
      "Ġel": 1028,
      "Ġingin": 1029,
      "Ġdasar": 1030,
      "Ġtangan": 1031,
      "Ġkun": 1032,
      "engar": 1033,
      "usat": 1034,
      "gab": 1035,
      "Ġperk": 1036,
      "irim": 1037,
      "Ġpenc": 1038,
      "Ġwarga": 1039,
      "Ġserikat": 1040,
      "Ġbarang": 1041,
      "ungkinan": 1042,
      "Ġbiasa": 1043,
      "udara": 1044,
      "Ġsebelumnya": 1045,
      "Ġberlangsung": 1046,
      "gas": 1047,
      "olah": 1048,
      "Ġde": 1049,
      "endah": 1050,
      "Ġpasi": 1051,
      "inan": 1052,
      "indah": 1053,
      "Ġkor": 1054,
      "dalam": 1055,
      "Ġseorang": 1056,
      "orong": 1057,
      "ariasi": 1058,
      "Ġperm": 1059,
      "onom": 1060,
      "araan": 1061,
      "eksi": 1062,
      "Ġaustr": 1063,
      "iade": 1064,
      "teri": 1065,
      "sedia": 1066,
      "impiade": 1067,
      "Ġlokasi": 1068,
      "Ġpopuler": 1069,
      "Ġburung": 1070,
      "Ġkedua": 1071,
      "Ġproses": 1072,
      "gabung": 1073,
      "das": 1074,
      "of": 1075,
      "takan": 1076,
      "yata": 1077,
      "Ġlama": 1078,
      "andia": 1079,
      "Ġmamp": 1080,
      "ener": 1081,
      "Ġtangg": 1082,
      "Ġtuj": 1083,
      "Ġtinggal": 1084,
      "aks": 1085,
      "askan": 1086,
      "Ġdih": 1087,
      "Ġmenunjukkan": 1088,
      "oritas": 1089,
      "usi": 1090,
      "Ġlagi": 1091,
      "perasi": 1092,
      "Ġweb": 1093,
      "Ġprancis": 1094,
      "antai": 1095,
      "Ġkecepatan": 1096,
      "Ġkecelakaan": 1097,
      "laku": 1098,
      "Ġmasuk": 1099,
      "Ġkasus": 1100,
      "Ġkeluarga": 1101,
      "Ġolimpiade": 1102,
      "negara": 1103,
      "Ġmampu": 1104,
      "beberapa": 1105,
      "eo": 1106,
      "kar": 1107,
      "tinya": 1108,
      "Ġ5": 1109,
      "Ġnya": 1110,
      "Ġangk": 1111,
      "Ġmed": 1112,
      "Ġsana": 1113,
      "Ġpet": 1114,
      "Ġbe": 1115,
      "Ġbelum": 1116,
      "Ġkal": 1117,
      "untu": 1118,
      "Ġdiri": 1119,
      "dam": 1120,
      "ahami": 1121,
      "Ġkelas": 1122,
      "umen": 1123,
      "Ġmengen": 1124,
      "Ġro": 1125,
      "Ġinform": 1126,
      "iden": 1127,
      "Ġfot": 1128,
      "Ġwilayah": 1129,
      "ampuan": 1130,
      "ubah": 1131,
      "Ġsekali": 1132,
      "Ġkemungkinan": 1133,
      "iptakan": 1134,
      "Ġsuara": 1135,
      "Ġkereta": 1136,
      "ender": 1137,
      "andingan": 1138,
      "Ġpemerintah": 1139,
      "Ġtradisi": 1140,
      "Ġtertentu": 1141,
      "ilmuwan": 1142,
      "Ġkuno": 1143,
      "dasarkan": 1144,
      "adang": 1145,
      "dar": 1146,
      "ibu": 1147,
      "na": 1148,
      "Ġ6": 1149,
      "Ġudara": 1150,
      "Ġdep": 1151,
      "Ġmes": 1152,
      "Ġsakit": 1153,
      "Ġpanjang": 1154,
      "Ġte": 1155,
      "asis": 1156,
      "Ġseseorang": 1157,
      "alnya": 1158,
      "isik": 1159,
      "Ġmemas": 1160,
      "esai": 1161,
      "ekn": 1162,
      "uru": 1163,
      "Ġrel": 1164,
      "otel": 1165,
      "upaya": 1166,
      "anyol": 1167,
      "ubahan": 1168,
      "anggap": 1169,
      "awarkan": 1170,
      "Ġkebanyakan": 1171,
      "Ġspanyol": 1172,
      "Ġpolisi": 1173,
      "gn": 1174,
      "hati": 1175,
      "jar": 1176,
      "jam": 1177,
      "uc": 1178,
      "yanan": 1179,
      "ania": 1180,
      "erang": 1181,
      "arus": 1182,
      "angi": 1183,
      "Ġpunya": 1184,
      "Ġtua": 1185,
      "Ġkaki": 1186,
      "akar": 1187,
      "Ġdila": 1188,
      "emudi": 1189,
      "Ġmenu": 1190,
      "tup": 1191,
      "Ġtersedia": 1192,
      "Ġberm": 1193,
      "Ġmemer": 1194,
      "Ġmemulai": 1195,
      "Ġlewat": 1196,
      "urus": 1197,
      "ukul": 1198,
      "trik": 1199,
      "Ġ10": 1200,
      "Ġkemampuan": 1201,
      "Ġvir": 1202,
      "Ġarea": 1203,
      "Ġkondisi": 1204,
      "Ġdibangun": 1205,
      "Ġmemperoleh": 1206,
      "Ġpenyakit": 1207,
      "Ġmaka": 1208,
      "Ġtelepon": 1209,
      "ilihan": 1210,
      "onomi": 1211,
      "ig": 1212,
      "kok": 1213,
      "land": 1214,
      "vid": 1215,
      "Ġit": 1216,
      "Ġdes": 1217,
      "arti": 1218,
      "Ġsisi": 1219,
      "Ġbus": 1220,
      "Ġbelas": 1221,
      "ins": 1222,
      "Ġkami": 1223,
      "akin": 1224,
      "Ġdic": 1225,
      "Ġdilakukan": 1226,
      "Ġmeninggal": 1227,
      "Ġmenawarkan": 1228,
      "Ġberarti": 1229,
      "utama": 1230,
      "dio": 1231,
      "Ġperi": 1232,
      "Ġlen": 1233,
      "Ġlint": 1234,
      "imb": 1235,
      "Ġpenerb": 1236,
      "Ġprot": 1237,
      "Ġsebab": 1238,
      "ulauan": 1239,
      "anjut": 1240,
      "Ġdikenal": 1241,
      "Ġmaupun": 1242,
      "Ġjadi": 1243,
      "Ġkuil": 1244,
      "Ġterkait": 1245,
      "Ġbentuk": 1246,
      "Ġdimulai": 1247,
      "empuan": 1248,
      "Ġkeku": 1249,
      "Ġpesawat": 1250,
      "Ġanggota": 1251,
      "Ġorganisasi": 1252,
      "satunya": 1253,
      "Ġinformasi": 1254,
      "he": 1255,
      "ij": 1256,
      "ro": 1257,
      "yang": 1258,
      "yat": 1259,
      "âĢ": 1260,
      "Ġdah": 1261,
      "Ġmod": 1262,
      "ard": 1263,
      "Ġsis": 1264,
      "Ġski": 1265,
      "Ġpir": 1266,
      "Ġpusat": 1267,
      "Ġtum": 1268,
      "Ġtamb": 1269,
      "Ġtekn": 1270,
      "Ġken": 1271,
      "Ġmenya": 1272,
      "Ġberjalan": 1273,
      "Ġmemp": 1274,
      "Ġlingk": 1275,
      "Ġmengetahui": 1276,
      "Ġre": 1277,
      "Ġrendah": 1278,
      "uks": 1279,
      "Ġindia": 1280,
      "jaga": 1281,
      "ulis": 1282,
      "Ġad": 1283,
      "Ġnom": 1284,
      "omat": 1285,
      "Ġpengalaman": 1286,
      "Ġpertandingan": 1287,
      "Ġatl": 1288,
      "portasi": 1289,
      "amida": 1290,
      "Ġturis": 1291,
      "walaupun": 1292,
      "Ġinternet": 1293,
      "setelah": 1294,
      "Ġsesu": 1295,
      "butuhkan": 1296,
      "Ġmembawa": 1297,
      "Ġrute": 1298,
      "ompok": 1299,
      "Ġmenerima": 1300,
      "ker": 1301,
      "Ġ8": 1302,
      "Ġulang": 1303,
      "annya": 1304,
      "ark": 1305,
      "Ġsulit": 1306,
      "Ġtingkat": 1307,
      "akah": 1308,
      "Ġditu": 1309,
      "ingat": 1310,
      "usun": 1311,
      "Ġmemahami": 1312,
      "Ġperubahan": 1313,
      "ura": 1314,
      "umber": 1315,
      "Ġmengak": 1316,
      "Ġrek": 1317,
      "ukaan": 1318,
      "Ġuniv": 1319,
      "iaya": 1320,
      "Ġlaporan": 1321,
      "Ġlayanan": 1322,
      "Ġpenelit": 1323,
      "Ġbala": 1324,
      "Ġfilm": 1325,
      "oko": 1326,
      "ember": 1327,
      "Ġpres": 1328,
      "Ġmenyel": 1329,
      "angkat": 1330,
      "Ġsuatu": 1331,
      "Ġpasukan": 1332,
      "Ġraja": 1333,
      "Ġkeseh": 1334,
      "Ġapakah": 1335,
      "Ġbersama": 1336,
      "efek": 1337,
      "ontoh": 1338,
      "Ġresmi": 1339,
      "Ġsalju": 1340,
      "Ġjarak": 1341,
      "Ġekonomi": 1342,
      "Ġaustralia": 1343,
      "Ġitalia": 1344,
      "Ġlintas": 1345,
      "Ġlingkungan": 1346,
      "Ġunivers": 1347,
      "au": 1348,
      "buhan": 1349,
      "dari": 1350,
      "edi": 1351,
      "gus": 1352,
      "iah": 1353,
      "lo": 1354,
      "meskipun": 1355,
      "ne": 1356,
      "tidak": 1357,
      "Ġuang": 1358,
      "arap": 1359,
      "Ġstr": 1360,
      "Ġsta": 1361,
      "Ġtaman": 1362,
      "ahari": 1363,
      "Ġterutama": 1364,
      "uter": 1365,
      "ona": 1366,
      "Ġjelas": 1367,
      "Ġjarang": 1368,
      "Ġru": 1369,
      "olusi": 1370,
      "Ġnama": 1371,
      "Ġ15": 1372,
      "Ġpemain": 1373,
      "batasan": 1374,
      "Ġseni": 1375,
      "Ġtanah": 1376,
      "Ġtiba": 1377,
      "Ġtiong": 1378,
      "ilai": 1379,
      "Ġumumnya": 1380,
      "Ġpajak": 1381,
      "Ġsedangkan": 1382,
      "Ġinternasional": 1383,
      "gerak": 1384,
      "adir": 1385,
      "Ġmenyebabkan": 1386,
      "Ġtransportasi": 1387,
      "eluarkan": 1388,
      "Ġtanggal": 1389,
      "Ġkesehatan": 1390,
      "),": 1391,
      "aik": 1392,
      "dengan": 1393,
      "iap": 1394,
      "kota": 1395,
      "nis": 1396,
      "operasi": 1397,
      "ram": 1398,
      "rasi": 1399,
      "utus": 1400,
      "aranya": 1401,
      "Ġsh": 1402,
      "Ġsumber": 1403,
      "Ġpukul": 1404,
      "Ġbelajar": 1405,
      "Ġtepat": 1406,
      "Ġtentara": 1407,
      "inta": 1408,
      "Ġkong": 1409,
      "Ġkurang": 1410,
      "unt": 1411,
      "Ġterj": 1412,
      "Ġterakhir": 1413,
      "Ġpergi": 1414,
      "Ġlat": 1415,
      "Ġmengambil": 1416,
      "Ġrep": 1417,
      "Ġins": 1418,
      "Ġfil": 1419,
      "Ġwar": 1420,
      "ampil": 1421,
      "ubungan": 1422,
      "raga": 1423,
      "ungkinkan": 1424,
      "antung": 1425,
      "Ġasli": 1426,
      "Ġkerus": 1427,
      "Ġdibanding": 1428,
      "ibatkan": 1429,
      "Ġradio": 1430,
      "Ġibu": 1431,
      "evisi": 1432,
      "Ġtelevisi": 1433,
      "encan": 1434,
      "Ġkomputer": 1435,
      "tivitas": 1436,
      "ampaknya": 1437,
      "energi": 1438,
      "Ġmenuju": 1439,
      "Ġmodern": 1440,
      "Ġsiswa": 1441,
      "Ġpiramida": 1442,
      "Ġtambahan": 1443,
      "banyak": 1444,
      "beda": 1445,
      "deka": 1446,
      "osi": 1447,
      "pas": 1448,
      "pek": 1449,
      "ron": 1450,
      "sela": 1451,
      "Ġdatang": 1452,
      "angit": 1453,
      "Ġput": 1454,
      "Ġpetu": 1455,
      "Ġpantai": 1456,
      "Ġbat": 1457,
      "Ġbin": 1458,
      "Ġbun": 1459,
      "atuh": 1460,
      "Ġtub": 1461,
      "Ġditer": 1462,
      "Ġmenj": 1463,
      "alkan": 1464,
      "alitas": 1465,
      "istrik": 1466,
      "Ġkebutuh": 1467,
      "Ġterlalu": 1468,
      "api": 1469,
      "ingan": 1470,
      "Ġmemakai": 1471,
      "Ġmemungkinkan": 1472,
      "Ġperempuan": 1473,
      "Ġhotel": 1474,
      "Ġrasa": 1475,
      "ukuran": 1476,
      "Ġind": 1477,
      "idur": 1478,
      "Ġcur": 1479,
      "okumen": 1480,
      "Ġprod": 1481,
      "Ġ18": 1482,
      "Ġ100": 1483,
      "Ġseri": 1484,
      "ubung": 1485,
      "Ġsekolah": 1486,
      "Ġmenyatakan": 1487,
      "Ġmelawan": 1488,
      "unjukan": 1489,
      "Ġmencapai": 1490,
      "ewati": 1491,
      "Ġkuat": 1492,
      "umumkan": 1493,
      "ujan": 1494,
      "elajaran": 1495,
      "Ġapabila": 1496,
      "uncak": 1497,
      "Ġagar": 1498,
      "angunan": 1499,
      "Ġpenduduk": 1500,
      "Ġlokal": 1501,
      "Ġmatahari": 1502,
      "Ġakhirnya": 1503,
      "ografi": 1504,
      "Ġwisatawan": 1505,
      "Ġdewa": 1506,
      "Ġtujuan": 1507,
      "Ġmengenai": 1508,
      "Ġdahulu": 1509,
      "Ġtiongkok": 1510,
      "Ġrepublik": 1511,
      "\".\"": 1512,
      "aja": 1513,
      "caman": 1514,
      "para": 1515,
      "qu": 1516,
      "res": 1517,
      "tel": 1518,
      "tai": 1519,
      "variasi": 1520,
      "¬âĢ": 1521,
      "âĤ": 1522,
      "Ġem": 1523,
      "Ġur": 1524,
      "Ġlam": 1525,
      "Ġenergi": 1526,
      "ank": 1527,
      "Ġpak": 1528,
      "Ġpela": 1529,
      "Ġbiaya": 1530,
      "ataran": 1531,
      "insi": 1532,
      "akat": 1533,
      "unan": 1534,
      "aha": 1535,
      "Ġsela": 1536,
      "Ġterg": 1537,
      "Ġbervariasi": 1538,
      "iter": 1539,
      "etik": 1540,
      "Ġmengunjungi": 1541,
      "irm": 1542,
      "ihak": 1543,
      "Ġcahaya": 1544,
      "Ġancaman": 1545,
      "aian": 1546,
      "embatan": 1547,
      "embangkan": 1548,
      "uaca": 1549,
      "Ġpri": 1550,
      "Ġpenggun": 1551,
      "Ġpengemudi": 1552,
      "osa": 1553,
      "Ġ16": 1554,
      "Ġnegeri": 1555,
      "Ġasal": 1556,
      "awasan": 1557,
      "Ġterbang": 1558,
      "istan": 1559,
      "Ġsejarah": 1560,
      "peny": 1561,
      "Ġterlihat": 1562,
      "indari": 1563,
      "andai": 1564,
      "Ġtradisional": 1565,
      "Ġlensa": 1566,
      "Ġpenerbangan": 1567,
      "selain": 1568,
      "âĤ¬âĢ": 1569,
      "bar": 1570,
      "bil": 1571,
      "bur": 1572,
      "fik": 1573,
      "luk": 1574,
      "ou": 1575,
      "te": 1576,
      "ton": 1577,
      "za": 1578,
      "zin": 1579,
      "Ġir": 1580,
      "Ġempat": 1581,
      "Ġwaj": 1582,
      "erh": 1583,
      "erah": 1584,
      "Ġdaya": 1585,
      "Ġsam": 1586,
      "Ġsing": 1587,
      "angga": 1588,
      "angsa": 1589,
      "Ġpot": 1590,
      "Ġpeg": 1591,
      "Ġbis": 1592,
      "Ġbulu": 1593,
      "ater": 1594,
      "atur": 1595,
      "Ġtik": 1596,
      "Ġtari": 1597,
      "akup": 1598,
      "Ġmenit": 1599,
      "alis": 1600,
      "alur": 1601,
      "Ġberw": 1602,
      "Ġbergabung": 1603,
      "orn": 1604,
      "Ġlemb": 1605,
      "Ġlangsung": 1606,
      "Ġlangit": 1607,
      "eli": 1608,
      "Ġhujan": 1609,
      "eter": 1610,
      "uman": 1611,
      "Ġmengirim": 1612,
      "Ġraya": 1613,
      "idang": 1614,
      "iring": 1615,
      "Ġcontoh": 1616,
      "Ġalas": 1617,
      "Ġlap": 1618,
      "okus": 1619,
      "Ġ11": 1620,
      "Ġsementara": 1621,
      "Ġvisa": 1622,
      "Ġsetempat": 1623,
      "Ġmencari": 1624,
      "Ġmenciptakan": 1625,
      "Ġkont": 1626,
      "Ġmenghasil": 1627,
      "Ġterletak": 1628,
      "Ġterkenal": 1629,
      "Ġpersen": 1630,
      "etahuan": 1631,
      "Ġburuk": 1632,
      "adilan": 1633,
      "Ġsatelit": 1634,
      "ftar": 1635,
      "Ġdilaporkan": 1636,
      "Ġuniversitas": 1637,
      "Ġkerusakan": 1638,
      "Ġpetugas": 1639,
      "Ġkebutuhan": 1640,
      "Ġmenghasilkan": 1641,
      "..": 1642,
      "20": 1643,
      "ck": 1644,
      "cel": 1645,
      "caya": 1646,
      "dakan": 1647,
      "gh": 1648,
      "kep": 1649,
      "kapai": 1650,
      "Ġ-": 1651,
      "Ġwalau": 1652,
      "erita": 1653,
      "Ġmol": 1654,
      "Ġmata": 1655,
      "Ġsub": 1656,
      "angin": 1657,
      "Ġpuluh": 1658,
      "Ġtem": 1659,
      "Ġtidur": 1660,
      "und": 1661,
      "Ġdid": 1662,
      "Ġdianggap": 1663,
      "emat": 1664,
      "alik": 1665,
      "Ġketi": 1666,
      "Ġterus": 1667,
      "Ġberf": 1668,
      "Ġberakhir": 1669,
      "Ġbergerak": 1670,
      "dikan": 1671,
      "divid": 1672,
      "Ġperbatasan": 1673,
      "Ġleg": 1674,
      "Ġlistrik": 1675,
      "itif": 1676,
      "esan": 1677,
      "Ġjatuh": 1678,
      "uma": 1679,
      "Ġmengin": 1680,
      "Ġrus": 1681,
      "ukung": 1682,
      "ira": 1683,
      "ulisan": 1684,
      "Ġnaik": 1685,
      "omb": 1686,
      "Ġpengetahuan": 1687,
      "truksi": 1688,
      "Ġmelewati": 1689,
      "selama": 1690,
      "Ġatom": 1691,
      "Ġmelaporkan": 1692,
      "Ġarah": 1693,
      "ancong": 1694,
      "Ġpasar": 1695,
      "Ġpembelajaran": 1696,
      "Ġseharus": 1697,
      "yarakat": 1698,
      "ock": 1699,
      "encana": 1700,
      "setiap": 1701,
      "Ġpemerintahan": 1702,
      "ikuti": 1703,
      "Ġsatwa": 1704,
      "Ġkelompok": 1705,
      "Ġguna": 1706,
      "Ġdemi": 1707,
      "Ġkhususnya": 1708,
      "Ġformat": 1709,
      "Ġrelatif": 1710,
      "Ġmemerlukan": 1711,
      "Ġpresiden": 1712,
      "Ġtubuh": 1713,
      "dividu": 1714,
      "Ġseharusnya": 1715,
      "buk": 1716,
      "ku": 1717,
      "ket": 1718,
      "kami": 1719,
      "su": 1720,
      "wisata": 1721,
      "Ġ7": 1722,
      "ĠÃ¢": 1723,
      "Ġdr": 1724,
      "Ġmeskipun": 1725,
      "art": 1726,
      "Ġpo": 1727,
      "Ġpangg": 1728,
      "Ġpublik": 1729,
      "Ġpihak": 1730,
      "Ġbeb": 1731,
      "Ġband": 1732,
      "atangan": 1733,
      "aktif": 1734,
      "untuk": 1735,
      "Ġdibuat": 1736,
      "empa": 1737,
      "dag": 1738,
      "Ġmeningkat": 1739,
      "Ġsepat": 1740,
      "Ġselalu": 1741,
      "kannya": 1742,
      "isalnya": 1743,
      "adaan": 1744,
      "Ġtertu": 1745,
      "Ġterdapat": 1746,
      "Ġberdasarkan": 1747,
      "ingatan": 1748,
      "utkan": 1749,
      "Ġmemen": 1750,
      "gaim": 1751,
      "Ġperangkat": 1752,
      "Ġlari": 1753,
      "Ġlog": 1754,
      "ilangan": 1755,
      "Ġjoh": 1756,
      "Ġjalur": 1757,
      "Ġmengembangkan": 1758,
      "jauh": 1759,
      "Ġcender": 1760,
      "wab": 1761,
      "Ġpenuh": 1762,
      "uhnya": 1763,
      "Ġbahan": 1764,
      "amai": 1765,
      "embang": 1766,
      "tra": 1767,
      "Ġselandia": 1768,
      "Ġaktivitas": 1769,
      "Ġmencakup": 1770,
      "ogram": 1771,
      "Ġterbuka": 1772,
      "Ġterbentuk": 1773,
      "Ġberkembang": 1774,
      "Ġmendorong": 1775,
      "Ġmendukung": 1776,
      "inginkan": 1777,
      "Ġialah": 1778,
      "impin": 1779,
      "ohon": 1780,
      "uncul": 1781,
      "Ġmiliter": 1782,
      "yaratan": 1783,
      "Ġgaya": 1784,
      "landia": 1785,
      "menurut": 1786,
      "Ġmetode": 1787,
      "Ġdinosa": 1788,
      "Ġpopulasi": 1789,
      "Ġotoritas": 1790,
      "Ġkepulauan": 1791,
      "untutan": 1792,
      "Ġtarif": 1793,
      "Ġcenderung": 1794,
      "Ġdinosaurus": 1795,
      ",\"": 1796,
      "dana": 1797,
      "fer": 1798,
      "fikasi": 1799,
      "feksi": 1800,
      "jukan": 1801,
      "pol": 1802,
      "sel": 1803,
      "vasi": 1804,
      "Ġus": 1805,
      "Ġgi": 1806,
      "ens": 1807,
      "aris": 1808,
      "Ġpuncak": 1809,
      "Ġbelak": 1810,
      "atus": 1811,
      "Ġtampaknya": 1812,
      "ine": 1813,
      "Ġkur": 1814,
      "Ġkamp": 1815,
      "Ġkac": 1816,
      "aktik": 1817,
      "unungan": 1818,
      "ase": 1819,
      "Ġdiba": 1820,
      "Ġmenandai": 1821,
      "ahli": 1822,
      "amakan": 1823,
      "Ġdanau": 1824,
      "Ġkepa": 1825,
      "Ġberas": 1826,
      "Ġberusia": 1827,
      "ord": 1828,
      "engg": 1829,
      "Ġperdag": 1830,
      "Ġlima": 1831,
      "lahraga": 1832,
      "ilang": 1833,
      "iling": 1834,
      "Ġhutan": 1835,
      "Ġmengeluarkan": 1836,
      "Ġindividu": 1837,
      "ideo": 1838,
      "irakan": 1839,
      "Ġpro": 1840,
      "epas": 1841,
      "Ġmembentuk": 1842,
      "Ġselesai": 1843,
      "Ġasing": 1844,
      "Ġmencoba": 1845,
      "Ġarus": 1846,
      "Ġartinya": 1847,
      "abet": 1848,
      "inggu": 1849,
      "Ġmenghindari": 1850,
      "Ġdiberikan": 1851,
      "Ġmasyarakat": 1852,
      "penc": 1853,
      "unyai": 1854,
      "Ġterlibat": 1855,
      "Ġalat": 1856,
      "Ġterkadang": 1857,
      "Ġolahraga": 1858,
      "Ġkesep": 1859,
      "Ġ199": 1860,
      "ocok": 1861,
      "idupan": 1862,
      "Ġawalnya": 1863,
      "Ġmateri": 1864,
      "Ġposisi": 1865,
      "Ġotak": 1866,
      "Ġgereja": 1867,
      "engaruhi": 1868,
      "ijakan": 1869,
      "Ġmempunyai": 1870,
      "Ġbalapan": 1871,
      "Ġbunga": 1872,
      "Ġurutan": 1873,
      "gaimana": 1874,
      "Ġbelakang": 1875,
      "Ġperdagangan": 1876,
      "\",": 1877,
      "bet": 1878,
      "een": 1879,
      "ji": 1880,
      "kas": 1881,
      "log": 1882,
      "sem": 1883,
      "sek": 1884,
      "uari": 1885,
      "uanya": 1886,
      "ve": 1887,
      "we": 1888,
      "Ġ9": 1889,
      "Ġet": 1890,
      "Ġasi": 1891,
      "Ġim": 1892,
      "Ġaman": 1893,
      "Ġuj": 1894,
      "erus": 1895,
      "ersi": 1896,
      "Ġdokumen": 1897,
      "Ġmah": 1898,
      "Ġmur": 1899,
      "Ġmuncul": 1900,
      "Ġsik": 1901,
      "Ġsur": 1902,
      "Ġpat": 1903,
      "Ġpeda": 1904,
      "ator": 1905,
      "aturan": 1906,
      "Ġta": 1907,
      "Ġtet": 1908,
      "Ġtuan": 1909,
      "Ġtip": 1910,
      "Ġthe": 1911,
      "Ġtoko": 1912,
      "Ġkawasan": 1913,
      "undang": 1914,
      "asti": 1915,
      "emah": 1916,
      "Ġmenteri": 1917,
      "Ġselam": 1918,
      "tual": 1919,
      "Ġkese": 1920,
      "aria": 1921,
      "arian": 1922,
      "Ġmempr": 1923,
      "Ġmembutuhkan": 1924,
      "didikan": 1925,
      "gala": 1926,
      "Ġperingatan": 1927,
      "elar": 1928,
      "Ġhid": 1929,
      "Ġhasil": 1930,
      "Ġhubungan": 1931,
      "one": 1932,
      "urkan": 1933,
      "Ġjembatan": 1934,
      "Ġmengumumkan": 1935,
      "Ġribu": 1936,
      "ungsi": 1937,
      "jad": 1938,
      "Ġcar": 1939,
      "Ġcocok": 1940,
      "Ġnor": 1941,
      "pert": 1942,
      "Ġpenj": 1943,
      "elap": 1944,
      "idaknya": 1945,
      "asaan": 1946,
      "Ġprov": 1947,
      "Ġmembangun": 1948,
      "andar": 1949,
      "andangan": 1950,
      "Ġpemil": 1951,
      "angguan": 1952,
      "ikian": 1953,
      "salah": 1954,
      "Ġpertunjukan": 1955,
      "sejak": 1956,
      "edak": 1957,
      "unjungan": 1958,
      "Ġberbasis": 1959,
      "Ġkerja": 1960,
      "ogen": 1961,
      "Ġmusuh": 1962,
      "endaraan": 1963,
      "Ġtanda": 1964,
      "Ġkomun": 1965,
      "Ġmac": 1966,
      "Ġmaskapai": 1967,
      "asilitas": 1968,
      "Ġmakam": 1969,
      "Ġstandar": 1970,
      "Ġpendek": 1971,
      "usaha": 1972,
      "Ġapi": 1973,
      "Ġmeter": 1974,
      "Ġisti": 1975,
      "sebagai": 1976,
      "Ġbuku": 1977,
      "Ġkehidupan": 1978,
      "Ġkorban": 1979,
      "Ġangkasa": 1980,
      "Ġmedis": 1981,
      "Ġroda": 1982,
      "Ġmesir": 1983,
      "Ġperilaku": 1984,
      "Ġkekuatan": 1985,
      "Ġmengakibatkan": 1986,
      "Ġpenelitian": 1987,
      "Ġstabil": 1988,
      "Ġbinatang": 1989,
      "Ġsamud": 1990,
      "Ġpegunungan": 1991,
      "Ġsepatu": 1992,
      "Ġjohn": 1993,
      "ala": 1994,
      "ex": 1995,
      "fa": 1996,
      "iet": 1997,
      "kem": 1998,
      "olak": 1999,
      "sun": 2000,
      "yal": 2001,
      "yakan": 2002,
      "zan": 2003,
      "Ġilm": 2004,
      "Ġukuran": 2005,
      "Ġangin": 2006,
      "Ġahli": 2007,
      "aruh": 2008,
      "Ġsini": 2009,
      "Ġpb": 2010,
      "Ġpapan": 2011,
      "Ġbatu": 2012,
      "Ġbola": 2013,
      "atkan": 2014,
      "atasi": 2015,
      "Ġtind": 2016,
      "inc": 2017,
      "Ġkant": 2018,
      "Ġkendaraan": 2019,
      "akian": 2020,
      "asinya": 2021,
      "Ġdiseb": 2022,
      "alisasi": 2023,
      "isah": 2024,
      "iknya": 2025,
      "adaban": 2026,
      "Ġterc": 2027,
      "Ġterbat": 2028,
      "Ġberenang": 2029,
      "iti": 2030,
      "itania": 2031,
      "Ġhong": 2032,
      "Ġhalaman": 2033,
      "Ġjul": 2034,
      "Ġmengg": 2035,
      "uktur": 2036,
      "Ġuni": 2037,
      "ihan": 2038,
      "tim": 2039,
      "titu": 2040,
      "Ġced": 2041,
      "Ġaj": 2042,
      "Ġnuk": 2043,
      "Ġlaki": 2044,
      "Ġmerah": 2045,
      "Ġpendidikan": 2046,
      "Ġgua": 2047,
      "Ġgamb": 2048,
      "Ġgelap": 2049,
      "Ġfisik": 2050,
      "Ġwas": 2051,
      "Ġprogram": 2052,
      "Ġpengh": 2053,
      "ampilan": 2054,
      "Ġ17": 2055,
      "etapkan": 2056,
      "entar": 2057,
      "ongan": 2058,
      "Ġsemakin": 2059,
      "intang": 2060,
      "Ġkontr": 2061,
      "Ġsebanyak": 2062,
      "laki": 2063,
      "Ġberkata": 2064,
      "Ġdiketahui": 2065,
      "isten": 2066,
      "ewasa": 2067,
      "dirikan": 2068,
      "Ġmempert": 2069,
      "ormal": 2070,
      "Ġterlebih": 2071,
      "Ġterluka": 2072,
      "Ġluas": 2073,
      "asilan": 2074,
      "Ġobat": 2075,
      "Ġpenyeb": 2076,
      "Ġbenda": 2077,
      "ikasikan": 2078,
      "Ġdiperlukan": 2079,
      "ejabat": 2080,
      "entukan": 2081,
      "Ġmelam": 2082,
      "Ġdaerah": 2083,
      "Ġdirinya": 2084,
      "Ġpositif": 2085,
      "Ġgunung": 2086,
      "Ġmanaj": 2087,
      "mbangkan": 2088,
      "Ġkanada": 2089,
      "yataan": 2090,
      "Ġnyaman": 2091,
      "Ġdepan": 2092,
      "Ġteknologi": 2093,
      "Ġsesuai": 2094,
      "ampilkan": 2095,
      "Ġcuram": 2096,
      "Ġpenggunaan": 2097,
      "Ġtiket": 2098,
      "Ġberasal": 2099,
      "Ġribuan": 2100,
      "Ġilmiah": 2101,
      "Ġtindakan": 2102,
      "Ġkantor": 2103,
      "Ġdisebabkan": 2104,
      "Ġterbatas": 2105,
      "Ġcedera": 2106,
      "air": 2107,
      "ez": 2108,
      "firm": 2109,
      "gasi": 2110,
      "icara": 2111,
      "jikan": 2112,
      "kh": 2113,
      "kom": 2114,
      "lin": 2115,
      "les": 2116,
      "lir": 2117,
      "lok": 2118,
      "min": 2119,
      "oga": 2120,
      "ros": 2121,
      "rop": 2122,
      "son": 2123,
      "tempat": 2124,
      "tember": 2125,
      "uali": 2126,
      "Ġam": 2127,
      "Ġara": 2128,
      "Ġamp": 2129,
      "Ġed": 2130,
      "Ġob": 2131,
      "Ġikut": 2132,
      "Ġilmuwan": 2133,
      "Ġefek": 2134,
      "Ġdataran": 2135,
      "entr": 2136,
      "Ġsak": 2137,
      "Ġstu": 2138,
      "Ġsuh": 2139,
      "Ġpesi": 2140,
      "Ġpilihan": 2141,
      "Ġbas": 2142,
      "Ġbom": 2143,
      "Ġbank": 2144,
      "Ġtep": 2145,
      "Ġtapi": 2146,
      "Ġkaya": 2147,
      "Ġkris": 2148,
      "akaran": 2149,
      "una": 2150,
      "Ġdig": 2151,
      "Ġmenul": 2152,
      "Ġmenurut": 2153,
      "ahasa": 2154,
      "Ġketu": 2155,
      "adam": 2156,
      "Ġterd": 2157,
      "apak": 2158,
      "Ġberadap": 2159,
      "Ġberubah": 2160,
      "engk": 2161,
      "Ġperdana": 2162,
      "ite": 2163,
      "Ġhak": 2164,
      "onfirm": 2165,
      "Ġmengakhir": 2166,
      "Ġmengurang": 2167,
      "Ġunik": 2168,
      "olon": 2169,
      "badi": 2170,
      "Ġcuaca": 2171,
      "Ġaudi": 2172,
      "Ġnon": 2173,
      "peri": 2174,
      "pergian": 2175,
      "Ġmerasa": 2176,
      "Ġgol": 2177,
      "Ġgangguan": 2178,
      "situs": 2179,
      "Ġfasilitas": 2180,
      "embangan": 2181,
      "Ġmemberi": 2182,
      "atian": 2183,
      "Ġmenyer": 2184,
      "entasi": 2185,
      "Ġ24": 2186,
      "Ġmeledak": 2187,
      "secara": 2188,
      "antan": 2189,
      "antik": 2190,
      "Ġvideo": 2191,
      "Ġsetidaknya": 2192,
      "eder": 2193,
      "awi": 2194,
      "Ġkebijakan": 2195,
      "Ġkuda": 2196,
      "elajari": 2197,
      "Ġseptember": 2198,
      "Ġbenar": 2199,
      "Ġizin": 2200,
      "Ġturki": 2201,
      "Ġ30": 2202,
      "Ġpendakian": 2203,
      "Ġsituasi": 2204,
      "Ġpolitik": 2205,
      "acam": 2206,
      "agen": 2207,
      "Ġmedi": 2208,
      "Ġdemikian": 2209,
      "wajib": 2210,
      "Ġbritania": 2211,
      "Ġromawi": 2212,
      "Ġspesies": 2213,
      "Ġpermukaan": 2214,
      "karena": 2215,
      "Ġbepergian": 2216,
      "damp": 2217,
      "Ġvirtual": 2218,
      "Ġdesain": 2219,
      "Ġadanya": 2220,
      "Ġatlantik": 2221,
      "Ġserius": 2222,
      "âĤ¬âĢľ": 2223,
      "Ġpotensi": 2224,
      "Ġalasan": 2225,
      "Ġpoin": 2226,
      "Ġkepala": 2227,
      "eenland": 2228,
      "Ġmahal": 2229,
      "Ġpesiar": 2230,
      "Ġberadaptasi": 2231,
      "onfirmasi": 2232,
      "Ġmengurangi": 2233,
      "50": 2234,
      "br": 2235,
      "bor": 2236,
      "derh": 2237,
      "gal": 2238,
      "jek": 2239,
      "kr": 2240,
      "kul": 2241,
      "lop": 2242,
      "lihat": 2243,
      "resi": 2244,
      "saan": 2245,
      "th": 2246,
      "tas": 2247,
      "uasa": 2248,
      "vensi": 2249,
      "ys": 2250,
      "Ġangka": 2251,
      "anja": 2252,
      "erlakukan": 2253,
      "Ġdampak": 2254,
      "Ġdewasa": 2255,
      "Ġmo": 2256,
      "Ġmut": 2257,
      "Ġminggu": 2258,
      "enakan": 2259,
      "Ġsm": 2260,
      "Ġsin": 2261,
      "Ġsch": 2262,
      "Ġsov": 2263,
      "Ġpik": 2264,
      "Ġpekerja": 2265,
      "Ġpohon": 2266,
      "Ġbak": 2267,
      "Ġbot": 2268,
      "Ġbintang": 2269,
      "atat": 2270,
      "Ġteg": 2271,
      "Ġtuntutan": 2272,
      "Ġkam": 2273,
      "Ġkini": 2274,
      "akter": 2275,
      "aktor": 2276,
      "akyat": 2277,
      "unuh": 2278,
      "Ġdij": 2279,
      "Ġmenak": 2280,
      "yap": 2281,
      "isaran": 2282,
      "iksaan": 2283,
      "Ġterdiri": 2284,
      "Ġterpenc": 2285,
      "Ġbern": 2286,
      "Ġberupa": 2287,
      "Ġberoperasi": 2288,
      "engahan": 2289,
      "ustus": 2290,
      "Ġmemutus": 2291,
      "Ġmeminta": 2292,
      "eliling": 2293,
      "Ġhadir": 2294,
      "estiv": 2295,
      "ekul": 2296,
      "ektr": 2297,
      "uri": 2298,
      "Ġmengarah": 2299,
      "Ġmengatasi": 2300,
      "Ġraks": 2301,
      "Ġrakyat": 2302,
      "tip": 2303,
      "Ġcap": 2304,
      "Ġcoba": 2305,
      "Ġni": 2306,
      "Ġnormal": 2307,
      "gitu": 2308,
      "Ġmera": 2309,
      "Ġpenemuan": 2310,
      "Ġgraf": 2311,
      "Ġgempa": 2312,
      "siap": 2313,
      "Ġfin": 2314,
      "ehan": 2315,
      "jadian": 2316,
      "Ġpengunjung": 2317,
      "osis": 2318,
      "Ġserangan": 2319,
      "Ġpemba": 2320,
      "Ġmenyeber": 2321,
      "Ġpertengahan": 2322,
      "angkit": 2323,
      "ipina": 2324,
      "Ġaspek": 2325,
      "Ġberbahaya": 2326,
      "Ġberbicara": 2327,
      "Ġkeraja": 2328,
      "ober": 2329,
      "Ġberkunjung": 2330,
      "endara": 2331,
      "endela": 2332,
      "ormati": 2333,
      "Ġkebakaran": 2334,
      "elajah": 2335,
      "Ġpelec": 2336,
      "Ġagen": 2337,
      "Ġagustus": 2338,
      "masing": 2339,
      "ecah": 2340,
      "Ġpagi": 2341,
      "Ġ196": 2342,
      "Ġdinasti": 2343,
      "Ġgrand": 2344,
      "ado": 2345,
      "Ġberhasil": 2346,
      "Ġkeluar": 2347,
      "Ġmaret": 2348,
      "Ġbukti": 2349,
      "Ġminyak": 2350,
      "Ġdilihat": 2351,
      "Ġelemen": 2352,
      "Ġdasarnya": 2353,
      "Ġpasir": 2354,
      "Ġpasien": 2355,
      "Ġangkatan": 2356,
      "damaian": 2357,
      "isiko": 2358,
      "esaikan": 2359,
      "omatik": 2360,
      "Ġatlet": 2361,
      "Ġruangan": 2362,
      "Ġlatin": 2363,
      "Ġfilipina": 2364,
      "bedaan": 2365,
      "Ġpelabuhan": 2366,
      "Ġirak": 2367,
      "Ġlembah": 2368,
      "Ġbandara": 2369,
      "Ġmemenuhi": 2370,
      "Ġlogam": 2371,
      "polisi": 2372,
      "Ġmurah": 2373,
      "Ġpemilu": 2374,
      "Ġjuli": 2375,
      "Ġnuklir": 2376,
      "Ġmengakhiri": 2377,
      "Ġsoviet": 2378,
      "Ġterpencil": 2379,
      "estival": 2380,
      "Ġraksasa": 2381,
      "Ġpelecehan": 2382,
      "\".": 2383,
      "19": 2384,
      "89": 2385,
      "awan": 2386,
      "bel": 2387,
      "eum": 2388,
      "gu": 2389,
      "hi": 2390,
      "hari": 2391,
      "jah": 2392,
      "jara": 2393,
      "kek": 2394,
      "kadang": 2395,
      "kirakan": 2396,
      "lus": 2397,
      "linya": 2398,
      "ook": 2399,
      "sor": 2400,
      "tah": 2401,
      "til": 2402,
      "tanya": 2403,
      "utu": 2404,
      "udah": 2405,
      "Â¡": 2406,
      "Ġid": 2407,
      "ansi": 2408,
      "enar": 2409,
      "enom": 2410,
      "Ġsuk": 2411,
      "Ġsemb": 2412,
      "ĠsÃ£": 2413,
      "Ġsupaya": 2414,
      "Ġph": 2415,
      "Ġpakai": 2416,
      "Ġpelajar": 2417,
      "Ġbangunan": 2418,
      "Ġbidang": 2419,
      "Ġteks": 2420,
      "Ġtitik": 2421,
      "laim": 2422,
      "Ġkir": 2423,
      "Ġkim": 2424,
      "Ġkot": 2425,
      "Ġkab": 2426,
      "Ġkunjungan": 2427,
      "unani": 2428,
      "Ġdijadi": 2429,
      "Ġdidasarkan": 2430,
      "Ġmenel": 2431,
      "Ġmenjaga": 2432,
      "Ġmenulis": 2433,
      "Ġmenentukan": 2434,
      "Ġmenampilkan": 2435,
      "Ġsegala": 2436,
      "Ġyunani": 2437,
      "ikm": 2438,
      "Ġkebu": 2439,
      "Ġkeaman": 2440,
      "Ġkeadaan": 2441,
      "Ġkejadian": 2442,
      "apura": 2443,
      "Ġberikut": 2444,
      "Ġberusaha": 2445,
      "org": 2446,
      "utar": 2447,
      "Ġmemengaruhi": 2448,
      "Ġperp": 2449,
      "Ġperbedaan": 2450,
      "Ġlub": 2451,
      "Ġland": 2452,
      "esti": 2453,
      "Ġjendela": 2454,
      "etan": 2455,
      "Ġreg": 2456,
      "Ġratu": 2457,
      "laman": 2458,
      "uki": 2459,
      "olog": 2460,
      "Ġnyata": 2461,
      "Ġnilai": 2462,
      "Ġmerdeka": 2463,
      "Ġpendapat": 2464,
      "elapan": 2465,
      "Ġgl": 2466,
      "Ġgu": 2467,
      "Ġgas": 2468,
      "egori": 2469,
      "okter": 2470,
      "Ġpraktik": 2471,
      "Ġpengadilan": 2472,
      "ampung": 2473,
      "tern": 2474,
      "Ġmembeli": 2475,
      "andatangan": 2476,
      "Ġpemimpin": 2477,
      "Ġmenyerang": 2478,
      "Ġpertemuan": 2479,
      "Ġkemen": 2480,
      "Ġkematian": 2481,
      "Ġ25": 2482,
      "Ġsemacam": 2483,
      "Ġkartu": 2484,
      "ahanan": 2485,
      "Ġvariasi": 2486,
      "Ġaslinya": 2487,
      "Ġsetengah": 2488,
      "anjung": 2489,
      "Ġkering": 2490,
      "ambahkan": 2491,
      "Ġmenghadap": 2492,
      "Ġmenghubung": 2493,
      "istik": 2494,
      "Ġantaranya": 2495,
      "Ġof": 2496,
      "Ġdipl": 2497,
      "Ġagung": 2498,
      "Ġdiser": 2499,
      "Ġmembuatnya": 2500,
      "ova": 2501,
      "Ġgagal": 2502,
      "Ġpersyaratan": 2503,
      "Ġkeka": 2504,
      "ocor": 2505,
      "icu": 2506,
      "Ġzaman": 2507,
      "Ġgrup": 2508,
      "Ġgreenland": 2509,
      "onton": 2510,
      "Ġkonser": 2511,
      "Ġberharap": 2512,
      "Ġkatalan": 2513,
      "Ġkategori": 2514,
      "Ġgerakan": 2515,
      "Ġroma": 2516,
      "indahkan": 2517,
      "Ġmedan": 2518,
      "Ġteori": 2519,
      "Ġvirus": 2520,
      "Ġmeninggalkan": 2521,
      "Ġkekuasaan": 2522,
      "Ġteknik": 2523,
      "Ġnomor": 2524,
      "Ġproduksi": 2525,
      "Ġbisnis": 2526,
      "Ġketiga": 2527,
      "Ġkampany": 2528,
      "Ġdibawa": 2529,
      "Ġpedalaman": 2530,
      "jadwal": 2531,
      "Ġmacam": 2532,
      "Ġistilah": 2533,
      "Ġgambar": 2534,
      "Ġsuhu": 2535,
      "Ġmemutuskan": 2536,
      "Ġmenyeberangi": 2537,
      "enomena": 2538,
      "Ġpakaian": 2539,
      "Ġkimia": 2540,
      "Ġdijadikan": 2541,
      "Ġkeamanan": 2542,
      "Ġreguler": 2543,
      "andatangani": 2544,
      "co": 2545,
      "cu": 2546,
      "cak": 2547,
      "cing": 2548,
      "dua": 2549,
      "dova": 2550,
      "elam": 2551,
      "galan": 2552,
      "kap": 2553,
      "lis": 2554,
      "ma": 2555,
      "mem": 2556,
      "meng": 2557,
      "muk": 2558,
      "misalnya": 2559,
      "pem": 2560,
      "pit": 2561,
      "tis": 2562,
      "uangan": 2563,
      "val": 2564,
      "yi": 2565,
      "yu": 2566,
      "Ġwa": 2567,
      "Ġok": 2568,
      "Ġep": 2569,
      "Ġiran": 2570,
      "Ġwalaupun": 2571,
      "anta": 2572,
      "anita": 2573,
      "erat": 2574,
      "erdeka": 2575,
      "Ġmm": 2576,
      "Ġmik": 2577,
      "Ġmul": 2578,
      "enda": 2579,
      "enya": 2580,
      "enti": 2581,
      "arat": 2582,
      "arin": 2583,
      "Ġplan": 2584,
      "Ġpejabat": 2585,
      "Ġbh": 2586,
      "Ġbantu": 2587,
      "Ġbea": 2588,
      "ate": 2589,
      "atalkan": 2590,
      "Ġteb": 2591,
      "Ġtata": 2592,
      "Ġtump": 2593,
      "Ġtulisan": 2594,
      "laporan": 2595,
      "Ġkop": 2596,
      "Ġkanj": 2597,
      "akatan": 2598,
      "Ġdiambil": 2599,
      "Ġdibutuhkan": 2600,
      "Ġdiinginkan": 2601,
      "daftar": 2602,
      "Ġmenungg": 2603,
      "ahu": 2604,
      "Ġseper": 2605,
      "Ġsederh": 2606,
      "amanya": 2607,
      "amati": 2608,
      "iksa": 2609,
      "Ġkesa": 2610,
      "Ġterting": 2611,
      "Ġberat": 2612,
      "Ġberla": 2613,
      "Ġberita": 2614,
      "Ġberdiri": 2615,
      "orban": 2616,
      "ebar": 2617,
      "uti": 2618,
      "utif": 2619,
      "ust": 2620,
      "ariwisata": 2621,
      "Ġmemakan": 2622,
      "Ġperhati": 2623,
      "elok": 2624,
      "Ġhit": 2625,
      "Ġhati": 2626,
      "Ġhangat": 2627,
      "ekam": 2628,
      "ektur": 2629,
      "ekutif": 2630,
      "Ġji": 2631,
      "Ġjan": 2632,
      "Ġmengubah": 2633,
      "Ġmengikuti": 2634,
      "Ġmengamati": 2635,
      "Ġri": 2636,
      "Ġrun": 2637,
      "Ġrencana": 2638,
      "bagi": 2639,
      "tiwa": 2640,
      "Ġaf": 2641,
      "Ġne": 2642,
      "imat": 2643,
      "Ġpenulis": 2644,
      "elasi": 2645,
      "ometer": 2646,
      "Ġbahaya": 2647,
      "Ġbagaimana": 2648,
      "Ġfeder": 2649,
      "Ġfestival": 2650,
      "anyi": 2651,
      "luas": 2652,
      "Ġwanita": 2653,
      "Ġprof": 2654,
      "opis": 2655,
      "Ġmembatalkan": 2656,
      "Ġnegatif": 2657,
      "Ġpemilihan": 2658,
      "atikan": 2659,
      "Ġmenyedi": 2660,
      "pertimbangkan": 2661,
      "Ġkemerdeka": 2662,
      "Ġsemen": 2663,
      "Ġmelint": 2664,
      "angkap": 2665,
      "angkut": 2666,
      "Ġkarakter": 2667,
      "edakan": 2668,
      "ancang": 2669,
      "Ġmuseum": 2670,
      "Ġmendes": 2671,
      "Ġmasing": 2672,
      "penuhi": 2673,
      "Ġkucing": 2674,
      "Ġalih": 2675,
      "Ġpaspor": 2676,
      "inding": 2677,
      "uncur": 2678,
      "Ġagama": 2679,
      "ecahkan": 2680,
      "Ġdiadakan": 2681,
      "Ġbenua": 2682,
      "Ġmilik": 2683,
      "Ġturun": 2684,
      "Ġpolandia": 2685,
      "Ġ197": 2686,
      "evolusi": 2687,
      "Ġdimiliki": 2688,
      "ick": 2689,
      "Ġeksekutif": 2690,
      "Ġpemeriksaan": 2691,
      "ifikan": 2692,
      "Ġpernyataan": 2693,
      "Ġrestor": 2694,
      "ejala": 2695,
      "aiti": 2696,
      "aitan": 2697,
      "Ġdaun": 2698,
      "Ġsign": 2699,
      "Ġdirancang": 2700,
      "yakini": 2701,
      "Ġ40": 2702,
      "ustri": 2703,
      "Ġdaratan": 2704,
      "Ġbukit": 2705,
      "Ġalamat": 2706,
      "aksikan": 2707,
      "Ġkehilangan": 2708,
      "Ġrutin": 2709,
      "Ġbrasil": 2710,
      "Ġskater": 2711,
      "Ġspesifik": 2712,
      "Ġperkembangan": 2713,
      "gabungkan": 2714,
      "untut": 2715,
      "Ġsesuatu": 2716,
      "Ġmenyelesaikan": 2717,
      "Ġkongres": 2718,
      "untungan": 2719,
      "Ġditerima": 2720,
      "Ġpakistan": 2721,
      "Ġselain": 2722,
      "Ġselasa": 2723,
      "Ġtergantung": 2724,
      "Ġpribadi": 2725,
      "penyakit": 2726,
      "baru": 2727,
      "Ġwajah": 2728,
      "Ġsingapura": 2729,
      "Ġteman": 2730,
      "Ġrusa": 2731,
      "Ġbebas": 2732,
      "Ġkesepakatan": 2733,
      "semua": 2734,
      "Ġasia": 2735,
      "Ġtipis": 2736,
      "Ġpbb": 2737,
      "Ġmanajemen": 2738,
      "Ġarab": 2739,
      "Ġobjek": 2740,
      "Ġkerajaan": 2741,
      "Ġmenelepon": 2742,
      "Ġberikutnya": 2743,
      "Ġlandasan": 2744,
      "ologis": 2745,
      "Ġbantuan": 2746,
      "Ġkanjar": 2747,
      "Ġsederhana": 2748,
      "Ġtertinggi": 2749,
      "Ġmenyediakan": 2750,
      "Ġkemerdekaan": 2751,
      "Ġsignifikan": 2752,
      "16": 2753,
      "30": 2754,
      "500": 2755,
      "ej": 2756,
      "gar": 2757,
      "ganya": 2758,
      "gos": 2759,
      "ho": 2760,
      "hanya": 2761,
      "hluk": 2762,
      "juan": 2763,
      "keb": 2764,
      "kata": 2765,
      "kec": 2766,
      "kapal": 2767,
      "ll": 2768,
      "lar": 2769,
      "lemen": 2770,
      "masa": 2771,
      "pula": 2772,
      "ry": 2773,
      "rogen": 2774,
      "uah": 2775,
      "vesti": 2776,
      "wanya": 2777,
      "Ġe": 2778,
      "Ġen": 2779,
      "Ġik": 2780,
      "Ġef": 2781,
      "Ġupa": 2782,
      "erd": 2783,
      "erti": 2784,
      "Ġduk": 2785,
      "Ġduduk": 2786,
      "Ġdll": 2787,
      "arg": 2788,
      "aru": 2789,
      "arna": 2790,
      "Ġsif": 2791,
      "Ġsosi": 2792,
      "Ġpl": 2793,
      "Ġpul": 2794,
      "Ġpekan": 2795,
      "Ġbek": 2796,
      "Ġbakar": 2797,
      "Ġblog": 2798,
      "Ġtai": 2799,
      "Ġtemb": 2800,
      "Ġtena": 2801,
      "Ġtsun": 2802,
      "Ġkolon": 2803,
      "aksa": 2804,
      "uni": 2805,
      "Ġdira": 2806,
      "Ġdijadwal": 2807,
      "Ġmenang": 2808,
      "Ġmenimb": 2809,
      "Ġmenolak": 2810,
      "Ġmenuntut": 2811,
      "all": 2812,
      "alih": 2813,
      "Ġyah": 2814,
      "Ġyoga": 2815,
      "iskan": 2816,
      "Ġkega": 2817,
      "Ġkeuangan": 2818,
      "Ġkeuntungan": 2819,
      "Ġterasa": 2820,
      "Ġterbuat": 2821,
      "Ġberga": 2822,
      "Ġberpen": 2823,
      "orit": 2824,
      "ebaskan": 2825,
      "Ġpercaya": 2826,
      "Ġperadaban": 2827,
      "lahir": 2828,
      "elat": 2829,
      "elur": 2830,
      "itkan": 2831,
      "Ġhi": 2832,
      "eser": 2833,
      "Ġjr": 2834,
      "Ġjangka": 2835,
      "umi": 2836,
      "umur": 2837,
      "Ġmengeks": 2838,
      "Ġmengind": 2839,
      "Ġmengonfirmasi": 2840,
      "Ġras": 2841,
      "Ġrem": 2842,
      "Ġrusia": 2843,
      "Ġrisiko": 2844,
      "idana": 2845,
      "Ġundang": 2846,
      "baikan": 2847,
      "irip": 2848,
      "Ġcerita": 2849,
      "waan": 2850,
      "Ġny": 2851,
      "perim": 2852,
      "oto": 2853,
      "Ġgal": 2854,
      "sebuah": 2855,
      "Ġbagus": 2856,
      "Ġfa": 2857,
      "Ġfr": 2858,
      "Ġfase": 2859,
      "Ġfenomena": 2860,
      "okelat": 2861,
      "uad": 2862,
      "lub": 2863,
      "atannya": 2864,
      "Ġtahu": 2865,
      "Ġserupa": 2866,
      "ubern": 2867,
      "andang": 2868,
      "Ġpemilih": 2869,
      "Ġmenjadikan": 2870,
      "saya": 2871,
      "Ġkarya": 2872,
      "erifikasi": 2873,
      "ayaan": 2874,
      "Ġvol": 2875,
      "Ġasuran": 2876,
      "Ġsetapak": 2877,
      "awaran": 2878,
      "Ġberburu": 2879,
      "Ġsuper": 2880,
      "Ġarg": 2881,
      "Ġarmen": 2882,
      "Ġkonvensi": 2883,
      "Ġmusik": 2884,
      "Ġberkaitan": 2885,
      "Ġdikirim": 2886,
      "Ġmenghormati": 2887,
      "Ġhalnya": 2888,
      "Ġditempat": 2889,
      "Ġmemperlihat": 2890,
      "Ġtibet": 2891,
      "Ġkomite": 2892,
      "Ġmaju": 2893,
      "Ġjawab": 2894,
      "Ġkeber": 2895,
      "Ġkutu": 2896,
      "Ġterlepas": 2897,
      "Ġalp": 2898,
      "Ġterkena": 2899,
      "Ġdipakai": 2900,
      "Ġmuda": 2901,
      "Ġpelangg": 2902,
      "Ġpelancong": 2903,
      "ainan": 2904,
      "ainkan": 2905,
      "Ġdiagn": 2906,
      "Ġii": 2907,
      "Ġmakin": 2908,
      "Ġmakhluk": 2909,
      "Ġkhas": 2910,
      "prot": 2911,
      "Ġparlemen": 2912,
      "Ġbersaha": 2913,
      "Ġeksperim": 2914,
      "Ġkasar": 2915,
      "Ġbertahan": 2916,
      "Ġdinamakan": 2917,
      "awatir": 2918,
      "Ġislandia": 2919,
      "ekanan": 2920,
      "Ġsaluran": 2921,
      "Ġjutaan": 2922,
      "Ġmenyebut": 2923,
      "Ġdaftar": 2924,
      "Ġsiang": 2925,
      "Ġmembayar": 2926,
      "Ġtersusun": 2927,
      "Ġdaring": 2928,
      "Ġdarurat": 2929,
      "ley": 2930,
      "eluaran": 2931,
      "Ġ2010": 2932,
      "tanaman": 2933,
      "own": 2934,
      "Ġpencer": 2935,
      "Ġtujuh": 2936,
      "akses": 2937,
      "Ġbegitu": 2938,
      "Ġbermain": 2939,
      "igrasi": 2940,
      "Ġprotes": 2941,
      "Ġtumbuhan": 2942,
      "Ġditutup": 2943,
      "Ġpeneliti": 2944,
      "Ġrug": 2945,
      "Ġterjun": 2946,
      "Ġwarisan": 2947,
      "Ġdibandingkan": 2948,
      "Ġbatasan": 2949,
      "Ġindustri": 2950,
      "Ġberwenang": 2951,
      "Ġberwarna": 2952,
      "Ġlapisan": 2953,
      "Ġkontak": 2954,
      "...": 2955,
      "kepulauan": 2956,
      "Ġberfokus": 2957,
      "Ġberfungsi": 2958,
      "ketika": 2959,
      "Ġmeningkatkan": 2960,
      "Ġtertutup": 2961,
      "Ġprovinsi": 2962,
      "Ġsamudra": 2963,
      "titusi": 2964,
      "Ġmempertahan": 2965,
      "Ġamplop": 2966,
      "Ġstudi": 2967,
      "wajibkan": 2968,
      "Ġbakteri": 2969,
      "Ġkemenangan": 2970,
      "Ġdisertai": 2971,
      "Ġjanuari": 2972,
      "Ġsemenanjung": 2973,
      "Ġmelintasi": 2974,
      "Ġrestoran": 2975,
      "pulau": 2976,
      "Ġdukungan": 2977,
      "Ġsifat": 2978,
      "Ġtenaga": 2979,
      "Ġtsunami": 2980,
      "Ġdijadwalkan": 2981,
      "Ġmenimbulkan": 2982,
      "Ġkegagalan": 2983,
      "Ġmengindikasikan": 2984,
      "ubernur": 2985,
      "Ġasuransi": 2986,
      "Ġarmenia": 2987,
      "Ġmemperlihatkan": 2988,
      "Ġbersahabat": 2989,
      "10": 2990,
      "15": 2991,
      "af": 2992,
      "acara": 2993,
      "bulan": 2994,
      "badai": 2995,
      "bahasa": 2996,
      "dr": 2997,
      "dat": 2998,
      "ein": 2999,
      "ejar": 3000,
      "ff": 3001,
      "fl": 3002,
      "gr": 3003,
      "hap": 3004,
      "hit": 3005,
      "iban": 3006,
      "jat": 3007,
      "jangan": 3008,
      "kah": 3009,
      "kop": 3010,
      "kenal": 3011,
      "ld": 3012,
      "ler": 3013,
      "lom": 3014,
      "mus": 3015,
      "mel": 3016,
      "mol": 3017,
      "mudah": 3018,
      "nes": 3019,
      "odi": 3020,
      "our": 3021,
      "pi": 3022,
      "pasi": 3023,
      "pir": 3024,
      "pend": 3025,
      "san": 3026,
      "sal": 3027,
      "sur": 3028,
      "ver": 3029,
      "weg": 3030,
      "yn": 3031,
      "yan": 3032,
      "yatakan": 3033,
      "Ġx": 3034,
      "Ġil": 3035,
      "Ġdek": 3036,
      "Ġdini": 3037,
      "Ġdinding": 3038,
      "Ġmis": 3039,
      "Ġmati": 3040,
      "Ġsar": 3041,
      "Ġseng": 3042,
      "Ġsara": 3043,
      "Ġsol": 3044,
      "Ġsup": 3045,
      "Ġsip": 3046,
      "Ġsuka": 3047,
      "Ġsans": 3048,
      "Ġsurat": 3049,
      "Ġsuks": 3050,
      "Ġsolusi": 3051,
      "Ġswe": 3052,
      "Ġpu": 3053,
      "Ġpin": 3054,
      "Ġpecah": 3055,
      "Ġpariwisata": 3056,
      "Ġbul": 3057,
      "Ġbelah": 3058,
      "Ġbesi": 3059,
      "Ġbasis": 3060,
      "atis": 3061,
      "atihan": 3062,
      "Ġtri": 3063,
      "Ġtampil": 3064,
      "Ġtorn": 3065,
      "lap": 3066,
      "lapa": 3067,
      "infeksi": 3068,
      "Ġko": 3069,
      "Ġkari": 3070,
      "Ġkil": 3071,
      "Ġklub": 3072,
      "aku": 3073,
      "akutan": 3074,
      "unda": 3075,
      "Ġdiingat": 3076,
      "Ġdiakses": 3077,
      "emu": 3078,
      "dal": 3079,
      "dali": 3080,
      "daft": 3081,
      "Ġmenew": 3082,
      "Ġmenilai": 3083,
      "Ġmenonton": 3084,
      "ahas": 3085,
      "Ġseger": 3086,
      "alat": 3087,
      "alir": 3088,
      "Ġyakin": 3089,
      "ish": 3090,
      "Ġterinfeksi": 3091,
      "Ġbertu": 3092,
      "Ġberuang": 3093,
      "Ġberpeng": 3094,
      "Ġberupaya": 3095,
      "orld": 3096,
      "ebut": 3097,
      "Ġmeman": 3098,
      "Ġmemin": 3099,
      "Ġmemecahkan": 3100,
      "dian": 3101,
      "Ġpersi": 3102,
      "Ġperingkat": 3103,
      "Ġperdamaian": 3104,
      "Ġle": 3105,
      "ilet": 3106,
      "ity": 3107,
      "Ġhin": 3108,
      "Ġhow": 3109,
      "Ġhilang": 3110,
      "Ġhaiti": 3111,
      "esa": 3112,
      "est": 3113,
      "ontr": 3114,
      "Ġmengalir": 3115,
      "lamin": 3116,
      "Ġinti": 3117,
      "idiki": 3118,
      "olis": 3119,
      "ulunya": 3120,
      "Ġco": 3121,
      "Ġab": 3122,
      "Ġnov": 3123,
      "Ġnamun": 3124,
      "Ġlayak": 3125,
      "Ġpenjaga": 3126,
      "otal": 3127,
      "otor": 3128,
      "Ġgar": 3129,
      "Ġgener": 3130,
      "Ġgejala": 3131,
      "omend": 3132,
      "egah": 3133,
      "Ġsadar": 3134,
      "anyaan": 3135,
      "oks": 3136,
      "ostel": 3137,
      "Ġsebaiknya": 3138,
      "Ġmembahas": 3139,
      "ando": 3140,
      "Ġpemandangan": 3141,
      "Ġpemadam": 3142,
      "Ġmenyaksikan": 3143,
      "entitas": 3144,
      "anggung": 3145,
      "rad": 3146,
      "rael": 3147,
      "Ġpertemp": 3148,
      "Ġpertanyaan": 3149,
      "Ġmelu": 3150,
      "angkah": 3151,
      "Ġaks": 3152,
      "Ġakurat": 3153,
      "erian": 3154,
      "antara": 3155,
      "Ġvaks": 3156,
      "Ġkecuali": 3157,
      "Ġmencetak": 3158,
      "Ġmencegah": 3159,
      "Ġkerak": 3160,
      "abiskan": 3161,
      "Ġsebelah": 3162,
      "ambang": 3163,
      "Ġterbaru": 3164,
      "anca": 3165,
      "ancing": 3166,
      "ancarkan": 3167,
      "ancurkan": 3168,
      "oduk": 3169,
      "obal": 3170,
      "Ġberkemah": 3171,
      "Ġmenghemat": 3172,
      "Ġharga": 3173,
      "Ġkomentar": 3174,
      "Ġjawa": 3175,
      "Ġantik": 3176,
      "penelit": 3177,
      "ingkali": 3178,
      "Ġketakutan": 3179,
      "Ġalons": 3180,
      "Ġoperasi": 3181,
      "Ġocel": 3182,
      "Ġpaskah": 3183,
      "Ġdipr": 3184,
      "Ġpelana": 3185,
      "Ġpelatihan": 3186,
      "Ġbuah": 3187,
      "Ġlipat": 3188,
      "Ġsepuluh": 3189,
      "Ġmengajukan": 3190,
      "Ġpembat": 3191,
      "Ġ35": 3192,
      "Ġstar": 3193,
      "Ġkhawatir": 3194,
      "produk": 3195,
      "Ġpolo": 3196,
      "Ġtropis": 3197,
      "Ġgab": 3198,
      "Ġdimainkan": 3199,
      "empah": 3200,
      "Ġberlanjut": 3201,
      "Ġparah": 3202,
      "Ġparis": 3203,
      "Ġpartai": 3204,
      "Ġekstr": 3205,
      "Ġmetro": 3206,
      "Ġmetrop": 3207,
      "Ġbertemu": 3208,
      "Ġzona": 3209,
      "Ġdinyatakan": 3210,
      "Ġdiperoleh": 3211,
      "Ġinternal": 3212,
      "ganti": 3213,
      "olasi": 3214,
      "Ġmedia": 3215,
      "Ġkeduanya": 3216,
      "Ġchina": 3217,
      "Ġ2008": 3218,
      "Ġsalinan": 3219,
      "Ġmenyebutkan": 3220,
      "Ġkompet": 3221,
      "Ġdarat": 3222,
      "Ġkayu": 3223,
      "Ġjaringan": 3224,
      "Ġgeologi": 3225,
      "ografer": 3226,
      "Ġbelg": 3227,
      "Ġformal": 3228,
      "Ġnyamuk": 3229,
      "enderal": 3230,
      "Ġmemastikan": 3231,
      "Ġdiciptakan": 3232,
      "Ġproton": 3233,
      "Ġprotein": 3234,
      "Ġmenyadari": 3235,
      "Ġmenyajikan": 3236,
      "Ġreid": 3237,
      "Ġnominasi": 3238,
      "Ġrekomend": 3239,
      "Ġmenyelidiki": 3240,
      "Ġstruktur": 3241,
      "untung": 3242,
      "Ġinstruksi": 3243,
      "Ġemas": 3244,
      "Ġlambat": 3245,
      "Ġmoldova": 3246,
      "Ġmenginvasi": 3247,
      "artemen": 3248,
      "Ġpanggung": 3249,
      "Ġkacang": 3250,
      "Ġtetangga": 3251,
      "Ġnorweg": 3252,
      "Ġkomunikasi": 3253,
      "Ġwaspada": 3254,
      "Ġterdekat": 3255,
      "perilaku": 3256,
      "kultur": 3257,
      "Ġpekerjaan": 3258,
      "Ġkamar": 3259,
      "Ġgrafiti": 3260,
      "Ġsuku": 3261,
      "Ġlubang": 3262,
      "Ġglobal": 3263,
      "Ġmenghubungkan": 3264,
      "Ġdiplomatik": 3265,
      "Ġplanet": 3266,
      "Ġmenunggu": 3267,
      "Ġsepertinya": 3268,
      "Ġperhatian": 3269,
      "Ġfederal": 3270,
      "Ġsosial": 3271,
      "uador": 3272,
      "Ġdiagnosis": 3273,
      "Ġrugbi": 3274,
      "Ġmempertahankan": 3275,
      "kenalkan": 3276,
      "Ġswedia": 3277,
      "Ġmenewaskan": 3278,
      "Ġsegera": 3279,
      "Ġpersiapan": 3280,
      "ontrol": 3281,
      "Ġnovember": 3282,
      "Ġgenerasi": 3283,
      "Ġpertempuran": 3284,
      "Ġalonso": 3285,
      "Ġocelot": 3286,
      "Ġrekomendasi": 3287,
      "Ġnorwegia": 3288,
      "40": 3289,
      "airan": 3290,
      "bl": 3291,
      "besar": 3292,
      "ce": 3293,
      "ci": 3294,
      "cuaca": 3295,
      "daran": 3296,
      "eet": 3297,
      "eaksi": 3298,
      "fat": 3299,
      "fot": 3300,
      "go": 3301,
      "gen": 3302,
      "gem": 3303,
      "gis": 3304,
      "ham": 3305,
      "hing": 3306,
      "hewan": 3307,
      "hawat": 3308,
      "hisme": 3309,
      "iasa": 3310,
      "janj": 3311,
      "jumlah": 3312,
      "ka": 3313,
      "koh": 3314,
      "kland": 3315,
      "ling": 3316,
      "leks": 3317,
      "mo": 3318,
      "mada": 3319,
      "mos": 3320,
      "ni": 3321,
      "nam": 3322,
      "nom": 3323,
      "sp": 3324,
      "st": 3325,
      "sep": 3326,
      "str": 3327,
      "taman": 3328,
      "tober": 3329,
      "uel": 3330,
      "vil": 3331,
      "verifikasi": 3332,
      "wak": 3333,
      "yek": 3334,
      "yani": 3335,
      "zi": 3336,
      "Ġ'": 3337,
      "Ġu": 3338,
      "Ġungg": 3339,
      "Ġilmu": 3340,
      "Ġupaya": 3341,
      "Ġumur": 3342,
      "anian": 3343,
      "anistan": 3344,
      "Ġdeb": 3345,
      "Ġdata": 3346,
      "Ġdelapan": 3347,
      "Ġmal": 3348,
      "Ġmon": 3349,
      "Ġmos": 3350,
      "Ġmeda": 3351,
      "Ġmisalnya": 3352,
      "Ġmirip": 3353,
      "arles": 3354,
      "Ġsim": 3355,
      "Ġsali": 3356,
      "Ġped": 3357,
      "Ġpeta": 3358,
      "Ġpindah": 3359,
      "Ġboleh": 3360,
      "Ġbilangan": 3361,
      "Ġbocor": 3362,
      "Ġto": 3363,
      "Ġtv": 3364,
      "Ġtes": 3365,
      "Ġtingk": 3366,
      "lai": 3367,
      "Ġkl": 3368,
      "Ġkap": 3369,
      "Ġkok": 3370,
      "Ġkos": 3371,
      "Ġkanan": 3372,
      "Ġkunjungi": 3373,
      "akibat": 3374,
      "Ġdisi": 3375,
      "Ġdisa": 3376,
      "Ġdiabet": 3377,
      "emahan": 3378,
      "Ġmenja": 3379,
      "Ġmenjalan": 3380,
      "Ġmenekan": 3381,
      "Ġmenetapkan": 3382,
      "Ġmenampung": 3383,
      "Ġmenambahkan": 3384,
      "Ġmenandatangani": 3385,
      "ahun": 3386,
      "Ġsec": 3387,
      "Ġsepen": 3388,
      "alem": 3389,
      "yam": 3390,
      "isir": 3391,
      "amu": 3392,
      "ikahan": 3393,
      "Ġkegi": 3394,
      "Ġketer": 3395,
      "Ġkeempat": 3396,
      "Ġkeju": 3397,
      "Ġkeindah": 3398,
      "Ġterdaftar": 3399,
      "apus": 3400,
      "Ġberlaku": 3401,
      "Ġberukuran": 3402,
      "Ġbereaksi": 3403,
      "ora": 3404,
      "ore": 3405,
      "orot": 3406,
      "usak": 3407,
      "ario": 3408,
      "Ġmemilih": 3409,
      "Ġmemesan": 3410,
      "Ġmemicu": 3411,
      "Ġperger": 3412,
      "Ġperencan": 3413,
      "Ġperahu": 3414,
      "Ġperjanj": 3415,
      "Ġlo": 3416,
      "Ġlar": 3417,
      "Ġlou": 3418,
      "lahan": 3419,
      "elant": 3420,
      "elompok": 3421,
      "ilis": 3422,
      "ith": 3423,
      "itan": 3424,
      "ital": 3425,
      "itung": 3426,
      "Ġha": 3427,
      "etr": 3428,
      "ume": 3429,
      "Ġmengis": 3430,
      "Ġmengemudi": 3431,
      "Ġmenginginkan": 3432,
      "Ġrah": 3433,
      "Ġrok": 3434,
      "Ġrock": 3435,
      "ungi": 3436,
      "ukai": 3437,
      "Ġinvesti": 3438,
      "olong": 3439,
      "ihkan": 3440,
      "jau": 3441,
      "Ġcat": 3442,
      "Ġcak": 3443,
      "Ġcokelat": 3444,
      "iman": 3445,
      "Ġlak": 3446,
      "Ġlaga": 3447,
      "Ġpenulisan": 3448,
      "Ġpenawaran": 3449,
      "otaan": 3450,
      "Ġges": 3451,
      "Ġged": 3452,
      "Ġgerb": 3453,
      "Ġgubernur": 3454,
      "uhkan": 3455,
      "oma": 3456,
      "omm": 3457,
      "omod": 3458,
      "Ġsab": 3459,
      "Ġsains": 3460,
      "asabl": 3461,
      "Ġfal": 3462,
      "Ġfisi": 3463,
      "Ġfaktor": 3464,
      "oki": 3465,
      "Ġprim": 3466,
      "Ġpengunjuk": 3467,
      "Ġpengeluaran": 3468,
      "epsi": 3469,
      "isian": 3470,
      "Ġseringkali": 3471,
      "terania": 3472,
      "empatan": 3473,
      "Ġbarcel": 3474,
      "anggota": 3475,
      "Ġkemunc": 3476,
      "Ġkemarin": 3477,
      "Ġ21": 3478,
      "Ġseluler": 3479,
      "Ġsemi": 3480,
      "Ġsemuanya": 3481,
      "Ġsempit": 3482,
      "Ġmelibatkan": 3483,
      "Ġmelancarkan": 3484,
      "seperti": 3485,
      "Ġkarun": 3486,
      "Ġatlan": 3487,
      "Ġven": 3488,
      "Ġkecerd": 3489,
      "edur": 3490,
      "awal": 3491,
      "Ġart": 3492,
      "Ġarist": 3493,
      "Ġsenin": 3494,
      "Ġsensor": 3495,
      "Ġsebesar": 3496,
      "Ġseberang": 3497,
      "Ġsebenar": 3498,
      "Ġterbiasa": 3499,
      "ancah": 3500,
      "paui": 3501,
      "udd": 3502,
      "Ġdikunjungi": 3503,
      "Ġdikeluarkan": 3504,
      "Ġdikenakan": 3505,
      "Ġmenghabiskan": 3506,
      "Ġdiberlakukan": 3507,
      "Ġditetapkan": 3508,
      "jui": 3509,
      "Ġtanaman": 3510,
      "Ġmendatang": 3511,
      "Ġmagn": 3512,
      "Ġjajak": 3513,
      "penjara": 3514,
      "Ġalex": 3515,
      "impan": 3516,
      "Ġpenye": 3517,
      "Ġpenyanyi": 3518,
      "ujung": 3519,
      "Ġradar": 3520,
      "uncuran": 3521,
      "Ġkesemb": 3522,
      "Ġkeselur": 3523,
      "Ġmuatan": 3524,
      "Ġpeluncuran": 3525,
      "Ġbuatan": 3526,
      "Ġinteraktif": 3527,
      "Ġterhubung": 3528,
      "Ġpembangkit": 3529,
      "Ġstan": 3530,
      "Ġstatus": 3531,
      "presi": 3532,
      "andingkan": 3533,
      "Ġberlin": 3534,
      "Ġbersih": 3535,
      "berk": 3536,
      "Ġekstra": 3537,
      "Ġekspresi": 3538,
      "asihat": 3539,
      "dayaan": 3540,
      "Ġcukai": 3541,
      "Ġpesisir": 3542,
      "Ġpernikahan": 3543,
      "Ġterpengar": 3544,
      "Ġterpisah": 3545,
      "Ġmewajibkan": 3546,
      "Ġchil": 3547,
      "Ġchhap": 3548,
      "eskop": 3549,
      "Ġtakut": 3550,
      "Ġ2005": 3551,
      "Ġ2009": 3552,
      "Ġsesama": 3553,
      "Ġkrist": 3554,
      "Ġberharga": 3555,
      "Ġkompleks": 3556,
      "Ġtersisa": 3557,
      "tifikasi": 3558,
      "Ġmaroko": 3559,
      "Ġprosedur": 3560,
      "Ġgeograf": 3561,
      "Ġ2017": 3562,
      "Ġberpik": 3563,
      "mbang": 3564,
      "Ġkanker": 3565,
      "Ġelektr": 3566,
      "Ġpermainan": 3567,
      "Ġ56": 3568,
      "Ġkalinya": 3569,
      "Ġkalimat": 3570,
      "Ġfoto": 3571,
      "Ġfotografer": 3572,
      "Ġ60": 3573,
      "Ġmesin": 3574,
      "ucap": 3575,
      "anjutnya": 3576,
      "Ġtumb": 3577,
      "Ġmempelajari": 3578,
      "Ġditulis": 3579,
      "ingatkan": 3580,
      "ney": 3581,
      "Ġstreet": 3582,
      "utusan": 3583,
      "encanakan": 3584,
      "osiasi": 3585,
      "pastikan": 3586,
      "Ġputaran": 3587,
      "que": 3588,
      "Ġprix": 3589,
      "âĤ¬âĢĿ": 3590,
      "burg": 3591,
      "Ġmengirimkan": 3592,
      "ghanistan": 3593,
      "Ġketimbang": 3594,
      "Ġberakhirnya": 3595,
      "Ġrusak": 3596,
      "ombak": 3597,
      "Ġkursi": 3598,
      "Ġproperti": 3599,
      "Ġproyek": 3600,
      "vei": 3601,
      "erusalem": 3602,
      "ersial": 3603,
      "Ġtajam": 3604,
      "Ġhidrogen": 3605,
      "Ġcarol": 3606,
      "Ġpenjelajah": 3607,
      "Ġajang": 3608,
      "Ġajaran": 3609,
      "Ġpenyebaran": 3610,
      "Ġpenyebab": 3611,
      "Ġbasah": 3612,
      "Ġketua": 3613,
      "Ġaudiens": 3614,
      "entasikan": 3615,
      "Ġmediterania": 3616,
      "dampak": 3617,
      "kritik": 3618,
      "uasai": 3619,
      "elilingi": 3620,
      "ikmati": 3621,
      "Ġkekaisaran": 3622,
      "Ġoktober": 3623,
      "Ġbhog": 3624,
      "Ġkesadaran": 3625,
      "Ġhitam": 3626,
      "Ġafghanistan": 3627,
      "Ġmendesak": 3628,
      "Ġenam": 3629,
      "Ġupacara": 3630,
      "Ġtaiwan": 3631,
      "Ġkoloni": 3632,
      "Ġyahudi": 3633,
      "Ġberpendapat": 3634,
      "Ġvolume": 3635,
      "Ġpencerahan": 3636,
      "Ġsaraf": 3637,
      "Ġsipil": 3638,
      "Ġkilometer": 3639,
      "hawatiran": 3640,
      "kohol": 3641,
      "Ġmedali": 3642,
      "Ġsalib": 3643,
      "Ġdiabetes": 3644,
      "Ġsepenuhnya": 3645,
      "Ġkegiatan": 3646,
      "Ġkeindahan": 3647,
      "Ġpergerakan": 3648,
      "Ġperencanaan": 3649,
      "Ġperjanjian": 3650,
      "Ġlouis": 3651,
      "Ġgedung": 3652,
      "Ġgerbong": 3653,
      "omodasi": 3654,
      "asablanca": 3655,
      "Ġbarcelona": 3656,
      "Ġkemunculan": 3657,
      "Ġatlanta": 3658,
      "Ġkecerdasan": 3659,
      "Ġsebenarnya": 3660,
      "Ġkeseluruhan": 3661,
      "Ġterpengaruh": 3662,
      "Ġchhappan": 3663,
      "Ġgeografis": 3664,
      "Ġelektron": 3665,
      "18": 3666,
      "39": 3667,
      "80": 3668,
      "aba": 3669,
      "abad": 3670,
      "bos": 3671,
      "bola": 3672,
      "ct": 3673,
      "cin": 3674,
      "dokumen": 3675,
      "fin": 3676,
      "forn": 3677,
      "fokus": 3678,
      "gin": 3679,
      "gol": 3680,
      "gua": 3681,
      "garan": 3682,
      "gantung": 3683,
      "har": 3684,
      "izin": 3685,
      "jakan": 3686,
      "jata": 3687,
      "ked": 3688,
      "lim": 3689,
      "likasi": 3690,
      "mantan": 3691,
      "nu": 3692,
      "nado": 3693,
      "oalan": 3694,
      "ps": 3695,
      "pu": 3696,
      "pun": 3697,
      "panjang": 3698,
      "pantai": 3699,
      "ring": 3700,
      "ria": 3701,
      "ser": 3702,
      "sol": 3703,
      "sim": 3704,
      "surat": 3705,
      "syaratan": 3706,
      "to": 3707,
      "top": 3708,
      "utur": 3709,
      "vi": 3710,
      "yanya": 3711,
      "yaran": 3712,
      "zon": 3713,
      "zim": 3714,
      "zona": 3715,
      "Ã¤": 3716,
      "Ġq": 3717,
      "Ġeb": 3718,
      "Ġari": 3719,
      "Ġon": 3720,
      "Ġali": 3721,
      "Ġamb": 3722,
      "Ġusia": 3723,
      "Ġlahir": 3724,
      "erit": 3725,
      "eretan": 3726,
      "Ġdel": 3727,
      "Ġdol": 3728,
      "Ġdeka": 3729,
      "Ġdampaknya": 3730,
      "Ġdamai": 3731,
      "Ġmr": 3732,
      "Ġmew": 3733,
      "Ġmode": 3734,
      "enetik": 3735,
      "enzan": 3736,
      "Ġsc": 3737,
      "Ġsas": 3738,
      "Ġster": 3739,
      "Ġsambil": 3740,
      "angnya": 3741,
      "Ġpandangan": 3742,
      "Ġpandang": 3743,
      "Ġbla": 3744,
      "Ġbangsa": 3745,
      "atal": 3746,
      "Ġth": 3747,
      "Ġtu": 3748,
      "Ġtop": 3749,
      "Ġtutan": 3750,
      "Ġtarik": 3751,
      "Ġtotal": 3752,
      "ino": 3753,
      "inal": 3754,
      "inkan": 3755,
      "inet": 3756,
      "intern": 3757,
      "Ġkamer": 3758,
      "Ġkola": 3759,
      "aktanya": 3760,
      "unting": 3761,
      "asang": 3762,
      "Ġdita": 3763,
      "Ġdiubah": 3764,
      "Ġdiikuti": 3765,
      "Ġdipenuhi": 3766,
      "Ġdiyakini": 3767,
      "Ġdigabungkan": 3768,
      "emi": 3769,
      "Ġmenur": 3770,
      "Ġmenahan": 3771,
      "Ġmenentang": 3772,
      "Ġmenerb": 3773,
      "Ġmendirikan": 3774,
      "Ġmenangkap": 3775,
      "Ġseiring": 3776,
      "Ġsejauh": 3777,
      "kantor": 3778,
      "tugis": 3779,
      "isu": 3780,
      "isar": 3781,
      "isisme": 3782,
      "istiwa": 3783,
      "amat": 3784,
      "Ġkelamin": 3785,
      "Ġberag": 3786,
      "Ġberangkat": 3787,
      "Ġbersiap": 3788,
      "Ġbergantung": 3789,
      "engker": 3790,
      "ingi": 3791,
      "uts": 3792,
      "utron": 3793,
      "utrad": 3794,
      "Ġmemunc": 3795,
      "Ġmemindahkan": 3796,
      "Ġperak": 3797,
      "Ġperti": 3798,
      "Ġperform": 3799,
      "Ġperaturan": 3800,
      "Ġperwak": 3801,
      "Ġperistiwa": 3802,
      "Ġlangka": 3803,
      "Ġlanjut": 3804,
      "elang": 3805,
      "itis": 3806,
      "itasi": 3807,
      "Ġher": 3808,
      "Ġhab": 3809,
      "Ġhind": 3810,
      "ond": 3811,
      "onya": 3812,
      "onansi": 3813,
      "urg": 3814,
      "urangan": 3815,
      "Ġje": 3816,
      "Ġjin": 3817,
      "Ġjus": 3818,
      "Ġjangan": 3819,
      "Ġjour": 3820,
      "etakan": 3821,
      "etasi": 3822,
      "umsi": 3823,
      "Ġmengas": 3824,
      "Ġmengump": 3825,
      "Ġmengorban": 3826,
      "Ġmengangkut": 3827,
      "Ġmengejar": 3828,
      "Ġrencan": 3829,
      "ungutan": 3830,
      "ukkan": 3831,
      "ukur": 3832,
      "ider": 3833,
      "olik": 3834,
      "olos": 3835,
      "bab": 3836,
      "baga": 3837,
      "bagian": 3838,
      "ihatan": 3839,
      "iharaan": 3840,
      "Ġcr": 3841,
      "Ġcek": 3842,
      "Ġcali": 3843,
      "Ġcangg": 3844,
      "Ġcangk": 3845,
      "Ġcab": 3846,
      "Ġciv": 3847,
      "Ġcentr": 3848,
      "Ġcengker": 3849,
      "Ġaol": 3850,
      "Ġauc": 3851,
      "Ġnew": 3852,
      "imal": 3853,
      "Ġlas": 3854,
      "Ġlayar": 3855,
      "perusahaan": 3856,
      "persyaratan": 3857,
      "Ġmerusak": 3858,
      "otasi": 3859,
      "elawan": 3860,
      "Ġgo": 3861,
      "Ġgim": 3862,
      "Ġgelar": 3863,
      "Ġgenetik": 3864,
      "egang": 3865,
      "amazon": 3866,
      "Ġsaint": 3867,
      "Ġbabi": 3868,
      "buan": 3869,
      "asaurus": 3870,
      "aikan": 3871,
      "Ġfos": 3872,
      "Ġfag": 3873,
      "Ġfira": 3874,
      "anyon": 3875,
      "okasi": 3876,
      "okrasi": 3877,
      "embak": 3878,
      "embun": 3879,
      "embapan": 3880,
      "emburg": 3881,
      "Ġworld": 3882,
      "Ġpria": 3883,
      "Ġprinsi": 3884,
      "Ġpengaturan": 3885,
      "Ġpengontrol": 3886,
      "epend": 3887,
      "Ġtahan": 3888,
      "Ġtahanan": 3889,
      "isien": 3890,
      "Ġ12": 3891,
      "Ġ14": 3892,
      "Ġsebagaimana": 3893,
      "Ġseribu": 3894,
      "opsi": 3895,
      "ubur": 3896,
      "Ġmembentang": 3897,
      "ander": 3898,
      "Ġpeman": 3899,
      "Ġsekutu": 3900,
      "tawan": 3901,
      "Ġmenyetu": 3902,
      "Ġmenyusun": 3903,
      "enting": 3904,
      "anggu": 3905,
      "anggar": 3906,
      "anggur": 3907,
      "raja": 3908,
      "Ġpertanian": 3909,
      "Ġselang": 3910,
      "Ġseluncur": 3911,
      "seiring": 3912,
      "Ġakar": 3913,
      "Ġakal": 3914,
      "Ġaktif": 3915,
      "Ġkarang": 3916,
      "Ġver": 3917,
      "Ġvisu": 3918,
      "Ġasam": 3919,
      "Ġberbelok": 3920,
      "Ġark": 3921,
      "intah": 3922,
      "Ġkonfl": 3923,
      "oduksi": 3924,
      "Ġbiji": 3925,
      "laksi": 3926,
      "obek": 3927,
      "Ġberkendara": 3928,
      "Ġdikatakan": 3929,
      "Ġdiberi": 3930,
      "Ġdibuka": 3931,
      "Ġdibebaskan": 3932,
      "Ġmemperlakukan": 3933,
      "Ġmemperluas": 3934,
      "Ġmendek": 3935,
      "Ġmenduga": 3936,
      "Ġmendengar": 3937,
      "Ġmendarat": 3938,
      "Ġtiap": 3939,
      "Ġmassa": 3940,
      "Ġkeberh": 3941,
      "Ġsekitarnya": 3942,
      "Ġdipec": 3943,
      "impinan": 3944,
      "Ġpenyunting": 3945,
      "argaan": 3946,
      "indungi": 3947,
      "Ġkesuks": 3948,
      "Ġkesempatan": 3949,
      "Ġpeluang": 3950,
      "Ġpeliharaan": 3951,
      "Ġlicin": 3952,
      "Ġsepeda": 3953,
      "Ġdisel": 3954,
      "Ġdistrik": 3955,
      "Ġmengadakan": 3956,
      "Ġpembangunan": 3957,
      "Ġsehari": 3958,
      "yarat": 3959,
      "Ġ36": 3960,
      "Ġpenderita": 3961,
      "bans": 3962,
      "pres": 3963,
      "Ġaplikasi": 3964,
      "Ġ195": 3965,
      "Ġgalapa": 3966,
      "Ġgalaksi": 3967,
      "empar": 3968,
      "Ġberlokasi": 3969,
      "Ġpersoalan": 3970,
      "embalikan": 3971,
      "Ġteleskop": 3972,
      "Ġekspor": 3973,
      "Ġmelakukannya": 3974,
      "Ġmete": 3975,
      "Ġbumerang": 3976,
      "Ġbertanya": 3977,
      "Ġbertanggung": 3978,
      "Ġmobilnya": 3979,
      "Ġdiperkirakan": 3980,
      "gantikan": 3981,
      "gereja": 3982,
      "Ġpesta": 3983,
      "Ġisrael": 3984,
      "Ġisolasi": 3985,
      "Ġterpenting": 3986,
      "Ġresonansi": 3987,
      "Ġkedatangan": 3988,
      "Ġkredi": 3989,
      "Ġkristen": 3990,
      "Ġberhenti": 3991,
      "tornado": 3992,
      "Ġsiap": 3993,
      "Ġjamur": 3994,
      "Ġmatemat": 3995,
      "Ġsampel": 3996,
      "onstruksi": 3997,
      "umpang": 3998,
      "umpulan": 3999,
      "Ġminuman": 4000,
      "Ġekuador": 4001,
      "Ġkatolik": 4002,
      "Ġgeografi": 4003,
      "Ġgeorg": 4004,
      "Ġ2016": 4005,
      "satelit": 4006,
      "Ġhukuman": 4007,
      "biasanya": 4008,
      "Ġskor": 4009,
      "Ġperkemahan": 4010,
      "olahraga": 4011,
      "Ġkorea": 4012,
      "Ġperminta": 4013,
      "eotip": 4014,
      "Ġpetir": 4015,
      "Ġkalangan": 4016,
      "Ġfotografi": 4017,
      "Ġsekaligus": 4018,
      "darbans": 4019,
      "Ġdepresi": 4020,
      "Ġmemasukkan": 4021,
      "hatikan": 4022,
      "Ġdesa": 4023,
      "Ġperiode": 4024,
      "imbangan": 4025,
      "yangnya": 4026,
      "Ġtumit": 4027,
      "uksemburg": 4028,
      "Ġ80": 4029,
      "Ġrekonstruksi": 4030,
      "Ġkurangnya": 4031,
      "Ġterjal": 4032,
      "Ġwartawan": 4033,
      "Ġindepend": 4034,
      "quet": 4035,
      "Ġemisi": 4036,
      "Ġpaket": 4037,
      "Ġpengguna": 4038,
      "lukkan": 4039,
      "Ġwajar": 4040,
      "Ġmolekul": 4041,
      "Ġsubkultur": 4042,
      "unduran": 4043,
      "Ġdiduga": 4044,
      "Ġ70": 4045,
      "Ġpanggilan": 4046,
      "Ġkurun": 4047,
      "Ġkesepuluh": 4048,
      "sekitar": 4049,
      "Ġujung": 4050,
      "Ġsurel": 4051,
      "Ġprovenzan": 4052,
      "Ġsamudera": 4053,
      "faatkan": 4054,
      "Ġwashing": 4055,
      "khamun": 4056,
      "Ġefektif": 4057,
      "entrasi": 4058,
      "Ġbasket": 4059,
      "Ġtepi": 4060,
      "Ġkrisis": 4061,
      "Ġdigelar": 4062,
      "Ġmenular": 4063,
      "Ġmutlak": 4064,
      "Ġsinyal": 4065,
      "Ġpikir": 4066,
      "Ġpikiran": 4067,
      "yapock": 4068,
      "Ġbernama": 4069,
      "Ġmeraih": 4070,
      "Ġmerayakan": 4071,
      "Ġsembilan": 4072,
      "Ġkotak": 4073,
      "Ġkebugaran": 4074,
      "Ġmenghadapi": 4075,
      "Ġkampanye": 4076,
      "valeri": 4077,
      "Ġepis": 4078,
      "eratop": 4079,
      "Ġjiwa": 4080,
      "Ġneutron": 4081,
      "Ġprofesi": 4082,
      "larasi": 4083,
      "Ġiklim": 4084,
      "Ġefisien": 4085,
      "Ġpuluhan": 4086,
      "Ġbergaya": 4087,
      "Ġnyeri": 4088,
      "Ġargent": 4089,
      "Ġkonvensional": 4090,
      "Ġditempati": 4091,
      "Ġkeberadaan": 4092,
      "Ġpelanggan": 4093,
      "musim": 4094,
      "molekul": 4095,
      "piquet": 4096,
      "Ġsarapan": 4097,
      "Ġsuksesi": 4098,
      "Ġpintu": 4099,
      "Ġbelahan": 4100,
      "Ġtornado": 4101,
      "daftaran": 4102,
      "Ġmemanfaatkan": 4103,
      "Ġmeminum": 4104,
      "Ġhindia": 4105,
      "Ġhoward": 4106,
      "Ġmeluas": 4107,
      "Ġakses": 4108,
      "Ġvaksin": 4109,
      "penelitian": 4110,
      "Ġpembatalan": 4111,
      "Ġgabungan": 4112,
      "Ġekstrem": 4113,
      "Ġbelgia": 4114,
      "namen": 4115,
      "Ġtoilet": 4116,
      "Ġketerampilan": 4117,
      "Ġberpikir": 4118,
      "Ġcarolina": 4119,
      "fornia": 4120,
      "Ġdolar": 4121,
      "Ġdekade": 4122,
      "Ġstereotip": 4123,
      "Ġblack": 4124,
      "Ġtutankhamun": 4125,
      "Ġkamera": 4126,
      "Ġkolabor": 4127,
      "Ġmenerbitkan": 4128,
      "Ġmemunculkan": 4129,
      "Ġperforma": 4130,
      "Ġperwakilan": 4131,
      "Ġhindu": 4132,
      "Ġmengumpulkan": 4133,
      "Ġmengorbankan": 4134,
      "Ġrencananya": 4135,
      "Ġcalifornia": 4136,
      "Ġcanggih": 4137,
      "Ġcangkang": 4138,
      "Ġcentral": 4139,
      "Ġauckland": 4140,
      "Ġfiraun": 4141,
      "Ġprinsip": 4142,
      "Ġmenyetujui": 4143,
      "Ġkonflik": 4144,
      "Ġkeberhasilan": 4145,
      "Ġdipecat": 4146,
      "Ġpenyuntingan": 4147,
      "Ġkesuksesan": 4148,
      "Ġgalapagos": 4149,
      "Ġgeorge": 4150,
      "Ġpermintaan": 4151,
      "Ġprovenzano": 4152,
      "Ġwashington": 4153,
      "22": 4154,
      "35": 4155,
      "400": 4156,
      "76": 4157,
      "be": 4158,
      "bus": 4159,
      "bon": 4160,
      "buran": 4161,
      "binasi": 4162,
      "blog": 4163,
      "cang": 4164,
      "cun": 4165,
      "caan": 4166,
      "coba": 4167,
      "cakar": 4168,
      "contoh": 4169,
      "dan": 4170,
      "dis": 4171,
      "duh": 4172,
      "fari": 4173,
      "faktanya": 4174,
      "gs": 4175,
      "gara": 4176,
      "gumi": 4177,
      "hingga": 4178,
      "hampir": 4179,
      "hasilan": 4180,
      "hagen": 4181,
      "ii": 4182,
      "iz": 4183,
      "ion": 4184,
      "iarah": 4185,
      "jan": 4186,
      "jing": 4187,
      "janya": 4188,
      "jian": 4189,
      "jelas": 4190,
      "jarah": 4191,
      "jembatan": 4192,
      "kong": 4193,
      "kac": 4194,
      "kons": 4195,
      "kha": 4196,
      "lat": 4197,
      "lian": 4198,
      "lihatan": 4199,
      "mp": 4200,
      "map": 4201,
      "met": 4202,
      "ner": 4203,
      "oa": 4204,
      "pes": 4205,
      "pop": 4206,
      "ptasi": 4207,
      "ple": 4208,
      "rekan": 4209,
      "so": 4210,
      "sik": 4211,
      "sus": 4212,
      "sul": 4213,
      "sama": 4214,
      "sungai": 4215,
      "sidang": 4216,
      "ten": 4217,
      "tak": 4218,
      "tengah": 4219,
      "tinasi": 4220,
      "uara": 4221,
      "uger": 4222,
      "versi": 4223,
      "wang": 4224,
      "was": 4225,
      "waktu": 4226,
      "wilayah": 4227,
      "xas": 4228,
      "yh": 4229,
      "yana": 4230,
      "Â°": 4231,
      "Ġ0": 4232,
      "Ġip": 4233,
      "Ġamazon": 4234,
      "anas": 4235,
      "anaan": 4236,
      "ering": 4237,
      "erja": 4238,
      "erensi": 4239,
      "Ġdak": 4240,
      "Ġdarah": 4241,
      "Ġdag": 4242,
      "Ġdeta": 4243,
      "Ġdera": 4244,
      "Ġdna": 4245,
      "Ġmam": 4246,
      "Ġmom": 4247,
      "Ġmont": 4248,
      "Ġmiring": 4249,
      "Ġmotor": 4250,
      "eno": 4251,
      "enhagen": 4252,
      "arakan": 4253,
      "arenakan": 4254,
      "Ġsang": 4255,
      "Ġsah": 4256,
      "Ġsul": 4257,
      "Ġsurut": 4258,
      "Ġsanta": 4259,
      "Ġpor": 4260,
      "Ġpit": 4261,
      "Ġpulang": 4262,
      "Ġpimpinan": 4263,
      "Ġbal": 4264,
      "Ġbong": 4265,
      "Ġbatang": 4266,
      "Ġbha": 4267,
      "Ġbalik": 4268,
      "Ġblok": 4269,
      "Ġbudd": 4270,
      "Ġton": 4271,
      "Ġtangk": 4272,
      "Ġtog": 4273,
      "Ġtud": 4274,
      "Ġtew": 4275,
      "Ġtuhan": 4276,
      "Ġtentu": 4277,
      "Ġtampak": 4278,
      "Ġtengg": 4279,
      "Ġtarg": 4280,
      "lain": 4281,
      "Ġkub": 4282,
      "Ġkenal": 4283,
      "Ġkasih": 4284,
      "Ġkulit": 4285,
      "Ġkisah": 4286,
      "Ġkisaran": 4287,
      "akaman": 4288,
      "unak": 4289,
      "asana": 4290,
      "Ġdiumumkan": 4291,
      "emas": 4292,
      "Ġmenem": 4293,
      "Ġmenara": 4294,
      "Ġmentah": 4295,
      "ahuan": 4296,
      "ahana": 4297,
      "ahui": 4298,
      "Ġsetr": 4299,
      "alo": 4300,
      "tumb": 4301,
      "Ġdana": 4302,
      "Ġkewaj": 4303,
      "Ġterm": 4304,
      "Ġteror": 4305,
      "Ġterekam": 4306,
      "Ġberd": 4307,
      "Ġberapa": 4308,
      "Ġberse": 4309,
      "Ġberperilaku": 4310,
      "orelasi": 4311,
      "ebasan": 4312,
      "arikan": 4313,
      "Ġmemimpin": 4314,
      "Ġmempertimbangkan": 4315,
      "Ġmemancing": 4316,
      "dib": 4317,
      "Ġperairan": 4318,
      "Ġlengan": 4319,
      "Ġlihat": 4320,
      "Ġluka": 4321,
      "Ġlebar": 4322,
      "Ġledakan": 4323,
      "Ġlangkah": 4324,
      "Ġlunak": 4325,
      "elemen": 4326,
      "itat": 4327,
      "itra": 4328,
      "Ġhan": 4329,
      "Ġhen": 4330,
      "Ġhip": 4331,
      "Ġhuru": 4332,
      "ese": 4333,
      "esis": 4334,
      "esor": 4335,
      "esus": 4336,
      "esta": 4337,
      "onen": 4338,
      "ekr": 4339,
      "urn": 4340,
      "Ġjenderal": 4341,
      "Ġjuara": 4342,
      "etika": 4343,
      "umunan": 4344,
      "Ġmengem": 4345,
      "Ġmenganggap": 4346,
      "Ġmengins": 4347,
      "Ġmengatur": 4348,
      "Ġmengambang": 4349,
      "Ġmenguasai": 4350,
      "Ġmengembalikan": 4351,
      "Ġref": 4352,
      "Ġramai": 4353,
      "Ġrempah": 4354,
      "asia": 4355,
      "asiun": 4356,
      "ukasi": 4357,
      "Ġinf": 4358,
      "Ġintr": 4359,
      "Ġindah": 4360,
      "Ġinov": 4361,
      "Ġinfeksi": 4362,
      "idangan": 4363,
      "iraan": 4364,
      "tiba": 4365,
      "Ġcari": 4366,
      "Ġcip": 4367,
      "Ġcov": 4368,
      "Ġcetak": 4369,
      "Ġcuma": 4370,
      "Ġcostel": 4371,
      "Ġcasablanca": 4372,
      "waii": 4373,
      "Ġnyar": 4374,
      "Ġnarap": 4375,
      "imbab": 4376,
      "Ġlakukan": 4377,
      "Ġlabel": 4378,
      "perm": 4379,
      "perempuan": 4380,
      "peradaban": 4381,
      "perancah": 4382,
      "Ġadaptasi": 4383,
      "Ġanjing": 4384,
      "Ġpenip": 4385,
      "Ġpenampilan": 4386,
      "Ġpenumpang": 4387,
      "otong": 4388,
      "otensi": 4389,
      "otoritas": 4390,
      "otte": 4391,
      "Ġguru": 4392,
      "sifat": 4393,
      "upsi": 4394,
      "upai": 4395,
      "sebelum": 4396,
      "egak": 4397,
      "Ġbay": 4398,
      "Ġbaba": 4399,
      "Ġbawa": 4400,
      "ebihan": 4401,
      "bukan": 4402,
      "Ġfern": 4403,
      "Ġfbi": 4404,
      "Ġfungsi": 4405,
      "ehall": 4406,
      "okal": 4407,
      "Ġwhit": 4408,
      "Ġwahana": 4409,
      "Ġpriv": 4410,
      "Ġpengel": 4411,
      "Ġpengaman": 4412,
      "Ġpengob": 4413,
      "Ġpengerti": 4414,
      "olehkan": 4415,
      "epres": 4416,
      "Ġserangga": 4417,
      "terl": 4418,
      "terian": 4419,
      "opuler": 4420,
      "Ġmemblok": 4421,
      "Ġmemberlakukan": 4422,
      "Ġmembandingkan": 4423,
      "andu": 4424,
      "Ġpemakaman": 4425,
      "ation": 4426,
      "Ġmenyen": 4427,
      "ental": 4428,
      "enteng": 4429,
      "Ġbarel": 4430,
      "Ġbanyaknya": 4431,
      "sayangnya": 4432,
      "wanan": 4433,
      "Ġpertahanan": 4434,
      "Ġ26": 4435,
      "Ġ28": 4436,
      "Ġsemalam": 4437,
      "Ġmelewat": 4438,
      "Ġmelanjut": 4439,
      "Ġmelancong": 4440,
      "Ġmelindungi": 4441,
      "Ġakomodasi": 4442,
      "Ġkarbon": 4443,
      "Ġatmos": 4444,
      "Ġvanc": 4445,
      "Ġvatikan": 4446,
      "Ġastr": 4447,
      "eduh": 4448,
      "awas": 4449,
      "anjat": 4450,
      "Ġberbahasa": 4451,
      "Ġmencuri": 4452,
      "Ġkera": 4453,
      "Ġkerap": 4454,
      "Ġkerjanya": 4455,
      "abut": 4456,
      "Ġsenat": 4457,
      "ancam": 4458,
      "ancangan": 4459,
      "odik": 4460,
      "pad": 4461,
      "Ġbiara": 4462,
      "Ġberku": 4463,
      "Ġberkurang": 4464,
      "Ġdikarenakan": 4465,
      "Ġmenghadir": 4466,
      "Ġmenghancurkan": 4467,
      "Ġharv": 4468,
      "Ġharta": 4469,
      "Ġharganya": 4470,
      "Ġditahan": 4471,
      "jual": 4472,
      "Ġmemperkenalkan": 4473,
      "Ġmemperingatkan": 4474,
      "Ġkomersial": 4475,
      "Ġkombinasi": 4476,
      "Ġsejenis": 4477,
      "Ġmaori": 4478,
      "Ġmasakan": 4479,
      "che": 4480,
      "chel": 4481,
      "chkin": 4482,
      "Ġkuba": 4483,
      "Ġkualitas": 4484,
      "Ġairnya": 4485,
      "Ġketat": 4486,
      "Ġketidak": 4487,
      "Ġketahui": 4488,
      "Ġrumania": 4489,
      "Ġall": 4490,
      "Ġove": 4491,
      "Ġpasti": 4492,
      "Ġpasangan": 4493,
      "Ġpastikan": 4494,
      "Ġdipilih": 4495,
      "Ġdipubl": 4496,
      "impi": 4497,
      "Ġpalem": 4498,
      "Ġrabu": 4499,
      "Ġracun": 4500,
      "Ġspektr": 4501,
      "indak": 4502,
      "uncurkan": 4503,
      "Ġkesulit": 4504,
      "Ġliber": 4505,
      "Ġdiajukan": 4506,
      "Ġdisney": 4507,
      "Ġmengagumi": 4508,
      "ovinsi": 4509,
      "Ġparagua": 4510,
      "Ġmili": 4511,
      "Ġpemberian": 4512,
      "elaskan": 4513,
      "Ġ32": 4514,
      "Ġstasiun": 4515,
      "bank": 4516,
      "provinsi": 4517,
      "Ġapple": 4518,
      "tuhan": 4519,
      "Ġdimakan": 4520,
      "Ġdimensi": 4521,
      "Ġberlari": 4522,
      "Ġpersonal": 4523,
      "Ġpersidangan": 4524,
      "Ġkekhawatiran": 4525,
      "dewa": 4526,
      "ice": 4527,
      "Ġ2020": 4528,
      "Ġera": 4529,
      "Ġerat": 4530,
      "Ġbumbu": 4531,
      "Ġkastil": 4532,
      "Ġbertindak": 4533,
      "Ġzimbab": 4534,
      "Ġdinamai": 4535,
      "efak": 4536,
      "Ġistr": 4537,
      "Ġterpopuler": 4538,
      "Ġoris": 4539,
      "Ġjalanan": 4540,
      "Ġanggap": 4541,
      "Ġsaling": 4542,
      "Ġsesungg": 4543,
      "aden": 4544,
      "Ġkelima": 4545,
      "Ġkeluhan": 4546,
      "Ġdavid": 4547,
      "Ġsiapa": 4548,
      "Ġ400": 4549,
      "angkau": 4550,
      "Ġkomponen": 4551,
      "Ġotomat": 4552,
      "Ġtersangka": 4553,
      "Ġgunakan": 4554,
      "Ġmarkas": 4555,
      "Ġtrauma": 4556,
      "Ġdisebutkan": 4557,
      "unggulan": 4558,
      "Ġminum": 4559,
      "Ġkadang": 4560,
      "Ġkeputusan": 4561,
      "Ġ2011": 4562,
      "Ġorganisme": 4563,
      "Ġbelanda": 4564,
      "Ġbelantara": 4565,
      "Ġberpotensi": 4566,
      "Ġbukanlah": 4567,
      "Ġeliz": 4568,
      "Ġperkiraan": 4569,
      "Ġpasifik": 4570,
      "Ġkorupsi": 4571,
      "ofi": 4572,
      "Ġdihitung": 4573,
      "Ġnyawa": 4574,
      "Ġroyal": 4575,
      "identifikasi": 4576,
      "Ġteater": 4577,
      "Ġtexas": 4578,
      "Ġmemasak": 4579,
      "Ġmemasuki": 4580,
      "ucapan": 4581,
      "Ġmenutup": 4582,
      "igh": 4583,
      "Ġdestinasi": 4584,
      "Ġbush": 4585,
      "Ġperiodik": 4586,
      "ijing": 4587,
      "Ġkenya": 4588,
      "Ġkendali": 4589,
      "Ġ800": 4590,
      "Ġmengakui": 4591,
      "Ġrekor": 4592,
      "Ġmenyeluruh": 4593,
      "arapkan": 4594,
      "operasikan": 4595,
      "Ġradioaktif": 4596,
      "pasal": 4597,
      "Ġputih": 4598,
      "Ġmenjelaskan": 4599,
      "Ġcurah": 4600,
      "Ġlamanya": 4601,
      "Ġtergolong": 4602,
      "burgh": 4603,
      "ouver": 4604,
      "teori": 4605,
      "Ġsingh": 4606,
      "alisis": 4607,
      "Ġlapangan": 4608,
      "Ġlaptop": 4609,
      "Ġkonteks": 4610,
      "kepala": 4611,
      "Ġsubs": 4612,
      "Ġlegal": 4613,
      "Ġlegis": 4614,
      "ombinasi": 4615,
      "Ġmemenangkan": 4616,
      "Ġgiza": 4617,
      "Ġkaca": 4618,
      "enggarakan": 4619,
      "abeth": 4620,
      "kasus": 4621,
      "Ġetnis": 4622,
      "Ġasiria": 4623,
      "Ġimperi": 4624,
      "Ġimigrasi": 4625,
      "Ġkeseimbangan": 4626,
      "Ġhidangan": 4627,
      "pertama": 4628,
      "Ġkomunitas": 4629,
      "Ġpendekatan": 4630,
      "inci": 4631,
      "Ġpenghargaan": 4632,
      "Ġkontras": 4633,
      "Ġmempertanyakan": 4634,
      "Ġmelampaui": 4635,
      "Ġsakura": 4636,
      "Ġtepian": 4637,
      "Ġmenularkan": 4638,
      "thern": 4639,
      "Ġmutasi": 4640,
      "Ġtegak": 4641,
      "Ġmenakutkan": 4642,
      "Ġpembacaan": 4643,
      "Ġidentitas": 4644,
      "Ġkebudayaan": 4645,
      "Ġpendapatan": 4646,
      "Ġkampanyenya": 4647,
      "Ġkimiaw": 4648,
      "Ġtebing": 4649,
      "Ġkopi": 4650,
      "Ġkopenhagen": 4651,
      "Ġruntuh": 4652,
      "Ġ1970": 4653,
      "Ġbekas": 4654,
      "Ġkutub": 4655,
      "melihat": 4656,
      "ness": 4657,
      "pirasi": 4658,
      "Ġberpenghasilan": 4659,
      "Ġabsol": 4660,
      "Ġdiproduksi": 4661,
      "Ġmetroplus": 4662,
      "Ġdebu": 4663,
      "Ġkokoh": 4664,
      "akibatnya": 4665,
      "Ġdisajikan": 4666,
      "Ġkejuaraan": 4667,
      "Ġlarangan": 4668,
      "Ġinvestigasi": 4669,
      "Ġcakra": 4670,
      "Ġartefak": 4671,
      "Ġmagnetik": 4672,
      "Ġkesembilan": 4673,
      "Ġkristal": 4674,
      "Ġtumbuh": 4675,
      "Ġkolonial": 4676,
      "fokuskan": 4677,
      "izinkan": 4678,
      "kedua": 4679,
      "Ġebola": 4680,
      "Ġaliansi": 4681,
      "Ġmewah": 4682,
      "Ġhabitat": 4683,
      "Ġjejak": 4684,
      "Ġcengkeraman": 4685,
      "anggurdi": 4686,
      "Ġmendekati": 4687,
      "Ġindependen": 4688,
      "Ġprofesional": 4689,
      "kongres": 4690,
      "kacangan": 4691,
      "populasi": 4692,
      "Ġdakwaan": 4693,
      "Ġdetail": 4694,
      "Ġderajat": 4695,
      "Ġmamalia": 4696,
      "Ġportugis": 4697,
      "Ġbhajan": 4698,
      "Ġtangki": 4699,
      "Ġtoginet": 4700,
      "Ġtuduhan": 4701,
      "Ġtewas": 4702,
      "Ġtarget": 4703,
      "Ġsetrika": 4704,
      "tumbuhan": 4705,
      "Ġkewajiban": 4706,
      "Ġbersejarah": 4707,
      "Ġhipot": 4708,
      "Ġmenginspirasi": 4709,
      "Ġcostello": 4710,
      "Ġnyaris": 4711,
      "Ġnarapidana": 4712,
      "Ġpenipuan": 4713,
      "Ġwhitehall": 4714,
      "Ġpengobatan": 4715,
      "Ġpengertian": 4716,
      "epresentasikan": 4717,
      "Ġmemblokir": 4718,
      "Ġmelanjutkan": 4719,
      "Ġatmosfer": 4720,
      "Ġvancouver": 4721,
      "Ġmenghadirkan": 4722,
      "Ġovechkin": 4723,
      "Ġdipublikasikan": 4724,
      "Ġkesulitan": 4725,
      "Ġliberal": 4726,
      "Ġparaguay": 4727,
      "Ġzimbabwe": 4728,
      "Ġsesungguhnya": 4729,
      "Ġotomatis": 4730,
      "Ġelizabeth": 4731,
      "Ġmenutupi": 4732,
      "Ġabsolut": 4733,
      "24": 4734,
      "200": 4735,
      "38": 4736,
      "46": 4737,
      "60": 4738,
      "auan": 4739,
      "ajuan": 4740,
      "bo": 4741,
      "by": 4742,
      "bes": 4743,
      "bol": 4744,
      "bia": 4745,
      "bangsa": 4746,
      "benar": 4747,
      "boks": 4748,
      "cakan": 4749,
      "cur": 4750,
      "colo": 4751,
      "canyon": 4752,
      "ceratop": 4753,
      "dut": 4754,
      "des": 4755,
      "dataran": 4756,
      "dokter": 4757,
      "dust": 4758,
      "dopsi": 4759,
      "easi": 4760,
      "fu": 4761,
      "fabet": 4762,
      "gang": 4763,
      "geser": 4764,
      "hin": 4765,
      "hak": 4766,
      "hasil": 4767,
      "hotel": 4768,
      "hkek": 4769,
      "ipat": 4770,
      "iasaan": 4771,
      "jem": 4772,
      "jerman": 4773,
      "kon": 4774,
      "kur": 4775,
      "kir": 4776,
      "kunjungan": 4777,
      "ly": 4778,
      "lon": 4779,
      "leksi": 4780,
      "luna": 4781,
      "lengk": 4782,
      "luksemburg": 4783,
      "mat": 4784,
      "makan": 4785,
      "mark": 4786,
      "mau": 4787,
      "nh": 4788,
      "ns": 4789,
      "okan": 4790,
      "oja": 4791,
      "oul": 4792,
      "oper": 4793,
      "put": 4794,
      "paran": 4795,
      "pusat": 4796,
      "pilihan": 4797,
      "pejabat": 4798,
      "plin": 4799,
      "rak": 4800,
      "ril": 4801,
      "ret": 4802,
      "rom": 4803,
      "raksi": 4804,
      "sen": 4805,
      "sas": 4806,
      "sis": 4807,
      "sam": 4808,
      "sil": 4809,
      "sit": 4810,
      "semb": 4811,
      "satu": 4812,
      "syat": 4813,
      "sukaan": 4814,
      "tetap": 4815,
      "ux": 4816,
      "ufu": 4817,
      "vatif": 4818,
      "war": 4819,
      "wat": 4820,
      "wasan": 4821,
      "wenang": 4822,
      "ward": 4823,
      "ym": 4824,
      "yo": 4825,
      "yerusalem": 4826,
      "zil": 4827,
      "Â£": 4828,
      "Â²": 4829,
      "ÂŃ": 4830,
      "Ã¿": 4831,
      "Ġul": 4832,
      "Ġup": 4833,
      "Ġop": 4834,
      "Ġist": 4835,
      "Ġev": 4836,
      "Ġenc": 4837,
      "Ġeja": 4838,
      "Ġusaha": 4839,
      "Ġevolusi": 4840,
      "Ġombak": 4841,
      "anti": 4842,
      "anai": 4843,
      "ereng": 4844,
      "erjakan": 4845,
      "Ġden": 4846,
      "Ġdur": 4847,
      "Ġdom": 4848,
      "Ġdewan": 4849,
      "Ġduel": 4850,
      "Ġderetan": 4851,
      "Ġmari": 4852,
      "Ġmisi": 4853,
      "Ġmab": 4854,
      "Ġmanc": 4855,
      "Ġmapan": 4856,
      "Ġmuka": 4857,
      "Ġmic": 4858,
      "Ġmangs": 4859,
      "Ġmund": 4860,
      "Ġmaria": 4861,
      "Ġmantan": 4862,
      "Ġmigrasi": 4863,
      "Ġmimpi": 4864,
      "enos": 4865,
      "enalan": 4866,
      "entikan": 4867,
      "arki": 4868,
      "area": 4869,
      "aruhi": 4870,
      "Ġsla": 4871,
      "Ġsus": 4872,
      "Ġsil": 4873,
      "Ġsir": 4874,
      "Ġsisa": 4875,
      "Ġsaran": 4876,
      "Ġsant": 4877,
      "Ġsarang": 4878,
      "Ġsaksi": 4879,
      "Ġsanggurdi": 4880,
      "ange": 4881,
      "angel": 4882,
      "angola": 4883,
      "Ġpi": 4884,
      "Ġpant": 4885,
      "Ġpic": 4886,
      "Ġpidana": 4887,
      "Ġbra": 4888,
      "Ġbanj": 4889,
      "Ġboh": 4890,
      "Ġbangun": 4891,
      "Ġbeser": 4892,
      "Ġbenteng": 4893,
      "atih": 4894,
      "atulis": 4895,
      "Ġtam": 4896,
      "Ġtok": 4897,
      "Ġtant": 4898,
      "Ġtemp": 4899,
      "Ġtungg": 4900,
      "Ġtemuan": 4901,
      "Ġtha": 4902,
      "Ġtomat": 4903,
      "Ġtapak": 4904,
      "Ġtekanan": 4905,
      "ink": 4906,
      "inof": 4907,
      "inerja": 4908,
      "inness": 4909,
      "Ġkamb": 4910,
      "Ġkatakan": 4911,
      "Ġkenc": 4912,
      "Ġklaim": 4913,
      "Ġkinerja": 4914,
      "akil": 4915,
      "akui": 4916,
      "astis": 4917,
      "Ġdijalan": 4918,
      "Ġdidapat": 4919,
      "Ġdimas": 4920,
      "Ġdimasuk": 4921,
      "Ġdidirikan": 4922,
      "Ġdiintern": 4923,
      "Ġdiidentifikasi": 4924,
      "Ġdioperasikan": 4925,
      "Ġdiakui": 4926,
      "emil": 4927,
      "dain": 4928,
      "Ġmenik": 4929,
      "Ġmendi": 4930,
      "Ġmenon": 4931,
      "Ġmenant": 4932,
      "Ġmenab": 4933,
      "Ġmenengah": 4934,
      "Ġmenaik": 4935,
      "Ġmenjauh": 4936,
      "Ġmenamakan": 4937,
      "Ġmenawan": 4938,
      "Ġmenikmati": 4939,
      "ahaman": 4940,
      "Ġseg": 4941,
      "Ġsetu": 4942,
      "Ġsesi": 4943,
      "Ġseluas": 4944,
      "alu": 4945,
      "alatan": 4946,
      "alju": 4947,
      "alangi": 4948,
      "alkohol": 4949,
      "Ġyak": 4950,
      "Ġyud": 4951,
      "yawa": 4952,
      "tud": 4953,
      "tugas": 4954,
      "isaris": 4955,
      "ame": 4956,
      "amatan": 4957,
      "Ġdani": 4958,
      "iksi": 4959,
      "ikinya": 4960,
      "ikiran": 4961,
      "Ġkeyak": 4962,
      "Ġkeadilan": 4963,
      "Ġkedamaian": 4964,
      "Ġkebaikan": 4965,
      "Ġtern": 4966,
      "Ġterawat": 4967,
      "Ġteramat": 4968,
      "Ġterancam": 4969,
      "apun": 4970,
      "apia": 4971,
      "Ġberac": 4972,
      "Ġberulang": 4973,
      "Ġbersedia": 4974,
      "Ġberwajib": 4975,
      "Ġberujung": 4976,
      "Ġberdampak": 4977,
      "Ġberalkohol": 4978,
      "ork": 4979,
      "oret": 4980,
      "orfik": 4981,
      "ebo": 4982,
      "ebat": 4983,
      "ebal": 4984,
      "ebron": 4985,
      "engarkan": 4986,
      "utnya": 4987,
      "utasi": 4988,
      "utaran": 4989,
      "usulkan": 4990,
      "aritas": 4991,
      "Ġmemil": 4992,
      "Ġmemamer": 4993,
      "Ġmempeng": 4994,
      "Ġmemutar": 4995,
      "Ġmematikan": 4996,
      "Ġmemverifikasi": 4997,
      "Ġmemandu": 4998,
      "dium": 4999,
      "dimen": 5000,
      "didat": 5001,
      "Ġperh": 5002,
      "Ġperum": 5003,
      "Ġperadilan": 5004,
      "Ġperiksa": 5005,
      "Ġperayaan": 5006,
      "Ġperlom": 5007,
      "Ġpergeser": 5008,
      "Ġperalatan": 5009,
      "Ġlong": 5010,
      "Ġluna": 5011,
      "Ġlond": 5012,
      "Ġlolos": 5013,
      "Ġlereng": 5014,
      "elint": 5015,
      "elwal": 5016,
      "illa": 5017,
      "ilot": 5018,
      "Ġhom": 5019,
      "Ġhama": 5020,
      "Ġhib": 5021,
      "Ġhoki": 5022,
      "Ġhebron": 5023,
      "esu": 5024,
      "esia": 5025,
      "esco": 5026,
      "onanya": 5027,
      "ekatan": 5028,
      "uruk": 5029,
      "Ġjer": 5030,
      "etisi": 5031,
      "eteksi": 5032,
      "Ġmengenal": 5033,
      "Ġmengingat": 5034,
      "Ġmengund": 5035,
      "Ġmengira": 5036,
      "Ġmengendara": 5037,
      "Ġmenggabungkan": 5038,
      "Ġmengerti": 5039,
      "Ġmengkritik": 5040,
      "Ġmenggantikan": 5041,
      "Ġmengerjakan": 5042,
      "Ġrasi": 5043,
      "Ġrentang": 5044,
      "Ġruang": 5045,
      "Ġrenang": 5046,
      "Ġringan": 5047,
      "Ġrevolusi": 5048,
      "Ġretakan": 5049,
      "Ġrelawan": 5050,
      "lamasi": 5051,
      "lamatan": 5052,
      "ungkap": 5053,
      "asium": 5054,
      "ukti": 5055,
      "ukiman": 5056,
      "Ġinfr": 5057,
      "Ġunesco": 5058,
      "olia": 5059,
      "olongan": 5060,
      "baan": 5061,
      "baiki": 5062,
      "iri": 5063,
      "irkan": 5064,
      "tion": 5065,
      "tium": 5066,
      "tiani": 5067,
      "tizan": 5068,
      "ulung": 5069,
      "ulir": 5070,
      "uluki": 5071,
      "ularitas": 5072,
      "Ġcor": 5073,
      "Ġcelah": 5074,
      "Ġcamp": 5075,
      "Ġcep": 5076,
      "Ġcerah": 5077,
      "Ġcinc": 5078,
      "Ġcity": 5079,
      "Ġaz": 5080,
      "Ġabor": 5081,
      "Ġayam": 5082,
      "Ġnint": 5083,
      "Ġnab": 5084,
      "Ġnasihat": 5085,
      "imasi": 5086,
      "Ġlautan": 5087,
      "Ġlaku": 5088,
      "Ġlagu": 5089,
      "Ġlazim": 5090,
      "perang": 5091,
      "periksa": 5092,
      "Ġmeref": 5093,
      "Ġmerebut": 5094,
      "Ġpenak": 5095,
      "Ġpenungg": 5096,
      "Ġpenerus": 5097,
      "Ġpenutu": 5098,
      "Ġpenahanan": 5099,
      "Ġpenutur": 5100,
      "Ġpendaftaran": 5101,
      "Ġpensil": 5102,
      "elaki": 5103,
      "Ġgur": 5104,
      "Ġgula": 5105,
      "Ġgaris": 5106,
      "Ġgoma": 5107,
      "omentar": 5108,
      "Ġbahunya": 5109,
      "egal": 5110,
      "egel": 5111,
      "egasi": 5112,
      "egangan": 5113,
      "Ġbagasi": 5114,
      "buang": 5115,
      "buatan": 5116,
      "asalah": 5117,
      "Ġfat": 5118,
      "Ġfor": 5119,
      "Ġfir": 5120,
      "Ġflu": 5121,
      "Ġfokus": 5122,
      "Ġfokal": 5123,
      "ehkan": 5124,
      "Ġprib": 5125,
      "Ġprefek": 5126,
      "Ġpraha": 5127,
      "angani": 5128,
      "Ġpengirim": 5129,
      "Ġpengawasan": 5130,
      "Ġpengaruh": 5131,
      "Ġpengerat": 5132,
      "Ġpengganti": 5133,
      "Ġpenggem": 5134,
      "Ġpengisian": 5135,
      "Ġpengamatan": 5136,
      "epaskan": 5137,
      "osisi": 5138,
      "ostr": 5139,
      "isipasi": 5140,
      "trib": 5141,
      "teraan": 5142,
      "terdapat": 5143,
      "oph": 5144,
      "Ġmembant": 5145,
      "Ġmembuka": 5146,
      "Ġmembiaya": 5147,
      "Ġmembunuh": 5148,
      "Ġmembedakan": 5149,
      "andung": 5150,
      "andelwal": 5151,
      "esarkan": 5152,
      "Ġpemikiran": 5153,
      "Ġpemukiman": 5154,
      "dahulunya": 5155,
      "Ġseksu": 5156,
      "Ġsekelompok": 5157,
      "Ġmenyatu": 5158,
      "entik": 5159,
      "enton": 5160,
      "entangan": 5161,
      "arankan": 5162,
      "Ġpertolongan": 5163,
      "Ġkemah": 5164,
      "Ġkemac": 5165,
      "Ġkemunduran": 5166,
      "Ġ23": 5167,
      "Ġselebar": 5168,
      "Ġselesa": 5169,
      "Ġselanjutnya": 5170,
      "Ġsepertiga": 5171,
      "Ġseminggu": 5172,
      "Ġmelelah": 5173,
      "Ġmelip": 5174,
      "Ġmelengk": 5175,
      "Ġmelukai": 5176,
      "Ġmelarikan": 5177,
      "Ġmelepaskan": 5178,
      "sejara": 5179,
      "angkaian": 5180,
      "Ġaturan": 5181,
      "Ġatraksi": 5182,
      "antalan": 5183,
      "antisisme": 5184,
      "Ġmelaju": 5185,
      "Ġmelayani": 5186,
      "Ġmelainkan": 5187,
      "Ġveg": 5188,
      "Ġvic": 5189,
      "Ġvins": 5190,
      "anjakan": 5191,
      "Ġmencor": 5192,
      "Ġmencatat": 5193,
      "Ġsudut": 5194,
      "Ġkeras": 5195,
      "Ġkertas": 5196,
      "Ġkerumunan": 5197,
      "Ġarmada": 5198,
      "intai": 5199,
      "abisan": 5200,
      "Ġutah": 5201,
      "Ġutamanya": 5202,
      "Ġsenyawa": 5203,
      "Ġsebelas": 5204,
      "ambia": 5205,
      "ambarkan": 5206,
      "Ġterbit": 5207,
      "Ġterbunuh": 5208,
      "Ġterburuk": 5209,
      "Ġterbukti": 5210,
      "Ġbicara": 5211,
      "Ġbizan": 5212,
      "Ġbiologis": 5213,
      "Ġberkomp": 5214,
      "Ġberkomentar": 5215,
      "Ġdikelilingi": 5216,
      "Ġmengharus": 5217,
      "Ġmenghilang": 5218,
      "Ġmenghalangi": 5219,
      "Ġharapan": 5220,
      "endo": 5221,
      "enduduk": 5222,
      "Ġditarik": 5223,
      "Ġditambahkan": 5224,
      "Ġditandatangani": 5225,
      "Ġtank": 5226,
      "Ġmemperhatikan": 5227,
      "Ġmemperbaiki": 5228,
      "Ġmendekat": 5229,
      "Ġmendasar": 5230,
      "Ġmendanai": 5231,
      "Ġkomet": 5232,
      "Ġmay": 5233,
      "Ġmassal": 5234,
      "Ġantark": 5235,
      "penemuan": 5236,
      "Ġharian": 5237,
      "Ġkebun": 5238,
      "Ġkebocor": 5239,
      "Ġkebebasan": 5240,
      "Ġkebiasaan": 5241,
      "chu": 5242,
      "chus": 5243,
      "chner": 5244,
      "Ġaires": 5245,
      "Ġairlin": 5246,
      "Ġketegangan": 5247,
      "Ġatasnya": 5248,
      "Ġtimbuk": 5249,
      "umuman": 5250,
      "Ġaliran": 5251,
      "Ġalfabet": 5252,
      "Ġterkec": 5253,
      "Ġoyapock": 5254,
      "Ġpasc": 5255,
      "Ġdipahami": 5256,
      "Ġdipengaruhi": 5257,
      "Ġdipelajari": 5258,
      "Ġdipasang": 5259,
      "impulan": 5260,
      "Ġpenyusun": 5261,
      "Ġpalest": 5262,
      "Ġraju": 5263,
      "Ġspring": 5264,
      "unci": 5265,
      "Ġagensi": 5266,
      "Ġmusiman": 5267,
      "Ġbuff": 5268,
      "Ġbuenos": 5269,
      "manusia": 5270,
      "Ġinterpr": 5271,
      "Ġdisarankan": 5272,
      "Ġmengajar": 5273,
      "lien": 5274,
      "Ġikan": 5275,
      "Ġmaksim": 5276,
      "Ġturnamen": 5277,
      "Ġpembesar": 5278,
      "elasan": 5279,
      "Ġ34": 5280,
      "Ġ37": 5281,
      "Ġstev": 5282,
      "Ġstone": 5283,
      "lasan": 5284,
      "Ġpendorong": 5285,
      "Ġkhufu": 5286,
      "Ġkhatulis": 5287,
      "Ġkhandelwal": 5288,
      "Ġtrek": 5289,
      "ekerta": 5290,
      "Ġaparat": 5291,
      "Ġapartemen": 5292,
      "Ġpay": 5293,
      "Ġpagar": 5294,
      "Ġpadat": 5295,
      "evan": 5296,
      "Ġdimintai": 5297,
      "empur": 5298,
      "Ġpersia": 5299,
      "Ġpersepsi": 5300,
      "Ġsendirian": 5301,
      "Ġkekej": 5302,
      "Ġkekayaan": 5303,
      "Ġpartizan": 5304,
      "Ġbersalju": 5305,
      "bert": 5306,
      "berjalan": 5307,
      "defin": 5308,
      "Ġeksp": 5309,
      "menerus": 5310,
      "mendirikan": 5311,
      "ersihkan": 5312,
      "ersburg": 5313,
      "Ġbertahun": 5314,
      "Ġbertempur": 5315,
      "Ġza": 5316,
      "Ġzh": 5317,
      "Ġzag": 5318,
      "Ġzambia": 5319,
      "acunan": 5320,
      "Ġdipert": 5321,
      "Ġdiperbar": 5322,
      "atifikasi": 5323,
      "Ġpopularitas": 5324,
      "geria": 5325,
      "Ġpesat": 5326,
      "Ġpesonanya": 5327,
      "Ġgran": 5328,
      "Ġgratis": 5329,
      "fred": 5330,
      "Ġterpilih": 5331,
      "Ġterpotong": 5332,
      "Ġmandiri": 5333,
      "Ġmeyakini": 5334,
      "Ġkedokter": 5335,
      "Ġcharles": 5336,
      "orida": 5337,
      "Ġ2004": 5338,
      "Ġ2007": 5339,
      "Ġanggar": 5340,
      "Ġanggur": 5341,
      "Ġanggaran": 5342,
      "Ġkonstruksi": 5343,
      "Ġkonstitusi": 5344,
      "Ġkonsentrasi": 5345,
      "Ġkritis": 5346,
      "Ġkeliling": 5347,
      "toria": 5348,
      "Ġdirencanakan": 5349,
      "ususkan": 5350,
      "Ġmembaca": 5351,
      "Ġjames": 5352,
      "Ġpentingnya": 5353,
      "tikel": 5354,
      "Ġminimal": 5355,
      "Ġkaisar": 5356,
      "Ġkavaleri": 5357,
      "ahayaan": 5358,
      "Ġtransparan": 5359,
      "Ġekor": 5360,
      "Ġkehadir": 5361,
      "Ġkehabisan": 5362,
      "Ġbeli": 5363,
      "ĠkmÃ¢": 5364,
      "Ġberpindah": 5365,
      "Ġberputar": 5366,
      "Ġberpenduduk": 5367,
      "Ġmenerjem": 5368,
      "etul": 5369,
      "Ġskala": 5370,
      "Ġformulir": 5371,
      "Ġspesial": 5372,
      "Ġperkotaan": 5373,
      "Ġpencarian": 5374,
      "Ġpencahayaan": 5375,
      "Ġaustria": 5376,
      "Ġdihi": 5377,
      "Ġ50": 5378,
      "Ġ53": 5379,
      "Ġpetunjuk": 5380,
      "Ġpetani": 5381,
      "Ġpetersburg": 5382,
      "Ġfotos": 5383,
      "Ġdepannya": 5384,
      "Ġdepartemen": 5385,
      "Ġmeski": 5386,
      "Ġpanjangnya": 5387,
      "Ġrelevan": 5388,
      "jamin": 5389,
      "Ġbermasalah": 5390,
      "Ġkemampuannya": 5391,
      "igu": 5392,
      "Ġbusa": 5393,
      "Ġdicatat": 5394,
      "Ġpenerbang": 5395,
      "uksinya": 5396,
      "Ġnomaden": 5397,
      "Ġjaraknya": 5398,
      "Ġuniversity": 5399,
      "neider": 5400,
      "Ġstaf": 5401,
      "Ġsenior": 5402,
      "Ġshow": 5403,
      "Ġlatar": 5404,
      "Ġlatihan": 5405,
      "Ġfilos": 5406,
      "Ġfilsu": 5407,
      "pasangan": 5408,
      "Ġputri": 5409,
      "Ġbatas": 5410,
      "Ġmenjelajah": 5411,
      "Ġprodus": 5412,
      "Ġproduk": 5413,
      "Ġserigala": 5414,
      "Ġlampu": 5415,
      "anksi": 5416,
      "Ġ160": 5417,
      "Ġsamoa": 5418,
      "Ġsinga": 5419,
      "Ġbishkek": 5420,
      "ateral": 5421,
      "Ġkonten": 5422,
      "cayai": 5423,
      "ght": 5424,
      "Ġdidorong": 5425,
      "aliknya": 5426,
      "kue": 5427,
      "sudah": 5428,
      "Ġdre": 5429,
      "Ġdrama": 5430,
      "Ġdrastis": 5431,
      "wabah": 5432,
      "seluruh": 5433,
      "Ġusai": 5434,
      "Ġgigi": 5435,
      "Ġ1995": 5436,
      "kastil": 5437,
      "semakin": 5438,
      "sekali": 5439,
      "Ġ90": 5440,
      "Ġuji": 5441,
      "Ġujian": 5442,
      "Ġsurvei": 5443,
      "Ġpaten": 5444,
      "Ġpedagang": 5445,
      "Ġkesejah": 5446,
      "Ġkeselamatan": 5447,
      "Ġnorthern": 5448,
      "pertandingan": 5449,
      "pertunjukan": 5450,
      "Ġpenjelasan": 5451,
      "sundarbans": 5452,
      "Ġukurannya": 5453,
      "Ġpbs": 5454,
      "Ġtercatat": 5455,
      "Ġhongaria": 5456,
      "Ġkontrol": 5457,
      "Ġmanajer": 5458,
      "roskop": 5459,
      "Ġstudio": 5460,
      "Ġkristiani": 5461,
      "Ġdigulung": 5462,
      "Ġmenyerukan": 5463,
      "Ġmenyerupai": 5464,
      "Ġmeditasi": 5465,
      "dampingi": 5466,
      "brak": 5467,
      "Ġtegas": 5468,
      "Ġmenaklukkan": 5469,
      "Ġmengarahkan": 5470,
      "Ġcape": 5471,
      "Ġcapung": 5472,
      "belanja": 5473,
      "tahun": 5474,
      "Ġide": 5475,
      "Ġsembari": 5476,
      "Ġkiri": 5477,
      "Ġkirchner": 5478,
      "Ġkabel": 5479,
      "Ġperputaran": 5480,
      "Ġguinness": 5481,
      "Ġkekalahan": 5482,
      "Ġkonservatif": 5483,
      "menggunakan": 5484,
      "pemer": 5485,
      "Ġmikro": 5486,
      "Ġmikroskop": 5487,
      "Ġberlawanan": 5488,
      "Ġjiwanya": 5489,
      "Ġkarakteristik": 5490,
      "hood": 5491,
      "kebanyakan": 5492,
      "kecelakaan": 5493,
      "masalah": 5494,
      "Ġbeku": 5495,
      "Ġtembakan": 5496,
      "Ġdirawat": 5497,
      "Ġhijau": 5498,
      "Ġjangkauan": 5499,
      "Ġmengeksp": 5500,
      "Ġgalon": 5501,
      "Ġfrancis": 5502,
      "Ġalpine": 5503,
      "protes": 5504,
      "Ġeksperimen": 5505,
      "kopi": 5506,
      "pasien": 5507,
      "pendekatan": 5508,
      "Ġilegal": 5509,
      "Ġdekor": 5510,
      "Ġdeklarasi": 5511,
      "Ġdinilai": 5512,
      "Ġsansekerta": 5513,
      "Ġbulat": 5514,
      "Ġtriceratop": 5515,
      "akuasi": 5516,
      "Ġlee": 5517,
      "Ġlipatan": 5518,
      "untungkan": 5519,
      "untungnya": 5520,
      "sepanjang": 5521,
      "Ġmosasaurus": 5522,
      "Ġtingkah": 5523,
      "Ġdisiplin": 5524,
      "Ġmenjawab": 5525,
      "Ġmenjalani": 5526,
      "Ġsecepat": 5527,
      "Ġhawaii": 5528,
      "Ġmengisap": 5529,
      "Ġgesekan": 5530,
      "Ġsabana": 5531,
      "Ġprimata": 5532,
      "Ġvenus": 5533,
      "Ġmendatangi": 5534,
      "Ġalexander": 5535,
      "Ġchile": 5536,
      "Ġarizona": 5537,
      "Ġscot": 5538,
      "Ġtugas": 5539,
      "Ġditabrak": 5540,
      "Ġmenuruni": 5541,
      "Ġberagam": 5542,
      "Ġpertimbangkan": 5543,
      "Ġjourdain": 5544,
      "Ġcekungan": 5545,
      "Ġcabang": 5546,
      "Ġfosil": 5547,
      "Ġpemanasan": 5548,
      "Ġvisualisasi": 5549,
      "Ġarktik": 5550,
      "Ġdiselenggarakan": 5551,
      "presiden": 5552,
      "Ġmeteorit": 5553,
      "Ġkredit": 5554,
      "Ġmatematika": 5555,
      "Ġepisode": 5556,
      "Ġkolaborasi": 5557,
      "Ġhinduisme": 5558,
      "pesawat": 5559,
      "Ġmomen": 5560,
      "Ġbongkar": 5561,
      "Ġbuddha": 5562,
      "Ġhuruf": 5563,
      "Ġinovatif": 5564,
      "Ġcaribes": 5565,
      "Ġcovid": 5566,
      "Ġfernando": 5567,
      "Ġmelewatkan": 5568,
      "Ġberkualitas": 5569,
      "Ġketidaksukaan": 5570,
      "Ġistri": 5571,
      "Ġkimiawi": 5572,
      "canyoning": 5573,
      "hinx": 5574,
      "lengkapan": 5575,
      "oulos": 5576,
      "sasaran": 5577,
      "sitektur": 5578,
      "tetapi": 5579,
      "Ġistana": 5580,
      "Ġejaan": 5581,
      "Ġdurasi": 5582,
      "Ġmabuk": 5583,
      "Ġmangsanya": 5584,
      "Ġmundur": 5585,
      "Ġslalom": 5586,
      "Ġbrazil": 5587,
      "Ġbanjir": 5588,
      "Ġbohlam": 5589,
      "Ġbeserta": 5590,
      "Ġtantangan": 5591,
      "Ġtunggal": 5592,
      "inoff": 5593,
      "Ġkencang": 5594,
      "Ġdijalankan": 5595,
      "Ġdimasak": 5596,
      "Ġdimasukkan": 5597,
      "Ġdiinternalisasi": 5598,
      "emilikan": 5599,
      "Ġmenikah": 5600,
      "Ġmenantang": 5601,
      "Ġmenabrak": 5602,
      "Ġmenaikkan": 5603,
      "Ġsetuju": 5604,
      "Ġkeyakinan": 5605,
      "Ġberacun": 5606,
      "Ġmemilikinya": 5607,
      "Ġmemamerkan": 5608,
      "Ġmempengaruhi": 5609,
      "Ġperumahan": 5610,
      "Ġperlombaan": 5611,
      "Ġpergeseran": 5612,
      "Ġlongsor": 5613,
      "Ġlondon": 5614,
      "elintir": 5615,
      "Ġmengendarai": 5616,
      "Ġcampuran": 5617,
      "Ġcincin": 5618,
      "Ġaborsi": 5619,
      "Ġnintendo": 5620,
      "Ġnabati": 5621,
      "Ġpenunggang": 5622,
      "Ġpenutupan": 5623,
      "Ġpribumi": 5624,
      "Ġprefektur": 5625,
      "Ġpengiriman": 5626,
      "Ġmembiayai": 5627,
      "Ġseksual": 5628,
      "Ġkemacetan": 5629,
      "Ġselesainya": 5630,
      "Ġmeliputi": 5631,
      "Ġmelengkapi": 5632,
      "sejarawan": 5633,
      "Ġvictoria": 5634,
      "Ġvinson": 5635,
      "Ġbizantium": 5636,
      "Ġberkompetisi": 5637,
      "Ġmengharuskan": 5638,
      "Ġkebocoran": 5639,
      "Ġairlines": 5640,
      "Ġtimbuktu": 5641,
      "Ġpalestina": 5642,
      "Ġspringboks": 5643,
      "Ġbuffalo": 5644,
      "Ġinterpretasi": 5645,
      "Ġmaksimum": 5646,
      "Ġkhatulistiwa": 5647,
      "Ġkekejaman": 5648,
      "definisi": 5649,
      "Ġdiperbarui": 5650,
      "Ġkedokteran": 5651,
      "Ġkehadiran": 5652,
      "Ġmenerjemahkan": 5653,
      "Ġfilsuf": 5654,
      "Ġkesejahteraan": 5655,
      "'s": 5656,
      ".,": 5657,
      "11": 5658,
      "45": 5659,
      "84": 5660,
      "aat": 5661,
      "aih": 5662,
      "ade": 5663,
      "bul": 5664,
      "bom": 5665,
      "baran": 5666,
      "binc": 5667,
      "bson": 5668,
      "benda": 5669,
      "bitkan": 5670,
      "can": 5671,
      "cta": 5672,
      "cana": 5673,
      "cab": 5674,
      "ceo": 5675,
      "dd": 5676,
      "ds": 5677,
      "der": 5678,
      "den": 5679,
      "dun": 5680,
      "dus": 5681,
      "dukan": 5682,
      "datan": 5683,
      "dani": 5684,
      "desa": 5685,
      "eat": 5686,
      "eas": 5687,
      "edia": 5688,
      "ech": 5689,
      "fy": 5690,
      "film": 5691,
      "falkan": 5692,
      "ford": 5693,
      "ge": 5694,
      "gak": 5695,
      "ges": 5696,
      "gon": 5697,
      "grasi": 5698,
      "gempa": 5699,
      "gyal": 5700,
      "hr": 5701,
      "her": 5702,
      "hen": 5703,
      "hel": 5704,
      "hsi": 5705,
      "hers": 5706,
      "hubungan": 5707,
      "hone": 5708,
      "iat": 5709,
      "iuman": 5710,
      "jon": 5711,
      "juh": 5712,
      "jub": 5713,
      "jaman": 5714,
      "junya": 5715,
      "jinasi": 5716,
      "jenderal": 5717,
      "jelang": 5718,
      "kel": 5719,
      "kes": 5720,
      "kri": 5721,
      "kita": 5722,
      "kemen": 5723,
      "kurang": 5724,
      "komp": 5725,
      "kuc": 5726,
      "kish": 5727,
      "korelasi": 5728,
      "lkan": 5729,
      "let": 5730,
      "laran": 5731,
      "lunya": 5732,
      "lotte": 5733,
      "lorida": 5734,
      "mt": 5735,
      "mari": 5736,
      "mes": 5737,
      "mana": 5738,
      "mungkin": 5739,
      "mohon": 5740,
      "nk": 5741,
      "net": 5742,
      "nos": 5743,
      "ned": 5744,
      "oy": 5745,
      "oung": 5746,
      "ool": 5747,
      "oot": 5748,
      "oft": 5749,
      "oza": 5750,
      "ound": 5751,
      "oasia": 5752,
      "pe": 5753,
      "pkan": 5754,
      "pnya": 5755,
      "psi": 5756,
      "pemb": 5757,
      "pons": 5758,
      "park": 5759,
      "pember": 5760,
      "pelajaran": 5761,
      "pihak": 5762,
      "ren": 5763,
      "rah": 5764,
      "rik": 5765,
      "ruang": 5766,
      "ruari": 5767,
      "rober": 5768,
      "rempah": 5769,
      "sw": 5770,
      "sing": 5771,
      "seg": 5772,
      "ster": 5773,
      "sangat": 5774,
      "sons": 5775,
      "ts": 5776,
      "tw": 5777,
      "tama": 5778,
      "tany": 5779,
      "tika": 5780,
      "tangan": 5781,
      "tisi": 5782,
      "taksi": 5783,
      "temuan": 5784,
      "tekn": 5785,
      "the": 5786,
      "tetika": 5787,
      "tnk": 5788,
      "uela": 5789,
      "uatan": 5790,
      "vd": 5791,
      "vers": 5792,
      "vorit": 5793,
      "vice": 5794,
      "wasi": 5795,
      "warga": 5796,
      "yur": 5797,
      "yikan": 5798,
      "yton": 5799,
      "zamb": 5800,
      "zaki": 5801,
      "zoung": 5802,
      "Â¥": 5803,
      "Â§": 5804,
      "Â©": 5805,
      "Â³": 5806,
      "Â¶": 5807,
      "Ġeg": 5808,
      "Ġeh": 5809,
      "Ġos": 5810,
      "Ġend": 5811,
      "Ġima": 5812,
      "Ġukur": 5813,
      "Ġwabah": 5814,
      "erun": 5815,
      "erba": 5816,
      "erapa": 5817,
      "erasan": 5818,
      "eropa": 5819,
      "erkul": 5820,
      "erque": 5821,
      "Ġdama": 5822,
      "Ġdra": 5823,
      "Ġdorong": 5824,
      "Ġdeter": 5825,
      "Ġdokter": 5826,
      "Ġdulunya": 5827,
      "Ġdvd": 5828,
      "Ġmri": 5829,
      "Ġmiliki": 5830,
      "Ġmant": 5831,
      "Ġmeks": 5832,
      "Ġmaha": 5833,
      "Ġmangsa": 5834,
      "Ġmarian": 5835,
      "enia": 5836,
      "enaran": 5837,
      "endiri": 5838,
      "enario": 5839,
      "ardian": 5840,
      "arns": 5841,
      "arsitektur": 5842,
      "arlotte": 5843,
      "Ġsl": 5844,
      "Ġsap": 5845,
      "Ġsok": 5846,
      "Ġsamb": 5847,
      "Ġsimp": 5848,
      "Ġsingkat": 5849,
      "Ġsof": 5850,
      "Ġsimb": 5851,
      "Ġsidang": 5852,
      "Ġsimpan": 5853,
      "Ġsutrad": 5854,
      "Ġsyarat": 5855,
      "Ġpah": 5856,
      "Ġpap": 5857,
      "Ġpangk": 5858,
      "Ġpew": 5859,
      "Ġpoh": 5860,
      "Ġplas": 5861,
      "Ġpubl": 5862,
      "Ġpungg": 5863,
      "Ġpuc": 5864,
      "Ġpungutan": 5865,
      "Ġpilot": 5866,
      "Ġbor": 5867,
      "Ġbet": 5868,
      "Ġbua": 5869,
      "Ġbub": 5870,
      "Ġbend": 5871,
      "Ġbentang": 5872,
      "Ġbima": 5873,
      "Ġbris": 5874,
      "Ġbow": 5875,
      "Ġbook": 5876,
      "Ġbore": 5877,
      "Ġbobek": 5878,
      "atas": 5879,
      "ates": 5880,
      "ateg": 5881,
      "atham": 5882,
      "Ġtut": 5883,
      "Ġtingg": 5884,
      "Ġtanyakan": 5885,
      "Ġtangga": 5886,
      "Ġtampilan": 5887,
      "Ġtown": 5888,
      "Ġtunda": 5889,
      "Ġtanjakan": 5890,
      "laf": 5891,
      "laporkan": 5892,
      "layanan": 5893,
      "inak": 5894,
      "inalitas": 5895,
      "injau": 5896,
      "inburgh": 5897,
      "inyur": 5898,
      "Ġkak": 5899,
      "Ġkeng": 5900,
      "Ġking": 5901,
      "Ġkul": 5902,
      "Ġkain": 5903,
      "Ġkapan": 5904,
      "Ġklas": 5905,
      "Ġkuman": 5906,
      "Ġkancing": 5907,
      "Ġkumpulan": 5908,
      "aka": 5909,
      "unuhan": 5910,
      "unsur": 5911,
      "ast": 5912,
      "asit": 5913,
      "asakan": 5914,
      "aster": 5915,
      "asuhan": 5916,
      "asangka": 5917,
      "asosiasi": 5918,
      "Ġdilam": 5919,
      "Ġdituk": 5920,
      "Ġdiant": 5921,
      "Ġdiaw": 5922,
      "Ġdiev": 5923,
      "Ġdiarah": 5924,
      "Ġdijaga": 5925,
      "Ġdiaktif": 5926,
      "Ġdiucap": 5927,
      "Ġdipad": 5928,
      "Ġdifokuskan": 5929,
      "emaskan": 5930,
      "embaga": 5931,
      "emaat": 5932,
      "daan": 5933,
      "Ġment": 5934,
      "Ġmenemb": 5935,
      "Ġmenanding": 5936,
      "Ġmenunjuk": 5937,
      "aham": 5938,
      "ahlian": 5939,
      "Ġsevil": 5940,
      "alang": 5941,
      "alin": 5942,
      "alop": 5943,
      "Ġyerusalem": 5944,
      "Ġyork": 5945,
      "yaan": 5946,
      "tum": 5947,
      "tujuan": 5948,
      "isk": 5949,
      "ison": 5950,
      "isih": 5951,
      "isahkan": 5952,
      "amah": 5953,
      "amod": 5954,
      "amorg": 5955,
      "iko": 5956,
      "iking": 5957,
      "Ġkelah": 5958,
      "Ġkeangg": 5959,
      "Ġkeaja": 5960,
      "Ġkesalah": 5961,
      "Ġkeunggulan": 5962,
      "Ġkeahlian": 5963,
      "adal": 5964,
      "Ġterang": 5965,
      "Ġterper": 5966,
      "Ġterlu": 5967,
      "Ġterter": 5968,
      "Ġterima": 5969,
      "Ġterendah": 5970,
      "Ġterdalam": 5971,
      "Ġteratur": 5972,
      "Ġterencana": 5973,
      "Ġterbagi": 5974,
      "Ġterpenuhi": 5975,
      "Ġterdampak": 5976,
      "Ġteratas": 5977,
      "apasan": 5978,
      "Ġbergun": 5979,
      "Ġbermi": 5980,
      "Ġberurus": 5981,
      "Ġberbatasan": 5982,
      "Ġberencana": 5983,
      "Ġbersalah": 5984,
      "Ġberisiko": 5985,
      "Ġberalih": 5986,
      "Ġberawal": 5987,
      "oris": 5988,
      "ebak": 5989,
      "ebab": 5990,
      "ebruari": 5991,
      "engen": 5992,
      "ingkan": 5993,
      "ingnya": 5994,
      "inggian": 5995,
      "uth": 5996,
      "uty": 5997,
      "utaan": 5998,
      "utamakan": 5999,
      "usai": 6000,
      "usatan": 6001,
      "usikan": 6002,
      "Ġmemang": 6003,
      "Ġmemul": 6004,
      "Ġmemori": 6005,
      "Ġmemukul": 6006,
      "Ġmemuncak": 6007,
      "Ġmemadam": 6008,
      "Ġmemudah": 6009,
      "Ġmemaksa": 6010,
      "Ġmemegang": 6011,
      "Ġmemanjat": 6012,
      "Ġmemaham": 6013,
      "dih": 6014,
      "dil": 6015,
      "dim": 6016,
      "dion": 6017,
      "diper": 6018,
      "dilaporkan": 6019,
      "gainya": 6020,
      "gawang": 6021,
      "Ġperan": 6022,
      "Ġperas": 6023,
      "Ġperse": 6024,
      "Ġpermen": 6025,
      "Ġpercak": 6026,
      "Ġperekam": 6027,
      "Ġperbelanja": 6028,
      "Ġluk": 6029,
      "Ġlul": 6030,
      "Ġlom": 6031,
      "Ġlans": 6032,
      "Ġlupa": 6033,
      "Ġlimb": 6034,
      "Ġliter": 6035,
      "Ġlepas": 6036,
      "Ġlemah": 6037,
      "Ġlyn": 6038,
      "Ġlebat": 6039,
      "Ġlembaga": 6040,
      "lahkan": 6041,
      "elle": 6042,
      "elomb": 6043,
      "ilir": 6044,
      "iland": 6045,
      "illes": 6046,
      "itor": 6047,
      "itari": 6048,
      "itab": 6049,
      "itahuan": 6050,
      "Ġhk": 6051,
      "Ġhor": 6052,
      "Ġhist": 6053,
      "Ġhadap": 6054,
      "Ġhadi": 6055,
      "Ġhangi": 6056,
      "Ġhook": 6057,
      "Ġhilir": 6058,
      "esim": 6059,
      "esalan": 6060,
      "esaan": 6061,
      "esanan": 6062,
      "onse": 6063,
      "onic": 6064,
      "ure": 6065,
      "urung": 6066,
      "urian": 6067,
      "urunan": 6068,
      "urora": 6069,
      "urvei": 6070,
      "Ġjari": 6071,
      "Ġjel": 6072,
      "Ġjob": 6073,
      "Ġjantung": 6074,
      "Ġjuni": 6075,
      "Ġjemaat": 6076,
      "umb": 6077,
      "umat": 6078,
      "umbu": 6079,
      "Ġmengan": 6080,
      "Ġmengar": 6081,
      "Ġmengel": 6082,
      "Ġmenges": 6083,
      "Ġmengapa": 6084,
      "Ġmengant": 6085,
      "Ġmengaman": 6086,
      "Ġmengob": 6087,
      "Ġmengenc": 6088,
      "Ġmenganda": 6089,
      "Ġmengons": 6090,
      "Ġmengkh": 6091,
      "Ġmengelilingi": 6092,
      "Ġmengizinkan": 6093,
      "Ġmengusulkan": 6094,
      "Ġmengandung": 6095,
      "Ġros": 6096,
      "Ġrog": 6097,
      "Ġrekan": 6098,
      "Ġrelasi": 6099,
      "Ġrerun": 6100,
      "Ġramah": 6101,
      "lambat": 6102,
      "ukakan": 6103,
      "ukup": 6104,
      "Ġinc": 6105,
      "Ġinisi": 6106,
      "Ġindik": 6107,
      "Ġintinya": 6108,
      "Ġintel": 6109,
      "Ġinvasi": 6110,
      "ide": 6111,
      "ides": 6112,
      "idetik": 6113,
      "Ġunit": 6114,
      "Ġunsur": 6115,
      "olan": 6116,
      "ollo": 6117,
      "olisian": 6118,
      "bai": 6119,
      "bala": 6120,
      "bagai": 6121,
      "tier": 6122,
      "tiga": 6123,
      "timb": 6124,
      "jaan": 6125,
      "ulat": 6126,
      "uling": 6127,
      "Ġcm": 6128,
      "Ġcer": 6129,
      "Ġcair": 6130,
      "Ġcook": 6131,
      "Ġcitra": 6132,
      "Ġciri": 6133,
      "ways": 6134,
      "wazaki": 6135,
      "Ġav": 6136,
      "Ġabu": 6137,
      "Ġalami": 6138,
      "Ġayah": 6139,
      "Ġacta": 6140,
      "Ġaurora": 6141,
      "Ġno": 6142,
      "Ġnam": 6143,
      "Ġnap": 6144,
      "Ġnep": 6145,
      "Ġnati": 6146,
      "Ġnag": 6147,
      "Ġnamanya": 6148,
      "Ġnick": 6149,
      "Ġnetr": 6150,
      "Ġnotasi": 6151,
      "Ġngara": 6152,
      "Ġngawang": 6153,
      "imut": 6154,
      "imanya": 6155,
      "Ġlajunya": 6156,
      "pern": 6157,
      "peraih": 6158,
      "Ġmerpat": 6159,
      "Ġmerendah": 6160,
      "Ġmerilis": 6161,
      "Ġmerencanakan": 6162,
      "Ġmerepresentasikan": 6163,
      "Ġmerasakan": 6164,
      "Ġadam": 6165,
      "Ġanti": 6166,
      "Ġansa": 6167,
      "Ġanna": 6168,
      "Ġanalisis": 6169,
      "Ġpener": 6170,
      "Ġpenya": 6171,
      "Ġpenemb": 6172,
      "Ġpenop": 6173,
      "Ġpenju": 6174,
      "Ġpenuntutan": 6175,
      "Ġpenonton": 6176,
      "Ġpenelant": 6177,
      "Ġpenegak": 6178,
      "Ġpenurunan": 6179,
      "otongan": 6180,
      "oteno": 6181,
      "eladus": 6182,
      "Ġgil": 6183,
      "Ġgamp": 6184,
      "Ġgord": 6185,
      "Ġgps": 6186,
      "Ġganas": 6187,
      "Ġghr": 6188,
      "Ġgmt": 6189,
      "Ġgelomb": 6190,
      "sium": 6191,
      "siapa": 6192,
      "ompat": 6193,
      "omosi": 6194,
      "egan": 6195,
      "Ġsabar": 6196,
      "Ġsabuk": 6197,
      "Ġbaja": 6198,
      "Ġback": 6199,
      "ebihi": 6200,
      "buahan": 6201,
      "buqu": 6202,
      "budd": 6203,
      "aib": 6204,
      "Ġdalamnya": 6205,
      "Ġfe": 6206,
      "Ġfi": 6207,
      "Ġfer": 6208,
      "Ġfitu": 6209,
      "Ġfic": 6210,
      "Ġfron": 6211,
      "Ġfirm": 6212,
      "Ġflorida": 6213,
      "Ġfonse": 6214,
      "ukannya": 6215,
      "okr": 6216,
      "oksi": 6217,
      "itual": 6218,
      "lujah": 6219,
      "Ġwin": 6220,
      "Ġwest": 6221,
      "Ġwakil": 6222,
      "Ġprasangka": 6223,
      "Ġpengangk": 6224,
      "Ġpengac": 6225,
      "Ġpenggus": 6226,
      "Ġpengembangan": 6227,
      "Ġpenguasa": 6228,
      "Ġpengujung": 6229,
      "Ġpengukur": 6230,
      "Ġpengumpulan": 6231,
      "Ġpenglihatan": 6232,
      "Ġpengawas": 6233,
      "Ġpengasuhan": 6234,
      "ephen": 6235,
      "Ġtahapan": 6236,
      "apabila": 6237,
      "osm": 6238,
      "oskopi": 6239,
      "isipkan": 6240,
      "tric": 6241,
      "trans": 6242,
      "truktur": 6243,
      "atuan": 6244,
      "Ġsebagainya": 6245,
      "Ġseratus": 6246,
      "Ġserbuan": 6247,
      "Ġserangkaian": 6248,
      "terutama": 6249,
      "terkadang": 6250,
      "opir": 6251,
      "opia": 6252,
      "Ġmembebaskan": 6253,
      "andra": 6254,
      "Ġpemr": 6255,
      "Ġpemu": 6256,
      "Ġpemad": 6257,
      "Ġpemungutan": 6258,
      "Ġpemegang": 6259,
      "Ġpemusatan": 6260,
      "Ġpemesanan": 6261,
      "Ġpemotongan": 6262,
      "alion": 6263,
      "alifikasi": 6264,
      "Ġmenye": 6265,
      "Ġmenyimp": 6266,
      "Ġmenyelam": 6267,
      "Ġmenyembun": 6268,
      "entingan": 6269,
      "Ġmenjadikannya": 6270,
      "Ġbarangk": 6271,
      "ĠbarÃ£": 6272,
      "angganya": 6273,
      "rawa": 6274,
      "sack": 6275,
      "safari": 6276,
      "sailles": 6277,
      "Ġkemajuan": 6278,
      "Ġ27": 6279,
      "Ġseleksi": 6280,
      "Ġselimut": 6281,
      "rich": 6282,
      "ribadi": 6283,
      "ribuan": 6284,
      "Ġsemalaman": 6285,
      "Ġsemesta": 6286,
      "Ġmelemah": 6287,
      "Ġmelanggar": 6288,
      "Ġmelempar": 6289,
      "Ġmeluncurkan": 6290,
      "Ġmelipat": 6291,
      "Ġmelompat": 6292,
      "Ġmelebihi": 6293,
      "sejauh": 6294,
      "sedimen": 6295,
      "seusai": 6296,
      "angko": 6297,
      "Ġaktiv": 6298,
      "Ġakuari": 6299,
      "Ġkaroteno": 6300,
      "Ġatap": 6301,
      "antep": 6302,
      "antark": 6303,
      "ipi": 6304,
      "ipulasi": 6305,
      "Ġmelacak": 6306,
      "Ġversi": 6307,
      "Ġasalnya": 6308,
      "Ġsetahun": 6309,
      "awak": 6310,
      "Ġtempatnya": 6311,
      "Ġberboh": 6312,
      "Ġberbulu": 6313,
      "Ġberbentuk": 6314,
      "Ġmencemaskan": 6315,
      "Ġsuasana": 6316,
      "Ġkeran": 6317,
      "Ġarya": 6318,
      "Ġarteri": 6319,
      "intesis": 6320,
      "abdr": 6321,
      "Ġsenang": 6322,
      "Ġsenyap": 6323,
      "Ġseniman": 6324,
      "Ġsenjata": 6325,
      "Ġkonfer": 6326,
      "Ġsebanding": 6327,
      "Ġsebaliknya": 6328,
      "Ġseberapa": 6329,
      "ambah": 6330,
      "ambut": 6331,
      "ambers": 6332,
      "odin": 6333,
      "pau": 6334,
      "lakuan": 6335,
      "obi": 6336,
      "Ġmusiknya": 6337,
      "Ġberkas": 6338,
      "Ġdikembangkan": 6339,
      "Ġdiklaim": 6340,
      "Ġmenghentikan": 6341,
      "endus": 6342,
      "Ġdibakar": 6343,
      "Ġdibersihkan": 6344,
      "Ġditolak": 6345,
      "Ġditampilkan": 6346,
      "Ġditambang": 6347,
      "Ġditelant": 6348,
      "Ġditinjau": 6349,
      "ewart": 6350,
      "Ġmemperkirakan": 6351,
      "Ġmemperpanjang": 6352,
      "Ġmemperlambat": 6353,
      "Ġmendaki": 6354,
      "Ġmenderita": 6355,
      "Ġmendoza": 6356,
      "Ġdunlap": 6357,
      "Ġmad": 6358,
      "Ġmaj": 6359,
      "Ġmau": 6360,
      "Ġmayat": 6361,
      "Ġmaaf": 6362,
      "Ġmasyh": 6363,
      "Ġantar": 6364,
      "penjar": 6365,
      "Ġharimau": 6366,
      "Ġkebangkit": 6367,
      "cher": 6368,
      "chman": 6369,
      "charles": 6370,
      "chambers": 6371,
      "Ġkue": 6372,
      "Ġketinggian": 6373,
      "Ġlucu": 6374,
      "Ġalkohol": 6375,
      "Ġalbuqu": 6376,
      "Ġoha": 6377,
      "Ġolaf": 6378,
      "Ġpasang": 6379,
      "Ġdipindahkan": 6380,
      "Ġdipaksa": 6381,
      "Ġpenyutrad": 6382,
      "Ġsangatlah": 6383,
      "uji": 6384,
      "Ġrautan": 6385,
      "Ġraonic": 6386,
      "Ġspont": 6387,
      "amerah": 6388,
      "Ġkesimpulan": 6389,
      "Ġpelataran": 6390,
      "Ġagresi": 6391,
      "maskapai": 6392,
      "Ġliburan": 6393,
      "ecahan": 6394,
      "Ġdiadopsi": 6395,
      "Ġsepak": 6396,
      "Ġseparuh": 6397,
      "Ġmenggunakannya": 6398,
      "Ġintervensi": 6399,
      "Ġbencana": 6400,
      "Ġbennet": 6401,
      "Ġdisusun": 6402,
      "Ġdisorot": 6403,
      "Ġdisimpan": 6404,
      "Ġdiskon": 6405,
      "Ġdisurvei": 6406,
      "Ġdisisipkan": 6407,
      "Ġmengawasi": 6408,
      "lie": 6409,
      "Ġmakis": 6410,
      "Ġmiliknya": 6411,
      "Ġmiller": 6412,
      "Ġmilidetik": 6413,
      "Ġpembentukan": 6414,
      "Ġpembunuhan": 6415,
      "Ġsehat": 6416,
      "Ġ39": 6417,
      "Ġstop": 6418,
      "Ġstephen": 6419,
      "Ġpendanaan": 6420,
      "bane": 6421,
      "Ġtrump": 6422,
      "Ġtroto": 6423,
      "Ġtreas": 6424,
      "Ġapril": 6425,
      "Ġapollo": 6426,
      "Ġpacu": 6427,
      "Ġ198": 6428,
      "evideo": 6429,
      "Ġgajah": 6430,
      "Ġgazi": 6431,
      "empuh": 6432,
      "Ġberlatih": 6433,
      "turki": 6434,
      "Ġkekurangan": 6435,
      "Ġkekerasan": 6436,
      "oca": 6437,
      "Ġparo": 6438,
      "Ġparodi": 6439,
      "Ġpartikel": 6440,
      "Ġparasit": 6441,
      "Ġberspek": 6442,
      "Ġperangai": 6443,
      "berbagai": 6444,
      "icipi": 6445,
      "Ġekstern": 6446,
      "meny": 6447,
      "Ġmetrik": 6448,
      "Ġkasur": 6449,
      "Ġkashi": 6450,
      "Ġkastany": 6451,
      "Ġberteduh": 6452,
      "badya": 6453,
      "Ġzat": 6454,
      "Ġzait": 6455,
      "Ġziarah": 6456,
      "Ġdipercaya": 6457,
      "Ġdiperkenalkan": 6458,
      "Ġdipersemb": 6459,
      "Ġlokalnya": 6460,
      "erna": 6461,
      "Ġpesan": 6462,
      "Ġgro": 6463,
      "Ġisu": 6464,
      "Ġisyarat": 6465,
      "Ġterputus": 6466,
      "Ġterpecah": 6467,
      "Ġresolusi": 6468,
      "Ġrespons": 6469,
      "agama": 6470,
      "Ġmanfa": 6471,
      "Ġmei": 6472,
      "Ġchase": 6473,
      "Ġcharlotte": 6474,
      "Ġchatham": 6475,
      "Ġchandra": 6476,
      "Ġpanel": 6477,
      "Ġpanama": 6478,
      "media": 6479,
      "panama": 6480,
      "Ġtakutkan": 6481,
      "Ġ2000": 6482,
      "Ġkonsisten": 6483,
      "adat": 6484,
      "aduk": 6485,
      "adegan": 6486,
      "Ġkruger": 6487,
      "Ġkroasia": 6488,
      "Ġkelembapan": 6489,
      "Ġkelebihan": 6490,
      "Ġberhati": 6491,
      "Ġberhubungan": 6492,
      "Ġmenyebarkan": 6493,
      "penggunakan": 6494,
      "pengunjuk": 6495,
      "pengucapan": 6496,
      "pengumuman": 6497,
      "Ġsix": 6498,
      "Ġsibuk": 6499,
      "Ġ45": 6500,
      "Ġotonomi": 6501,
      "Ġtersangkut": 6502,
      "Ġtersendiri": 6503,
      "Ġgundukan": 6504,
      "formasi": 6505,
      "Ġdaru": 6506,
      "Ġmars": 6507,
      "Ġmarta": 6508,
      "Ġmarmer": 6509,
      "Ġmartel": 6510,
      "Ġtertinggal": 6511,
      "Ġtertidur": 6512,
      "uduki": 6513,
      "Ġsedikitnya": 6514,
      "Ġminoritas": 6515,
      "Ġkala": 6516,
      "Ġkalah": 6517,
      "Ġkayak": 6518,
      "Ġsayapnya": 6519,
      "Ġdemokrasi": 6520,
      "Ġmanagem": 6521,
      "Ġkepolisian": 6522,
      "Ġkepentingan": 6523,
      "Ġnasionalisme": 6524,
      "Ġtransformasi": 6525,
      "Ġmakanannya": 6526,
      "leus": 6527,
      "Ġkatup": 6528,
      "Ġkatanya": 6529,
      "Ġ2015": 6530,
      "Ġberpart": 6531,
      "Ġdilarang": 6532,
      "Ġdilewati": 6533,
      "ftir": 6534,
      "Ġeston": 6535,
      "Ġestetika": 6536,
      "Ġsky": 6537,
      "Ġskenario": 6538,
      "Ġjumlahnya": 6539,
      "Ġspesialis": 6540,
      "Ġkundal": 6541,
      "Ġdeuts": 6542,
      "Ġaustralop": 6543,
      "Ġpopulernya": 6544,
      "ofis": 6545,
      "yataannya": 6546,
      "Ġtanggung": 6547,
      "Ġtanggul": 6548,
      "Ġdihormati": 6549,
      "Ġdihancurkan": 6550,
      "Ġdiharapkan": 6551,
      "Ġmedec": 6552,
      "Ġpetros": 6553,
      "Ġbeijing": 6554,
      "Ġmengenakan": 6555,
      "Ġmengendali": 6556,
      "Ġroti": 6557,
      "Ġrooki": 6558,
      "Ġsekalipun": 6559,
      "darinya": 6560,
      "Ġsakitnya": 6561,
      "Ġmemasang": 6562,
      "oteles": 6563,
      "anggaplah": 6564,
      "jaringan": 6565,
      "Ġdilayani": 6566,
      "Ġdilafalkan": 6567,
      "Ġvirgin": 6568,
      "igata": 6569,
      "Ġbusur": 6570,
      "institu": 6571,
      "Ġdicerna": 6572,
      "Ġsebabnya": 6573,
      "Ġbentuknya": 6574,
      "hey": 6575,
      "ijan": 6576,
      "Ġdahsyat": 6577,
      "ardust": 6578,
      "Ġpiring": 6579,
      "Ġtambah": 6580,
      "Ġmenyamp": 6581,
      "Ġmenyadarinya": 6582,
      "Ġrex": 6583,
      "Ġreaksi": 6584,
      "Ġrealitas": 6585,
      "Ġreaktor": 6586,
      "Ġadat": 6587,
      "kerta": 6588,
      "Ġ83": 6589,
      "Ġditujukan": 6590,
      "Ġdituduh": 6591,
      "Ġbalai": 6592,
      "Ġpresisi": 6593,
      "loitasi": 6594,
      "Ġstrateg": 6595,
      "Ġ150": 6596,
      "Ġshyam": 6597,
      "Ġterjatuh": 6598,
      "Ġpergilah": 6599,
      "Ġinstitusi": 6600,
      "Ġinsinyur": 6601,
      "Ġwarna": 6602,
      "Ġkerusuhan": 6603,
      "Ġputra": 6604,
      "Ġbatalion": 6605,
      "Ġbincang": 6606,
      "Ġbunyi": 6607,
      "Ġtuberkul": 6608,
      "Ġditerbitkan": 6609,
      "Ġditerimanya": 6610,
      "Ġmenjalin": 6611,
      "Ġindus": 6612,
      "ubungi": 6613,
      "Ġpenduduknya": 6614,
      "telepon": 6615,
      "Ġlampau": 6616,
      "Ġpelacakan": 6617,
      "Ġterguling": 6618,
      "Ġprioritas": 6619,
      "Ġ168": 6620,
      "penyedia": 6621,
      "penyebab": 6622,
      "ouval": 6623,
      "Ġirlandia": 6624,
      "Ġwajib": 6625,
      "Ġpotongan": 6626,
      "Ġtikungan": 6627,
      "Ġcontohnya": 6628,
      "Ġmoll": 6629,
      "Ġtema": 6630,
      "Ġtembaga": 6631,
      "ematografi": 6632,
      "umacher": 6633,
      "Ġmenginfeksi": 6634,
      "buku": 6635,
      "kualitas": 6636,
      "wisatawan": 6637,
      "Ġ78": 6638,
      "Ġpanggang": 6639,
      "Ġbeban": 6640,
      "Ġbebatuan": 6641,
      "Ġlogistik": 6642,
      "selanjutnya": 6643,
      "Ġusang": 6644,
      "Ġusoc": 6645,
      "Ġgibson": 6646,
      "Ġkacanya": 6647,
      "aktikkan": 6648,
      "Ġkepadatan": 6649,
      "enggelam": 6650,
      "pencarian": 6651,
      "Ġ1990": 6652,
      "Ġ1994": 6653,
      "sekarang": 6654,
      "Ġsikap": 6655,
      "Ġsiklus": 6656,
      "Ġsiklon": 6657,
      "Ġpatologi": 6658,
      "Ġtetamu": 6659,
      "Ġtetangganya": 6660,
      "Ġtipe": 6661,
      "Ġselamat": 6662,
      "Ġmempraktikkan": 6663,
      "Ġnordik": 6664,
      "Ġpenjara": 6665,
      "Ġpemilik": 6666,
      "Ġpertunjukannya": 6667,
      "Ġistiadat": 6668,
      "kemungkinan": 6669,
      "Ġbatuan": 6670,
      "Ġtercip": 6671,
      "Ġtercepat": 6672,
      "Ġmengganggu": 6673,
      "Ġmenggambarkan": 6674,
      "Ġgambaran": 6675,
      "Ġpenghasilan": 6676,
      "Ġpenghapus": 6677,
      "Ġkontrak": 6678,
      "Ġkantornya": 6679,
      "ezuela": 6680,
      "komisaris": 6681,
      "minisme": 6682,
      "rosoft": 6683,
      "Ġamino": 6684,
      "Ġamster": 6685,
      "Ġedukasi": 6686,
      "Ġedinburgh": 6687,
      "Ġedison": 6688,
      "Ġsaku": 6689,
      "Ġsakti": 6690,
      "Ġkristus": 6691,
      "Ġketujuh": 6692,
      "Ġketularan": 6693,
      "Ġgolf": 6694,
      "Ġmeledakkan": 6695,
      "kru": 6696,
      "lopoulos": 6697,
      "Ġmotiv": 6698,
      "Ġmozamb": 6699,
      "Ġsinematografi": 6700,
      "Ġschneider": 6701,
      "Ġschengen": 6702,
      "Ġbotol": 6703,
      "Ġtegangan": 6704,
      "Ġkamis": 6705,
      "Ġdijuluki": 6706,
      "Ġmenakjub": 6707,
      "Ġbernilai": 6708,
      "Ġberniat": 6709,
      "tipik": 6710,
      "Ġcobalah": 6711,
      "Ġniigata": 6712,
      "Ġgrafik": 6713,
      "Ġfinlandia": 6714,
      "Ġpembayaran": 6715,
      "Ġ1960": 6716,
      "Ġsukar": 6717,
      "Ġkotor": 6718,
      "Ġkabar": 6719,
      "Ġkabur": 6720,
      "Ġperpecahan": 6721,
      "Ġlubuk": 6722,
      "Ġguardian": 6723,
      "Ġdiplomat": 6724,
      "Ġkonservasi": 6725,
      "cakra": 6726,
      "Ġwawasan": 6727,
      "Ġepik": 6728,
      "antafy": 6729,
      "Ġmulti": 6730,
      "entian": 6731,
      "Ġbeauty": 6732,
      "ategi": 6733,
      "Ġtebal": 6734,
      "Ġtumpuan": 6735,
      "Ġkesabaran": 6736,
      "Ġberlayar": 6737,
      "Ġberlalunya": 6738,
      "Ġhitungan": 6739,
      "Ġprofesor": 6740,
      "Ġmendesain": 6741,
      "Ġ403": 6742,
      "Ġrutinitas": 6743,
      "kebijakan": 6744,
      "kecepatan": 6745,
      "Ġeast": 6746,
      "Ġiklan": 6747,
      "Ġplum": 6748,
      "Ġtembak": 6749,
      "Ġdirayakan": 6750,
      "Ġmenangis": 6751,
      "Ġhier": 6752,
      "Ġfavorit": 6753,
      "Ġfrank": 6754,
      "Ġkaryawisata": 6755,
      "Ġargot": 6756,
      "Ġditempatkan": 6757,
      "Ġalpha": 6758,
      "Ġpelanggaran": 6759,
      "Ġeksperimental": 6760,
      "Ġkemenangannya": 6761,
      "108": 6762,
      "jatuhan": 6763,
      "piramida": 6764,
      "ynn": 6765,
      "Ġmisso": 6766,
      "Ġsengit": 6767,
      "Ġtriantafy": 6768,
      "Ġkolam": 6769,
      "Ġkariwa": 6770,
      "Ġhilangnya": 6771,
      "Ġcoaster": 6772,
      "Ġlayaknya": 6773,
      "Ġgarasi": 6774,
      "Ġkeraknya": 6775,
      "Ġkompetisi": 6776,
      "Ġkompetitor": 6777,
      "Ġwaspadalah": 6778,
      "foton": 6779,
      "fotografi": 6780,
      "nominasi": 6781,
      "spesi": 6782,
      "strom": 6783,
      "struktur": 6784,
      "Ġunggul": 6785,
      "Ġmossack": 6786,
      "Ġpedesaan": 6787,
      "Ġtingkatan": 6788,
      "Ġkostum": 6789,
      "Ġdisiarkan": 6790,
      "Ġmenjabat": 6791,
      "Ġmenjalankan": 6792,
      "etrika": 6793,
      "Ġroket": 6794,
      "Ġcatatan": 6795,
      "Ġlakkha": 6796,
      "Ġpenulisannya": 6797,
      "ommy": 6798,
      "Ġsabtu": 6799,
      "Ġfallujah": 6800,
      "Ġprimitif": 6801,
      "Ġvenezuela": 6802,
      "Ġaristokrasi": 6803,
      "Ġpenyewa": 6804,
      "Ġstanley": 6805,
      "Ġstanford": 6806,
      "berkat": 6807,
      "berkeliling": 6808,
      "Ġchili": 6809,
      "ctv": 6810,
      "vidal": 6811,
      "Ġqing": 6812,
      "Ġonion": 6813,
      "Ġdelegasi": 6814,
      "Ġsastra": 6815,
      "Ġthom": 6816,
      "Ġherostr": 6817,
      "Ġjinnya": 6818,
      "Ġmengasuh": 6819,
      "embunyi": 6820,
      "Ġversailles": 6821,
      "Ġmemperluasnya": 6822,
      "Ġ1959": 6823,
      "Ġargentina": 6824,
      "Ġargentine": 6825,
      "Ġblacks": 6826,
      "begitu": 6827,
      "contohnya": 6828,
      "disebut": 6829,
      "konsep": 6830,
      "mapp": 6831,
      "sultan": 6832,
      "Ġiphone": 6833,
      "erensikan": 6834,
      "Ġdaging": 6835,
      "Ġbaltik": 6836,
      "Ġblokade": 6837,
      "Ġtonle": 6838,
      "Ġkubis": 6839,
      "Ġmenemui": 6840,
      "Ġtermometer": 6841,
      "dibangun": 6842,
      "Ġlengannya": 6843,
      "Ġhenry": 6844,
      "ekrut": 6845,
      "Ġmengemukakan": 6846,
      "Ġcipta": 6847,
      "permukaan": 6848,
      "sebelumnya": 6849,
      "Ġprivasi": 6850,
      "Ġpengelomp": 6851,
      "Ġpengamannya": 6852,
      "terlepas": 6853,
      "Ġmenyentuh": 6854,
      "Ġkerabat": 6855,
      "Ġharvard": 6856,
      "Ġspektroskopi": 6857,
      "Ġmiliar": 6858,
      "Ġorisinalitas": 6859,
      "Ġsubsisten": 6860,
      "Ġlegisl": 6861,
      "Ġkontrasepsi": 6862,
      "boat": 6863,
      "desain": 6864,
      "kursus": 6865,
      "nhk": 6866,
      "Ġdenmark": 6867,
      "Ġmicrosoft": 6868,
      "Ġsiluman": 6869,
      "Ġsantapan": 6870,
      "Ġpantas": 6871,
      "Ġtamas": 6872,
      "Ġtempel": 6873,
      "Ġthailand": 6874,
      "Ġkamboja": 6875,
      "Ġperhentian": 6876,
      "Ġhiburan": 6877,
      "Ġrasio": 6878,
      "Ġinframerah": 6879,
      "Ġazerba": 6880,
      "Ġmereferensikan": 6881,
      "Ġpenakluk": 6882,
      "Ġgurun": 6883,
      "Ġfatamorg": 6884,
      "Ġsteve": 6885,
      "Ġzhabdr": 6886,
      "Ġdipertunjukkan": 6887,
      "Ġdihias": 6888,
      "Ġfotosintesis": 6889,
      "Ġfilosofi": 6890,
      "Ġfrancisco": 6891,
      "bincang": 6892,
      "hsieh": 6893,
      "kelembapan": 6894,
      "kementerian": 6895,
      "komposisi": 6896,
      "kucing": 6897,
      "manaj": 6898,
      "pemberitahuan": 6899,
      "robert": 6900,
      "teknologi": 6901,
      "zoungla": 6902,
      "Ġimajinasi": 6903,
      "Ġdamadian": 6904,
      "Ġdorongan": 6905,
      "Ġdeterminisme": 6906,
      "Ġmantouval": 6907,
      "Ġmeksiko": 6908,
      "Ġmahayana": 6909,
      "Ġmarianas": 6910,
      "Ġsoket": 6911,
      "Ġsambungan": 6912,
      "Ġsimpsons": 6913,
      "Ġsimbolis": 6914,
      "Ġsutradara": 6915,
      "Ġpahatan": 6916,
      "Ġpapers": 6917,
      "Ġpangkalan": 6918,
      "Ġpewaris": 6919,
      "Ġplasma": 6920,
      "Ġpublikasi": 6921,
      "Ġpunggung": 6922,
      "Ġpucat": 6923,
      "Ġbuaya": 6924,
      "Ġbubuk": 6925,
      "Ġbrisbane": 6926,
      "Ġbooking": 6927,
      "Ġborealis": 6928,
      "Ġtingginya": 6929,
      "Ġkakinya": 6930,
      "Ġkengerian": 6931,
      "Ġkuliah": 6932,
      "Ġditukar": 6933,
      "Ġdiarahkan": 6934,
      "Ġdiaktifkan": 6935,
      "Ġdiucapkan": 6936,
      "Ġmenembus": 6937,
      "Ġmenandinginya": 6938,
      "Ġsevilla": 6939,
      "amodern": 6940,
      "Ġkelahiran": 6941,
      "Ġkeanggotaan": 6942,
      "Ġkeajaiban": 6943,
      "Ġterperinci": 6944,
      "Ġterluar": 6945,
      "Ġtertera": 6946,
      "Ġberguna": 6947,
      "Ġbermigrasi": 6948,
      "Ġberurusan": 6949,
      "Ġmemadamkan": 6950,
      "Ġmemudahkan": 6951,
      "Ġmemahaminya": 6952,
      "Ġpercakapan": 6953,
      "Ġperbelanjaan": 6954,
      "Ġlukisan": 6955,
      "Ġlulus": 6956,
      "Ġlomba": 6957,
      "Ġlimbah": 6958,
      "Ġliteratur": 6959,
      "Ġhistoris": 6960,
      "Ġhadapan": 6961,
      "Ġhadiah": 6962,
      "esimen": 6963,
      "Ġjobs": 6964,
      "Ġmengamankan": 6965,
      "Ġmengobati": 6966,
      "Ġmengencangkan": 6967,
      "Ġmengandalkan": 6968,
      "Ġmengonsumsi": 6969,
      "Ġross": 6970,
      "Ġreruntuhan": 6971,
      "Ġinisiatif": 6972,
      "Ġindikator": 6973,
      "Ġayahnya": 6974,
      "Ġnepal": 6975,
      "Ġnational": 6976,
      "Ġnicklas": 6977,
      "Ġnetral": 6978,
      "Ġngarai": 6979,
      "Ġmerpati": 6980,
      "Ġpenembakan": 6981,
      "Ġpenopang": 6982,
      "Ġpenjualan": 6983,
      "Ġpenelantaran": 6984,
      "Ġgampang": 6985,
      "Ġgordon": 6986,
      "Ġghraib": 6987,
      "Ġgelombang": 6988,
      "omosikan": 6989,
      "Ġbackstrom": 6990,
      "buddhisme": 6991,
      "Ġfitur": 6992,
      "Ġfrontier": 6993,
      "Ġfirma": 6994,
      "Ġfonseca": 6995,
      "Ġpengangkutan": 6996,
      "Ġpengacaranya": 6997,
      "Ġpenggusuran": 6998,
      "Ġpemaduan": 6999,
      "Ġmenyimpulkan": 7000,
      "Ġmenyelamatkan": 7001,
      "Ġmenyembunyikan": 7002,
      "Ġbarangkali": 7003,
      "Ġaktivis": 7004,
      "Ġakuarium": 7005,
      "Ġkarotenoid": 7006,
      "antarktika": 7007,
      "Ġberbohong": 7008,
      "Ġkonferensi": 7009,
      "Ġditelantarkan": 7010,
      "penjarahan": 7011,
      "Ġkebangkitan": 7012,
      "chmann": 7013,
      "Ġalbuquerque": 7014,
      "Ġpenyutradaraan": 7015,
      "Ġspontan": 7016,
      "Ġagresif": 7017,
      "Ġdisorotkan": 7018,
      "Ġtrotoar": 7019,
      "Ġtreasure": 7020,
      "Ġgaziantep": 7021,
      "Ġberspekulasi": 7022,
      "Ġeksternal": 7023,
      "Ġkashiwazaki": 7024,
      "Ġkastanye": 7025,
      "Ġzaitun": 7026,
      "Ġdipersembahkan": 7027,
      "Ġmanfaat": 7028,
      "Ġmartelly": 7029,
      "Ġmanagement": 7030,
      "Ġberpartisipasi": 7031,
      "Ġestonia": 7032,
      "Ġkundalini": 7033,
      "Ġdeutsche": 7034,
      "Ġaustralopith": 7035,
      "Ġmengendalikan": 7036,
      "Ġrookie": 7037,
      "Ġvirginia": 7038,
      "institut": 7039,
      "Ġmenyampaikan": 7040,
      "Ġstrategis": 7041,
      "Ġtuberkulosis": 7042,
      "enggelamkan": 7043,
      "Ġpenghapusan": 7044,
      "Ġamsterdam": 7045,
      "Ġmozambik": 7046,
      "Ġmenakjubkan": 7047,
      "Ġmissouri": 7048,
      "Ġtriantafylopoulos": 7049,
      "Ġherostratus": 7050,
      "Ġazerbaijan": 7051,
      "Ġfatamorgana": 7052,
      "Ġzhabdrung": 7053,
      "Ġmantouvalos": 7054,
      "\":": 7055,
      "',": 7056,
      ");": 7057,
      ").\"": 7058,
      ",âĢ": 7059,
      "--": 7060,
      ".'": 7061,
      ".)": 7062,
      "02": 7063,
      "14": 7064,
      "17": 7065,
      "1000": 7066,
      "189": 7067,
      "21": 7068,
      "29": 7069,
      "250": 7070,
      "31": 7071,
      "37": 7072,
      "44": 7073,
      "49": 7074,
      "62": 7075,
      "67": 7076,
      "72": 7077,
      "850": 7078,
      "91": 7079,
      "96": 7080,
      "980": 7081,
      "aer": 7082,
      "ael": 7083,
      "awa": 7084,
      "adik": 7085,
      "ajar": 7086,
      "avi": 7087,
      "aingnya": 7088,
      "bb": 7089,
      "bak": 7090,
      "bal": 7091,
      "btu": 7092,
      "band": 7093,
      "bend": 7094,
      "bekerja": 7095,
      "bangkan": 7096,
      "bentuk": 7097,
      "belajar": 7098,
      "bukaan": 7099,
      "bangunan": 7100,
      "balik": 7101,
      "bintang": 7102,
      "blok": 7103,
      "bodi": 7104,
      "bolehkan": 7105,
      "bentangan": 7106,
      "bantalan": 7107,
      "betul": 7108,
      "cf": 7109,
      "cs": 7110,
      "cy": 7111,
      "car": 7112,
      "cal": 7113,
      "cek": 7114,
      "cons": 7115,
      "cle": 7116,
      "cker": 7117,
      "cou": 7118,
      "cuma": 7119,
      "cone": 7120,
      "cuti": 7121,
      "cokelat": 7122,
      "cci": 7123,
      "comm": 7124,
      "casablanca": 7125,
      "cetakan": 7126,
      "coret": 7127,
      "cctv": 7128,
      "db": 7129,
      "do": 7130,
      "dp": 7131,
      "du": 7132,
      "dem": 7133,
      "deb": 7134,
      "dangan": 7135,
      "dew": 7136,
      "dera": 7137,
      "doga": 7138,
      "dys": 7139,
      "delapan": 7140,
      "dektur": 7141,
      "dinding": 7142,
      "dley": 7143,
      "deretan": 7144,
      "demi": 7145,
      "ey": 7146,
      "ega": 7147,
      "eon": 7148,
      "eers": 7149,
      "eori": 7150,
      "eologi": 7151,
      "ewaan": 7152,
      "eux": 7153,
      "fe": 7154,
      "fas": 7155,
      "for": 7156,
      "fing": 7157,
      "fel": 7158,
      "fur": 7159,
      "fet": 7160,
      "fia": 7161,
      "flu": 7162,
      "fers": 7163,
      "fisme": 7164,
      "fiah": 7165,
      "fasilitas": 7166,
      "faktor": 7167,
      "festival": 7168,
      "fenomena": 7169,
      "fice": 7170,
      "gg": 7171,
      "gp": 7172,
      "gy": 7173,
      "gap": 7174,
      "get": 7175,
      "gung": 7176,
      "gukan": 7177,
      "gati": 7178,
      "gamb": 7179,
      "gami": 7180,
      "gapan": 7181,
      "gurat": 7182,
      "gram": 7183,
      "garia": 7184,
      "gangguan": 7185,
      "gelapan": 7186,
      "gate": 7187,
      "gejala": 7188,
      "gubernur": 7189,
      "goma": 7190,
      "glet": 7191,
      "gitari": 7192,
      "hu": 7193,
      "hes": 7194,
      "hama": 7195,
      "hamp": 7196,
      "hta": 7197,
      "hch": 7198,
      "hidup": 7199,
      "halaman": 7200,
      "hangi": 7201,
      "harap": 7202,
      "hadir": 7203,
      "hujan": 7204,
      "haiti": 7205,
      "hususkan": 7206,
      "iÃ": 7207,
      "ier": 7208,
      "iun": 7209,
      "ida": 7210,
      "iya": 7211,
      "ior": 7212,
      "iakan": 7213,
      "ium": 7214,
      "igi": 7215,
      "jo": 7216,
      "jil": 7217,
      "jol": 7218,
      "jarkan": 7219,
      "joh": 7220,
      "jinan": 7221,
      "juru": 7222,
      "jalur": 7223,
      "jesus": 7224,
      "jebak": 7225,
      "ke": 7226,
      "kun": 7227,
      "kari": 7228,
      "kali": 7229,
      "kamb": 7230,
      "kelas": 7231,
      "kera": 7232,
      "kelu": 7233,
      "ketu": 7234,
      "kura": 7235,
      "kira": 7236,
      "kolon": 7237,
      "kacam": 7238,
      "klaim": 7239,
      "korban": 7240,
      "kelok": 7241,
      "kuts": 7242,
      "kombinasi": 7243,
      "klien": 7244,
      "kitab": 7245,
      "lr": 7246,
      "lem": 7247,
      "lor": 7248,
      "lari": 7249,
      "lara": 7250,
      "lebih": 7251,
      "lemb": 7252,
      "los": 7253,
      "lant": 7254,
      "lind": 7255,
      "lman": 7256,
      "lima": 7257,
      "luka": 7258,
      "lard": 7259,
      "langit": 7260,
      "lkannya": 7261,
      "line": 7262,
      "late": 7263,
      "langkah": 7264,
      "lelaki": 7265,
      "legel": 7266,
      "lsw": 7267,
      "lodin": 7268,
      "mr": 7269,
      "ms": 7270,
      "mu": 7271,
      "my": 7272,
      "mik": 7273,
      "mur": 7274,
      "mir": 7275,
      "mia": 7276,
      "mong": 7277,
      "mri": 7278,
      "minya": 7279,
      "mist": 7280,
      "mobil": 7281,
      "masih": 7282,
      "muncul": 7283,
      "mbukan": 7284,
      "mutasi": 7285,
      "mline": 7286,
      "ng": 7287,
      "no": 7288,
      "ny": 7289,
      "nal": 7290,
      "nel": 7291,
      "nek": 7292,
      "nba": 7293,
      "nanya": 7294,
      "new": 7295,
      "natur": 7296,
      "nasti": 7297,
      "normal": 7298,
      "natal": 7299,
      "nasium": 7300,
      "nmr": 7301,
      "oo": 7302,
      "oz": 7303,
      "oya": 7304,
      "ood": 7305,
      "oud": 7306,
      "och": 7307,
      "olas": 7308,
      "olamin": 7309,
      "oque": 7310,
      "oyapock": 7311,
      "ph": 7312,
      "pw": 7313,
      "par": 7314,
      "pal": 7315,
      "pel": 7316,
      "pot": 7317,
      "pela": 7318,
      "pukan": 7319,
      "pamer": 7320,
      "pekerja": 7321,
      "pelak": 7322,
      "pola": 7323,
      "peta": 7324,
      "pmi": 7325,
      "polusi": 7326,
      "puncak": 7327,
      "peter": 7328,
      "pelajari": 7329,
      "pariwisata": 7330,
      "pahaman": 7331,
      "pribadi": 7332,
      "pbb": 7333,
      "reb": 7334,
      "rnya": 7335,
      "rol": 7336,
      "risi": 7337,
      "raan": 7338,
      "red": 7339,
      "rna": 7340,
      "rencana": 7341,
      "rens": 7342,
      "rex": 7343,
      "rektur": 7344,
      "relasi": 7345,
      "rancangan": 7346,
      "reasi": 7347,
      "sai": 7348,
      "sanya": 7349,
      "sub": 7350,
      "saran": 7351,
      "swan": 7352,
      "sana": 7353,
      "sch": 7354,
      "simp": 7355,
      "smen": 7356,
      "sans": 7357,
      "sistem": 7358,
      "serang": 7359,
      "sumber": 7360,
      "squ": 7361,
      "ste": 7362,
      "ston": 7363,
      "sirkan": 7364,
      "soph": 7365,
      "sanksi": 7366,
      "slr": 7367,
      "tp": 7368,
      "tin": 7369,
      "tun": 7370,
      "teng": 7371,
      "tok": 7372,
      "tangg": 7373,
      "tant": 7374,
      "tod": 7375,
      "tepat": 7376,
      "tman": 7377,
      "tentu": 7378,
      "taki": 7379,
      "tangga": 7380,
      "tuntutan": 7381,
      "tomatik": 7382,
      "tekanan": 7383,
      "total": 7384,
      "tgen": 7385,
      "tamu": 7386,
      "tebal": 7387,
      "tommy": 7388,
      "ttp": 7389,
      "uu": 7390,
      "uat": 7391,
      "utuk": 7392,
      "ugian": 7393,
      "uinya": 7394,
      "uasan": 7395,
      "uaskan": 7396,
      "utup": 7397,
      "uerd": 7398,
      "uatannya": 7399,
      "udayaan": 7400,
      "uche": 7401,
      "uilla": 7402,
      "van": 7403,
      "ven": 7404,
      "vis": 7405,
      "ving": 7406,
      "vir": 7407,
      "via": 7408,
      "veh": 7409,
      "varia": 7410,
      "win": 7411,
      "wis": 7412,
      "wakan": 7413,
      "wata": 7414,
      "walan": 7415,
      "warkan": 7416,
      "wiah": 7417,
      "wira": 7418,
      "wood": 7419,
      "xi": 7420,
      "xy": 7421,
      "xtgen": 7422,
      "yd": 7423,
      "yy": 7424,
      "yet": 7425,
      "yok": 7426,
      "yuran": 7427,
      "yland": 7428,
      "yne": 7429,
      "yord": 7430,
      "yth": 7431,
      "yce": 7432,
      "ychus": 7433,
      "yrna": 7434,
      "zz": 7435,
      "zen": 7436,
      "zat": 7437,
      "zong": 7438,
      "zebo": 7439,
      "zmapp": 7440,
      "zmir": 7441,
      "¥Ã¿": 7442,
      "ÆĴ": 7443,
      "Ġ$": 7444,
      "Ġ/": 7445,
      "Ġuk": 7446,
      "Ġata": 7447,
      "Ġisi": 7448,
      "Ġula": 7449,
      "Ġgian": 7450,
      "Ġ00": 7451,
      "Ġent": 7452,
      "Ġud": 7453,
      "Ġuran": 7454,
      "Ġec": 7455,
      "Ġelit": 7456,
      "Ġont": 7457,
      "Ġeta": 7458,
      "Ġingat": 7459,
      "Ġistan": 7460,
      "Ġingatan": 7461,
      "Ġone": 7462,
      "Ġex": 7463,
      "Ġentitas": 7464,
      "Ġucap": 7465,
      "Ġubur": 7466,
      "Ġangel": 7467,
      "anah": 7468,
      "anam": 7469,
      "anes": 7470,
      "aninya": 7471,
      "anki": 7472,
      "ankar": 7473,
      "annes": 7474,
      "anni": 7475,
      "anuger": 7476,
      "animasi": 7477,
      "eret": 7478,
      "ergi": 7479,
      "erri": 7480,
      "erca": 7481,
      "ervasi": 7482,
      "ermo": 7483,
      "erto": 7484,
      "ertemuan": 7485,
      "erlakuan": 7486,
      "ergapan": 7487,
      "ermia": 7488,
      "Ġdo": 7489,
      "Ġdasa": 7490,
      "Ġdri": 7491,
      "Ġduga": 7492,
      "Ġdraf": 7493,
      "Ġdram": 7494,
      "Ġdron": 7495,
      "Ġdetik": 7496,
      "Ġdux": 7497,
      "Ġdengarkan": 7498,
      "Ġdeteksi": 7499,
      "Ġdumb": 7500,
      "Ġdslr": 7501,
      "Ġdzong": 7502,
      "Ġmi": 7503,
      "Ġms": 7504,
      "Ġmor": 7505,
      "Ġmara": 7506,
      "Ġmek": 7507,
      "Ġmasi": 7508,
      "Ġmula": 7509,
      "Ġmoh": 7510,
      "Ġmori": 7511,
      "Ġmonom": 7512,
      "Ġmunt": 7513,
      "Ġmys": 7514,
      "Ġmick": 7515,
      "Ġmario": 7516,
      "Ġmitra": 7517,
      "Ġmangola": 7518,
      "Ġmapun": 7519,
      "enam": 7520,
      "ening": 7521,
      "enid": 7522,
      "enali": 7523,
      "enyak": 7524,
      "enza": 7525,
      "enjata": 7526,
      "enjo": 7527,
      "are": 7528,
      "ary": 7529,
      "aras": 7530,
      "arnya": 7531,
      "arot": 7532,
      "arist": 7533,
      "arusia": 7534,
      "arator": 7535,
      "arma": 7536,
      "armo": 7537,
      "Ġsan": 7538,
      "Ġsun": 7539,
      "Ġsut": 7540,
      "Ġsapa": 7541,
      "Ġsent": 7542,
      "Ġsanj": 7543,
      "Ġsilih": 7544,
      "Ġsisik": 7545,
      "Ġsusun": 7546,
      "Ġsengk": 7547,
      "Ġscu": 7548,
      "Ġsirip": 7549,
      "Ġsilet": 7550,
      "Ġsore": 7551,
      "Ġsorot": 7552,
      "Ġswas": 7553,
      "Ġsanti": 7554,
      "Ġsanksi": 7555,
      "Ġsound": 7556,
      "Ġsopir": 7557,
      "Ġswis": 7558,
      "Ġsyok": 7559,
      "anga": 7560,
      "angren": 7561,
      "Ġpam": 7562,
      "Ġpeb": 7563,
      "Ġpdi": 7564,
      "Ġpon": 7565,
      "Ġpur": 7566,
      "Ġpup": 7567,
      "Ġpangan": 7568,
      "Ġpub": 7569,
      "Ġpip": 7570,
      "Ġpint": 7571,
      "Ġpuj": 7572,
      "Ġpantu": 7573,
      "Ġpola": 7574,
      "Ġpons": 7575,
      "Ġpura": 7576,
      "Ġpez": 7577,
      "Ġpmo": 7578,
      "Ġpanjat": 7579,
      "Ġptw": 7580,
      "Ġpyth": 7581,
      "Ġbeng": 7582,
      "Ġbut": 7583,
      "Ġbil": 7584,
      "Ġbos": 7585,
      "Ġbangk": 7586,
      "Ġblo": 7587,
      "Ġbirm": 7588,
      "Ġbord": 7589,
      "Ġbolon": 7590,
      "Ġbce": 7591,
      "Ġbantalan": 7592,
      "Ġbetul": 7593,
      "Ġboot": 7594,
      "atik": 7595,
      "atinya": 7596,
      "atform": 7597,
      "atolia": 7598,
      "Ġtt": 7599,
      "Ġtas": 7600,
      "Ġtol": 7601,
      "Ġtir": 7602,
      "Ġtul": 7603,
      "Ġtom": 7604,
      "Ġteh": 7605,
      "Ġtong": 7606,
      "Ġtab": 7607,
      "Ġtend": 7608,
      "Ġtag": 7609,
      "Ġtenang": 7610,
      "Ġtulang": 7611,
      "Ġtawarkan": 7612,
      "Ġtongan": 7613,
      "Ġtuna": 7614,
      "Ġtanjung": 7615,
      "Ġtenda": 7616,
      "Ġtawaran": 7617,
      "Ġtoks": 7618,
      "Ġtamu": 7619,
      "Ġteduh": 7620,
      "law": 7621,
      "lagi": 7622,
      "lasi": 7623,
      "lawan": 7624,
      "lase": 7625,
      "laber": 7626,
      "layak": 7627,
      "lags": 7628,
      "ladys": 7629,
      "inda": 7630,
      "inah": 7631,
      "inel": 7632,
      "inisi": 7633,
      "inop": 7634,
      "inab": 7635,
      "inew": 7636,
      "inju": 7637,
      "inapan": 7638,
      "injam": 7639,
      "individu": 7640,
      "inÃ¤": 7641,
      "Ġkentang": 7642,
      "Ġkawat": 7643,
      "Ġkiv": 7644,
      "Ġkib": 7645,
      "Ġkura": 7646,
      "Ġkira": 7647,
      "Ġkunci": 7648,
      "Ġklien": 7649,
      "Ġkier": 7650,
      "akia": 7651,
      "akuan": 7652,
      "akati": 7653,
      "akaan": 7654,
      "akha": 7655,
      "akna": 7656,
      "akland": 7657,
      "aktivitas": 7658,
      "akirakan": 7659,
      "aktis": 7660,
      "aklukkan": 7661,
      "une": 7662,
      "uns": 7663,
      "unikasi": 7664,
      "ash": 7665,
      "asaki": 7666,
      "asnis": 7667,
      "aspek": 7668,
      "ashi": 7669,
      "asuki": 7670,
      "asco": 7671,
      "asyh": 7672,
      "asingkan": 7673,
      "Ġdii": 7674,
      "Ġdial": 7675,
      "Ġdius": 7676,
      "Ġdianya": 7677,
      "Ġdilu": 7678,
      "Ġdibat": 7679,
      "Ġdise": 7680,
      "Ġdiind": 7681,
      "Ġdiikut": 7682,
      "Ġdica": 7683,
      "Ġdiha": 7684,
      "Ġdiolah": 7685,
      "Ġdigus": 7686,
      "Ġdiatur": 7687,
      "Ġdisiap": 7688,
      "Ġdipertimbangkan": 7689,
      "Ġdiwajibkan": 7690,
      "Ġdiganti": 7691,
      "Ġdigantikan": 7692,
      "Ġdiizinkan": 7693,
      "Ġdijamin": 7694,
      "Ġdidefinisi": 7695,
      "Ġditimb": 7696,
      "Ġdianuger": 7697,
      "Ġdiasingkan": 7698,
      "emar": 7699,
      "emis": 7700,
      "emara": 7701,
      "emuka": 7702,
      "emsen": 7703,
      "emehkan": 7704,
      "dala": 7705,
      "daul": 7706,
      "dayanya": 7707,
      "Ġmenia": 7708,
      "Ġmeneg": 7709,
      "Ġmenangg": 7710,
      "Ġmenip": 7711,
      "Ġmenanc": 7712,
      "Ġmenju": 7713,
      "Ġmenump": 7714,
      "Ġmenanggap": 7715,
      "Ġmenunjukan": 7716,
      "Ġmenikm": 7717,
      "Ġmenaf": 7718,
      "Ġmendaft": 7719,
      "Ġmenolong": 7720,
      "Ġmenegak": 7721,
      "Ġmenjual": 7722,
      "Ġmenangani": 7723,
      "Ġmenjamin": 7724,
      "Ġmendampingi": 7725,
      "Ġmenambah": 7726,
      "Ġmenanam": 7727,
      "ahi": 7728,
      "ahl": 7729,
      "ahim": 7730,
      "ahkota": 7731,
      "Ġseta": 7732,
      "Ġsewenang": 7733,
      "alel": 7734,
      "alon": 7735,
      "alangan": 7736,
      "alog": 7737,
      "alex": 7738,
      "alihan": 7739,
      "alth": 7740,
      "Ġyuan": 7741,
      "Ġyesus": 7742,
      "Ġyarmo": 7743,
      "kandidat": 7744,
      "tut": 7745,
      "tuisi": 7746,
      "tutup": 7747,
      "tucci": 7748,
      "isti": 7749,
      "istr": 7750,
      "isahan": 7751,
      "israel": 7752,
      "isolasi": 7753,
      "amisme": 7754,
      "aminasi": 7755,
      "ikar": 7756,
      "ikil": 7757,
      "iket": 7758,
      "ikop": 7759,
      "ikatif": 7760,
      "ikinew": 7761,
      "Ġkeja": 7762,
      "Ġkeper": 7763,
      "Ġkeingin": 7764,
      "Ġkepr": 7765,
      "Ġketuh": 7766,
      "Ġkelapa": 7767,
      "Ġkejatuhan": 7768,
      "Ġkegelapan": 7769,
      "Ġkewira": 7770,
      "Ġkedaul": 7771,
      "Ġteras": 7772,
      "Ġterba": 7773,
      "Ġterlak": 7774,
      "Ġterjam": 7775,
      "Ġtergerak": 7776,
      "Ġterjauh": 7777,
      "Ġterjad": 7778,
      "Ġterjadwal": 7779,
      "Ġtermudah": 7780,
      "Ġterverifikasi": 7781,
      "Ġterjual": 7782,
      "Ġterungkap": 7783,
      "Ġterisolasi": 7784,
      "apar": 7785,
      "apkan": 7786,
      "appa": 7787,
      "apolis": 7788,
      "apertemuan": 7789,
      "Ġberisi": 7790,
      "Ġberta": 7791,
      "Ġberangg": 7792,
      "Ġbersa": 7793,
      "Ġberanj": 7794,
      "Ġberpa": 7795,
      "Ġberikan": 7796,
      "Ġberteri": 7797,
      "Ġberibu": 7798,
      "Ġberjar": 7799,
      "Ġberunt": 7800,
      "Ġberapi": 7801,
      "Ġberumur": 7802,
      "Ġberganti": 7803,
      "Ġberabad": 7804,
      "Ġberpres": 7805,
      "Ġberekr": 7806,
      "Ġbercab": 7807,
      "Ġberawak": 7808,
      "oru": 7809,
      "oras": 7810,
      "ores": 7811,
      "oros": 7812,
      "orter": 7813,
      "orinya": 7814,
      "organ": 7815,
      "orologi": 7816,
      "ordion": 7817,
      "ebac": 7818,
      "eblo": 7819,
      "ebunan": 7820,
      "eblos": 7821,
      "ingati": 7822,
      "ingungan": 7823,
      "ingham": 7824,
      "ingrich": 7825,
      "utip": 7826,
      "utekan": 7827,
      "utha": 7828,
      "utentik": 7829,
      "utrisi": 7830,
      "usa": 7831,
      "usar": 7832,
      "uskan": 7833,
      "usuran": 7834,
      "usuhan": 7835,
      "usantara": 7836,
      "usgs": 7837,
      "ushch": 7838,
      "Ġmemangk": 7839,
      "Ġmemimp": 7840,
      "Ġmemantu": 7841,
      "Ġmemadai": 7842,
      "Ġmemikat": 7843,
      "Ġmemangsa": 7844,
      "Ġmemurn": 7845,
      "Ġmemfokuskan": 7846,
      "Ġmembuang": 7847,
      "Ġmemuaskan": 7848,
      "diasi": 7849,
      "dibagi": 7850,
      "dicolo": 7851,
      "didampingi": 7852,
      "direktur": 7853,
      "Ġperu": 7854,
      "Ġperorang": 7855,
      "Ġperaw": 7856,
      "Ġperab": 7857,
      "Ġperseorang": 7858,
      "Ġperannya": 7859,
      "Ġperbuk": 7860,
      "Ġperhit": 7861,
      "Ġperlahan": 7862,
      "Ġperancah": 7863,
      "Ġperintah": 7864,
      "Ġperancangan": 7865,
      "Ġperpad": 7866,
      "Ġpertumbuhan": 7867,
      "Ġperlengkapan": 7868,
      "Ġpercetakan": 7869,
      "Ġperlind": 7870,
      "Ġlos": 7871,
      "Ġlesi": 7872,
      "Ġlev": 7873,
      "Ġlandai": 7874,
      "Ġluma": 7875,
      "Ġlock": 7876,
      "Ġlez": 7877,
      "Ġluncur": 7878,
      "Ġlemi": 7879,
      "Ġluksemburg": 7880,
      "Ġlelaki": 7881,
      "elis": 7882,
      "elot": 7883,
      "elop": 7884,
      "elip": 7885,
      "elanj": 7886,
      "ellas": 7887,
      "elanja": 7888,
      "elling": 7889,
      "ileks": 7890,
      "ilangkan": 7891,
      "ilton": 7892,
      "ilese": 7893,
      "illie": 7894,
      "ito": 7895,
      "itaan": 7896,
      "itme": 7897,
      "itte": 7898,
      "itkannya": 7899,
      "itrogen": 7900,
      "itvice": 7901,
      "itraan": 7902,
      "Ġhes": 7903,
      "Ġhol": 7904,
      "Ġhuh": 7905,
      "Ġhsi": 7906,
      "Ġhant": 7907,
      "Ġhanc": 7908,
      "Ġhorm": 7909,
      "Ġhantu": 7910,
      "Ġhea": 7911,
      "Ġherb": 7912,
      "Ġhiv": 7913,
      "Ġhindari": 7914,
      "Ġhostel": 7915,
      "Ġhburan": 7916,
      "Ġhigh": 7917,
      "Ġhiking": 7918,
      "Ġhttp": 7919,
      "esahan": 7920,
      "esalkan": 7921,
      "oner": 7922,
      "onis": 7923,
      "onga": 7924,
      "onet": 7925,
      "onia": 7926,
      "onot": 7927,
      "onde": 7928,
      "onwe": 7929,
      "onychus": 7930,
      "arai": 7931,
      "arau": 7932,
      "ekor": 7933,
      "ekali": 7934,
      "ektual": 7935,
      "eklaim": 7936,
      "ekuador": 7937,
      "ekhar": 7938,
      "ekoya": 7939,
      "uric": 7940,
      "Ġjet": 7941,
      "Ġjasa": 7942,
      "Ġjai": 7943,
      "Ġjub": 7944,
      "Ġjeda": 7945,
      "Ġjud": 7946,
      "Ġjami": 7947,
      "Ġjef": 7948,
      "Ġjuru": 7949,
      "Ġjejar": 7950,
      "Ġjoch": 7951,
      "etkan": 7952,
      "etop": 7953,
      "etaan": 7954,
      "ethe": 7955,
      "etnis": 7956,
      "etaris": 7957,
      "umnya": 7958,
      "umatis": 7959,
      "Ġmengap": 7960,
      "Ġmengom": 7961,
      "Ġmengisi": 7962,
      "Ġmenggun": 7963,
      "Ġmenged": 7964,
      "Ġmengerikan": 7965,
      "Ġmengeja": 7966,
      "Ġmengib": 7967,
      "Ġmenggerak": 7968,
      "Ġmengundang": 7969,
      "Ġmengutar": 7970,
      "Ġmengindahkan": 7971,
      "Ġmengontrol": 7972,
      "Ġmengucap": 7973,
      "Ġmengingatkan": 7974,
      "Ġmengombinasi": 7975,
      "Ġmengungkap": 7976,
      "Ġmenguntungkan": 7977,
      "Ġmengutamakan": 7978,
      "Ġmengendus": 7979,
      "Ġmengida": 7980,
      "Ġmengklaim": 7981,
      "Ġmengeklaim": 7982,
      "Ġrr": 7983,
      "Ġring": 7984,
      "Ġramp": 7985,
      "Ġrwan": 7986,
      "Ġrip": 7987,
      "Ġred": 7988,
      "Ġrint": 7989,
      "Ġrunc": 7990,
      "Ġrec": 7991,
      "Ġrov": 7992,
      "Ġrev": 7993,
      "Ġric": 7994,
      "Ġranja": 7995,
      "Ġrober": 7996,
      "Ġrampung": 7997,
      "Ġryan": 7998,
      "Ġrobek": 7999,
      "Ġrange": 8000,
      "Ġritual": 8001,
      "Ġroca": 8002,
      "Ġranah": 8003,
      "Ġrarot": 8004,
      "Ġritme": 8005,
      "asir": 8006,
      "ukis": 8007,
      "ukgyal": 8008,
      "Ġinangnya": 8009,
      "Ġinkons": 8010,
      "Ġinjil": 8011,
      "Ġintuisi": 8012,
      "Ġundangan": 8013,
      "olu": 8014,
      "olkan": 8015,
      "oluti": 8016,
      "olitan": 8017,
      "bawa": 8018,
      "back": 8019,
      "bachmann": 8020,
      "iro": 8021,
      "iras": 8022,
      "irah": 8023,
      "irup": 8024,
      "irama": 8025,
      "tic": 8026,
      "jai": 8027,
      "jalah": 8028,
      "jajar": 8029,
      "jaza": 8030,
      "ulo": 8031,
      "uls": 8032,
      "ular": 8033,
      "ultur": 8034,
      "ulkar": 8035,
      "ulka": 8036,
      "Ġcon": 8037,
      "Ġcol": 8038,
      "Ġcom": 8039,
      "Ġcai": 8040,
      "Ġcany": 8041,
      "Ġcita": 8042,
      "Ġcad": 8043,
      "Ġcow": 8044,
      "Ġcorong": 8045,
      "Ġceo": 8046,
      "Ġciptakan": 8047,
      "Ġcakar": 8048,
      "Ġcinta": 8049,
      "Ġcaha": 8050,
      "Ġcase": 8051,
      "Ġcyan": 8052,
      "Ġcairan": 8053,
      "Ġcomm": 8054,
      "Ġcudd": 8055,
      "Ġcaba": 8056,
      "Ġcanyon": 8057,
      "Ġclara": 8058,
      "Ġcuerd": 8059,
      "Ġcemara": 8060,
      "way": 8061,
      "Ġau": 8062,
      "Ġaitu": 8063,
      "Ġawan": 8064,
      "Ġauman": 8065,
      "Ġact": 8066,
      "Ġaward": 8067,
      "Ġadil": 8068,
      "Ġautentik": 8069,
      "Ġna": 8070,
      "Ġnada": 8071,
      "Ġnol": 8072,
      "Ġnba": 8073,
      "Ġnia": 8074,
      "Ġnot": 8075,
      "Ġnela": 8076,
      "Ġnasa": 8077,
      "Ġnob": 8078,
      "Ġnev": 8079,
      "Ġnikmati": 8080,
      "Ġnatal": 8081,
      "Ġnanti": 8082,
      "Ġndp": 8083,
      "Ġnpw": 8084,
      "Ġnarator": 8085,
      "Ġnutrisi": 8086,
      "Ġnusantara": 8087,
      "iau": 8088,
      "iaci": 8089,
      "imo": 8090,
      "imum": 8091,
      "imalkan": 8092,
      "iminal": 8093,
      "imorfik": 8094,
      "Ġlawan": 8095,
      "Ġlalat": 8096,
      "Ġlayton": 8097,
      "Ġladoga": 8098,
      "Ġlafas": 8099,
      "pertan": 8100,
      "perubahan": 8101,
      "peratur": 8102,
      "perdana": 8103,
      "perahu": 8104,
      "perry": 8105,
      "perlengkapan": 8106,
      "perangko": 8107,
      "peronychus": 8108,
      "gional": 8109,
      "gipsi": 8110,
      "Ġmeruj": 8111,
      "Ġmerind": 8112,
      "Ġmerawat": 8113,
      "Ġmerengg": 8114,
      "Ġmerombak": 8115,
      "Ġmerekrut": 8116,
      "Ġmerenid": 8117,
      "Ġmerutekan": 8118,
      "Ġand": 8119,
      "Ġaneh": 8120,
      "Ġanne": 8121,
      "Ġanfa": 8122,
      "Ġanimasi": 8123,
      "Ġanatolia": 8124,
      "Ġanalog": 8125,
      "Ġpenja": 8126,
      "Ġpenua": 8127,
      "Ġpenola": 8128,
      "Ġpenentu": 8129,
      "Ġpenekan": 8130,
      "Ġpenenang": 8131,
      "Ġpenjad": 8132,
      "Ġpendamp": 8133,
      "Ġpenampung": 8134,
      "Ġpenunda": 8135,
      "Ġpenasihat": 8136,
      "Ġpenembak": 8137,
      "Ġpendahulunya": 8138,
      "Ġpenutup": 8139,
      "otan": 8140,
      "otis": 8141,
      "otta": 8142,
      "otlandia": 8143,
      "other": 8144,
      "Ġgom": 8145,
      "Ġgeg": 8146,
      "Ġgama": 8147,
      "Ġgos": 8148,
      "Ġganda": 8149,
      "Ġgump": 8150,
      "Ġgard": 8151,
      "Ġgantung": 8152,
      "Ġganja": 8153,
      "Ġgym": 8154,
      "Ġgame": 8155,
      "Ġgates": 8156,
      "Ġgangren": 8157,
      "Ġgingrich": 8158,
      "Ġgusar": 8159,
      "sif": 8160,
      "sigen": 8161,
      "oman": 8162,
      "omir": 8163,
      "ompa": 8164,
      "Ġtidaknya": 8165,
      "sebanyak": 8166,
      "sebab": 8167,
      "egon": 8168,
      "egahan": 8169,
      "egrad": 8170,
      "Ġsaga": 8171,
      "Ġsaud": 8172,
      "Ġsach": 8173,
      "Ġsawah": 8174,
      "Ġsayang": 8175,
      "Ġsadari": 8176,
      "Ġsaingan": 8177,
      "Ġsagu": 8178,
      "Ġsaarin": 8179,
      "Ġsaff": 8180,
      "Ġsafari": 8181,
      "Ġsagitari": 8182,
      "Ġsayuran": 8183,
      "Ġsaito": 8184,
      "Ġbau": 8185,
      "Ġbaju": 8186,
      "Ġbaca": 8187,
      "Ġbabil": 8188,
      "Ġbayi": 8189,
      "Ġbadan": 8190,
      "Ġbalasan": 8191,
      "Ġbavaria": 8192,
      "ebihannya": 8193,
      "buangan": 8194,
      "buaya": 8195,
      "buban": 8196,
      "budaya": 8197,
      "Ġfasih": 8198,
      "Ġfenis": 8199,
      "Ġflo": 8200,
      "Ġfeli": 8201,
      "Ġfatal": 8202,
      "Ġfeno": 8203,
      "Ġfiksi": 8204,
      "Ġfenton": 8205,
      "Ġfool": 8206,
      "Ġfebruari": 8207,
      "Ġfyord": 8208,
      "Ġflags": 8209,
      "elahan": 8210,
      "ehi": 8211,
      "oklamasi": 8212,
      "embada": 8213,
      "embuhkan": 8214,
      "Ġandal": 8215,
      "Ġandalan": 8216,
      "luenza": 8217,
      "Ġwal": 8218,
      "Ġwil": 8219,
      "Ġwong": 8220,
      "Ġwif": 8221,
      "Ġwalik": 8222,
      "Ġwho": 8223,
      "Ġwall": 8224,
      "Ġwide": 8225,
      "Ġwladys": 8226,
      "Ġwikinew": 8227,
      "Ġpred": 8228,
      "Ġprima": 8229,
      "Ġprinc": 8230,
      "Ġpraba": 8231,
      "Ġproksi": 8232,
      "Ġpryce": 8233,
      "Ġpraktis": 8234,
      "Ġpengag": 8235,
      "Ġpengubahan": 8236,
      "Ġpengedi": 8237,
      "Ġpengoperasi": 8238,
      "Ġpengendara": 8239,
      "Ġpengenda": 8240,
      "Ġpengorban": 8241,
      "Ġpengawal": 8242,
      "Ġpengaba": 8243,
      "Ġpengamat": 8244,
      "Ġpengunduran": 8245,
      "Ġpengenalan": 8246,
      "Ġpengajar": 8247,
      "Ġpenginapan": 8248,
      "Ġpengakuan": 8249,
      "Ġpengalihan": 8250,
      "Ġpengesahan": 8251,
      "ampur": 8252,
      "ampok": 8253,
      "epasan": 8254,
      "ephal": 8255,
      "eptis": 8256,
      "epakati": 8257,
      "Ġtahiti": 8258,
      "oses": 8259,
      "osur": 8260,
      "osistem": 8261,
      "ospi": 8262,
      "isial": 8263,
      "isioner": 8264,
      "tral": 8265,
      "tris": 8266,
      "tria": 8267,
      "traksi": 8268,
      "trumen": 8269,
      "tropis": 8270,
      "truksinya": 8271,
      "troy": 8272,
      "trahl": 8273,
      "trellas": 8274,
      "tretaris": 8275,
      "Ġ1000": 8276,
      "Ġ120": 8277,
      "Ġsebaya": 8278,
      "Ġsertifikasi": 8279,
      "Ġservis": 8280,
      "Ġserileks": 8281,
      "terima": 8282,
      "tertud": 8283,
      "terjebak": 8284,
      "Ġtahunan": 8285,
      "Ġtahunnya": 8286,
      "opor": 8287,
      "opolamin": 8288,
      "uburan": 8289,
      "Ġmembelah": 8290,
      "Ġmembend": 8291,
      "Ġmembaha": 8292,
      "Ġmembatasi": 8293,
      "Ġmembesarkan": 8294,
      "Ġnegosiasi": 8295,
      "Ġpemenang": 8296,
      "Ġpemukul": 8297,
      "Ġpemangsa": 8298,
      "Ġpemicu": 8299,
      "Ġpemahaman": 8300,
      "Ġpemalu": 8301,
      "Ġpembuatan": 8302,
      "Ġpeminda": 8303,
      "Ġpemetaan": 8304,
      "Ġpembuangan": 8305,
      "daho": 8306,
      "dahar": 8307,
      "dahara": 8308,
      "dahnya": 8309,
      "dahulu": 8310,
      "giancar": 8311,
      "Ġsekad": 8312,
      "Ġsekurang": 8313,
      "Ġsekawan": 8314,
      "Ġsekej": 8315,
      "Ġseketika": 8316,
      "Ġsekret": 8317,
      "Ġsektretaris": 8318,
      "atiannya": 8319,
      "tail": 8320,
      "tainya": 8321,
      "tafet": 8322,
      "tainab": 8323,
      "Ġmenyus": 8324,
      "Ġmenyant": 8325,
      "Ġmenyingg": 8326,
      "Ġmenyingk": 8327,
      "Ġmenyimb": 8328,
      "Ġmenyiap": 8329,
      "Ġmenyandang": 8330,
      "Ġmenyorot": 8331,
      "Ġmenyetop": 8332,
      "Ġmenyepakati": 8333,
      "entari": 8334,
      "entina": 8335,
      "entown": 8336,
      "enthood": 8337,
      "batsmen": 8338,
      "Ġbardia": 8339,
      "Ġbarunya": 8340,
      "rade": 8341,
      "raina": 8342,
      "sabtu": 8343,
      "Ġpertamanya": 8344,
      "Ġkemew": 8345,
      "Ġkemasan": 8346,
      "Ġkematiannya": 8347,
      "Ġ22": 8348,
      "Ġselaras": 8349,
      "Ġsepertiganya": 8350,
      "ribu": 8351,
      "Ġsemif": 8352,
      "Ġsemoga": 8353,
      "Ġsemprot": 8354,
      "Ġmeluncur": 8355,
      "Ġmelumat": 8356,
      "sejumlah": 8357,
      "seekor": 8358,
      "angkatan": 8359,
      "diabet": 8360,
      "Ġakut": 8361,
      "Ġaktor": 8362,
      "Ġakordion": 8363,
      "Ġaktris": 8364,
      "Ġkarate": 8365,
      "Ġkargo": 8366,
      "Ġkaryanya": 8367,
      "Ġkarenia": 8368,
      "Ġkartun": 8369,
      "Ġ\".": 8370,
      "Ġatasan": 8371,
      "Ġatlas": 8372,
      "Ġbesaran": 8373,
      "Ġbesarnya": 8374,
      "gunaan": 8375,
      "Ġval": 8376,
      "Ġvulkan": 8377,
      "Ġverifikasi": 8378,
      "Ġvish": 8379,
      "Ġvital": 8380,
      "Ġvilla": 8381,
      "Ġvasco": 8382,
      "Ġasin": 8383,
      "Ġasap": 8384,
      "Ġasus": 8385,
      "Ġaset": 8386,
      "Ġasoc": 8387,
      "Ġasumsi": 8388,
      "Ġasink": 8389,
      "Ġasunci": 8390,
      "Ġaspal": 8391,
      "Ġsetinggi": 8392,
      "Ġsetebal": 8393,
      "edo": 8394,
      "edisi": 8395,
      "edgar": 8396,
      "ediksi": 8397,
      "awinan": 8398,
      "anjikan": 8399,
      "Ġberber": 8400,
      "Ġberbulan": 8401,
      "Ġberbumbu": 8402,
      "Ġberbelanja": 8403,
      "Ġmencit": 8404,
      "Ġmencern": 8405,
      "Ġmencinta": 8406,
      "Ġmencair": 8407,
      "Ġmenceder": 8408,
      "Ġmencabut": 8409,
      "Ġmencicipi": 8410,
      "Ġmencampur": 8411,
      "Ġsuci": 8412,
      "Ġkerangka": 8413,
      "Ġkerala": 8414,
      "Ġkeracunan": 8415,
      "Ġkerikil": 8416,
      "Ġarba": 8417,
      "Ġartif": 8418,
      "Ġaromatik": 8419,
      "intahkan": 8420,
      "intangi": 8421,
      "intaian": 8422,
      "abo": 8423,
      "Ġsentuhan": 8424,
      "Ġsentral": 8425,
      "Ġkonami": 8426,
      "Ġkoneksi": 8427,
      "Ġkonver": 8428,
      "Ġkonotasi": 8429,
      "Ġkondis": 8430,
      "Ġkondektur": 8431,
      "ogle": 8432,
      "Ġterbilang": 8433,
      "ance": 8434,
      "ancuran": 8435,
      "inggalan": 8436,
      "inggungan": 8437,
      "odekan": 8438,
      "odenya": 8439,
      "padang": 8440,
      "Ġbig": 8441,
      "dangkan": 8442,
      "arkannya": 8443,
      "lake": 8444,
      "lakkha": 8445,
      "poration": 8446,
      "obak": 8447,
      "Ġmuskok": 8448,
      "Ġmustah": 8449,
      "Ġmusashi": 8450,
      "Ġberkat": 8451,
      "Ġberkali": 8452,
      "Ġberkila": 8453,
      "Ġberkec": 8454,
      "Ġberkons": 8455,
      "Ġberkump": 8456,
      "Ġberkedi": 8457,
      "Ġberkencan": 8458,
      "Ġberkuasa": 8459,
      "Ġberkelok": 8460,
      "Ġberkisar": 8461,
      "Ġberkorelasi": 8462,
      "Ġberkenalan": 8463,
      "Ġberkelanj": 8464,
      "udra": 8465,
      "Ġdikait": 8466,
      "Ġdiketik": 8467,
      "Ġdikonfirmasi": 8468,
      "Ġdikenda": 8469,
      "Ġdikuasai": 8470,
      "Ġdikubur": 8471,
      "Ġdikurung": 8472,
      "Ġdikhususkan": 8473,
      "Ġdikenali": 8474,
      "Ġdikutip": 8475,
      "Ġdikodekan": 8476,
      "Ġmenghira": 8477,
      "Ġmenghapus": 8478,
      "Ġmenghilangkan": 8479,
      "Ġmenghirup": 8480,
      "Ġharis": 8481,
      "Ġharper": 8482,
      "Ġharfiah": 8483,
      "Ġharappa": 8484,
      "Ġhale": 8485,
      "Ġhall": 8486,
      "Ġhalus": 8487,
      "istensi": 8488,
      "istens": 8489,
      "Ġdiburu": 8490,
      "Ġdibeli": 8491,
      "Ġdibilang": 8492,
      "Ġdibunuh": 8493,
      "Ġdibolehkan": 8494,
      "Ġdibesarkan": 8495,
      "Ġdibintangi": 8496,
      "Ġdites": 8497,
      "Ġditanya": 8498,
      "Ġditelit": 8499,
      "Ġditandai": 8500,
      "Ġditempa": 8501,
      "Ġditembak": 8502,
      "Ġditangani": 8503,
      "Ġditempuh": 8504,
      "Ġditenggelamkan": 8505,
      "Ġditaklukkan": 8506,
      "onald": 8507,
      "eworld": 8508,
      "juangkan": 8509,
      "urannya": 8510,
      "inilah": 8511,
      "Ġmemperbur": 8512,
      "Ġmemperku": 8513,
      "Ġmempermudah": 8514,
      "Ġmemperbesar": 8515,
      "Ġmempercayai": 8516,
      "Ġmemperdeb": 8517,
      "Ġmemperingati": 8518,
      "Ġmendis": 8519,
      "Ġmendengarkan": 8520,
      "Ġmendeteksi": 8521,
      "ormatan": 8522,
      "Ġdunde": 8523,
      "Ġdunkir": 8524,
      "Ġkomen": 8525,
      "Ġkomisi": 8526,
      "Ġkomers": 8527,
      "Ġkomodi": 8528,
      "Ġsejong": 8529,
      "buatlah": 8530,
      "Ġmaut": 8531,
      "Ġmaui": 8532,
      "Ġmainan": 8533,
      "Ġmafia": 8534,
      "Ġmajalah": 8535,
      "Ġjaga": 8536,
      "Ġjack": 8537,
      "Ġjagr": 8538,
      "Ġjagung": 8539,
      "Ġjazz": 8540,
      "Ġmasal": 8541,
      "Ġmasanya": 8542,
      "Ġmassif": 8543,
      "Ġmasehi": 8544,
      "eksistens": 8545,
      "Ġantarik": 8546,
      "Ġantard": 8547,
      "Ġantart": 8548,
      "Ġantelop": 8549,
      "pensi": 8550,
      "penerb": 8551,
      "pendaftaran": 8552,
      "pendahulu": 8553,
      "Ġkebal": 8554,
      "Ġkebuntu": 8555,
      "Ġkebutaan": 8556,
      "Ġkebingungan": 8557,
      "chis": 8558,
      "chard": 8559,
      "chte": 8560,
      "chsur": 8561,
      "chael": 8562,
      "cholas": 8563,
      "chary": 8564,
      "changa": 8565,
      "Ġkuenya": 8566,
      "Ġkualifikasi": 8567,
      "Ġairways": 8568,
      "Ġketik": 8569,
      "Ġketenaran": 8570,
      "Ġterlempar": 8571,
      "iano": 8572,
      "Ġrumput": 8573,
      "Ġlutut": 8574,
      "ihatinan": 8575,
      "Ġalur": 8576,
      "Ġalot": 8577,
      "Ġalli": 8578,
      "Ġaltern": 8579,
      "Ġalbert": 8580,
      "Ġalden": 8581,
      "Ġalkitab": 8582,
      "Ġalergi": 8583,
      "Ġaljaza": 8584,
      "adapi": 8585,
      "Ġterkasih": 8586,
      "Ġterkont": 8587,
      "Ġterkonfirmasi": 8588,
      "Ġterkej": 8589,
      "Ġterkuat": 8590,
      "Ġterkemuka": 8591,
      "Ġour": 8592,
      "Ġoiap": 8593,
      "Ġoversi": 8594,
      "Ġovers": 8595,
      "Ġoakland": 8596,
      "Ġpasal": 8597,
      "Ġdipindah": 8598,
      "Ġdipicu": 8599,
      "Ġdipecahkan": 8600,
      "Ġdipelintir": 8601,
      "Ġdipisahkan": 8602,
      "Ġdipinjam": 8603,
      "impanan": 8604,
      "impuls": 8605,
      "Ġpenyu": 8606,
      "Ġpenyeli": 8607,
      "Ġpenyesu": 8608,
      "Ġpenyergapan": 8609,
      "Ġpenyimpanan": 8610,
      "Ġpalang": 8611,
      "Ġpalme": 8612,
      "Ġpalermo": 8613,
      "Ġrumahnya": 8614,
      "Ġraym": 8615,
      "Ġradiasi": 8616,
      "Ġrachis": 8617,
      "Ġapalagi": 8618,
      "Ġsphinx": 8619,
      "Ġspesimen": 8620,
      "indikasi": 8621,
      "Ġkesuburan": 8622,
      "Ġmuat": 8623,
      "Ġmuara": 8624,
      "Ġmuatannya": 8625,
      "Ġmuchanga": 8626,
      "Ġpelari": 8627,
      "Ġpeledak": 8628,
      "Ġpelepasan": 8629,
      "Ġpelopor": 8630,
      "Ġagak": 8631,
      "Ġmusimnya": 8632,
      "masakan": 8633,
      "massa": 8634,
      "masinya": 8635,
      "masyarakat": 8636,
      "Ġbuat": 8637,
      "Ġbutuh": 8638,
      "Ġbugar": 8639,
      "Ġbudayanya": 8640,
      "Ġliat": 8641,
      "Ġlions": 8642,
      "Ġlibur": 8643,
      "Ġliving": 8644,
      "Ġlidahnya": 8645,
      "ecus": 8646,
      "ecewaan": 8647,
      "Ġdiagram": 8648,
      "manan": 8649,
      "Ġsepekan": 8650,
      "Ġsepakat": 8651,
      "Ġinteraksi": 8652,
      "Ġinterior": 8653,
      "Ġbenin": 8654,
      "Ġbendahara": 8655,
      "Ġdisahkan": 8656,
      "Ġdisaksikan": 8657,
      "Ġdisukai": 8658,
      "Ġdisambut": 8659,
      "Ġdisesalkan": 8660,
      "Ġdisembuhkan": 8661,
      "Ġdisinilah": 8662,
      "Ġmengajarkan": 8663,
      "Ġmengaitkannya": 8664,
      "Ġterhitung": 8665,
      "Ġterhalang": 8666,
      "likan": 8667,
      "ligasi": 8668,
      "licy": 8669,
      "oversial": 8670,
      "ovanni": 8671,
      "Ġibuk": 8672,
      "Ġibr": 8673,
      "Ġiwas": 8674,
      "Ġiwata": 8675,
      "Ġidaho": 8676,
      "Ġmakna": 8677,
      "Ġmaknanya": 8678,
      "Ġmilitan": 8679,
      "Ġperjalanannya": 8680,
      "walder": 8681,
      "Ġpemburu": 8682,
      "Ġpembukaan": 8683,
      "Ġpembunuh": 8684,
      "Ġpemberit": 8685,
      "Ġpemberlakuan": 8686,
      "Ġseharian": 8687,
      "Ġ340": 8688,
      "Ġstark": 8689,
      "Ġstardust": 8690,
      "Ġpendingin": 8691,
      "Ġpendeta": 8692,
      "pria": 8693,
      "prof": 8694,
      "praktik": 8695,
      "Ġpolis": 8696,
      "Ġpolusi": 8697,
      "Ġpolimorfik": 8698,
      "Ġtrenton": 8699,
      "Ġtrasnis": 8700,
      "ekerjakan": 8701,
      "Ġpad": 8702,
      "Ġpaolo": 8703,
      "Ġpago": 8704,
      "Ġpavil": 8705,
      "Ġpaget": 8706,
      "Ġpaulo": 8707,
      "Ġberbau": 8708,
      "Ġ1920": 8709,
      "Ġ1989": 8710,
      "Ġ1930": 8711,
      "Ġ1939": 8712,
      "Ġ1980": 8713,
      "Ġ1922": 8714,
      "Ġ1945": 8715,
      "eva": 8716,
      "evis": 8717,
      "Ġgaul": 8718,
      "Ġgaza": 8719,
      "Ġgawang": 8720,
      "Ġgazebo": 8721,
      "Ġbulanan": 8722,
      "Ġdimiring": 8723,
      "emparkan": 8724,
      "Ġberlebihan": 8725,
      "Ġperspek": 8726,
      "turb": 8727,
      "turut": 8728,
      "turnamen": 8729,
      "turkish": 8730,
      "Ġkekac": 8731,
      "Ġkekesalan": 8732,
      "Ġkekecewaan": 8733,
      "asionalisasi": 8734,
      "lannya": 8735,
      "ocles": 8736,
      "ocelot": 8737,
      "Ġparuhnya": 8738,
      "Ġparkir": 8739,
      "Ġpartisi": 8740,
      "Ġparalel": 8741,
      "Ġparenthood": 8742,
      "Ġteluk": 8743,
      "Ġtelihat": 8744,
      "Ġtelef": 8745,
      "Ġanaknya": 8746,
      "Ġbersel": 8747,
      "Ġbersantai": 8748,
      "Ġbersenjata": 8749,
      "Ġbersinggungan": 8750,
      "berada": 8751,
      "bergabung": 8752,
      "berakar": 8753,
      "icia": 8754,
      "icular": 8755,
      "Ġeksotis": 8756,
      "Ġpemerasan": 8757,
      "Ġ2022": 8758,
      "halo": 8759,
      "menya": 8760,
      "menjadi": 8761,
      "menteri": 8762,
      "menjaga": 8763,
      "Ġerik": 8764,
      "Ġerdo": 8765,
      "Ġkastel": 8766,
      "Ġkasino": 8767,
      "Ġbertepatan": 8768,
      "Ġbertelur": 8769,
      "Ġbertekanan": 8770,
      "Ġbertentangan": 8771,
      "Ġberteori": 8772,
      "badan": 8773,
      "ikanya": 8774,
      "Ġzum": 8775,
      "Ġzig": 8776,
      "Ġzirah": 8777,
      "Ġdinamisme": 8778,
      "Ġdinasionalisasi": 8779,
      "angsang": 8780,
      "Ġdiperuntuk": 8781,
      "Ġdiperhatikan": 8782,
      "Ġdiperjelas": 8783,
      "Ġdiperjuangkan": 8784,
      "Ġpopi": 8785,
      "efinisi": 8786,
      "ernak": 8787,
      "ernaan": 8788,
      "Ġpesaingnya": 8789,
      "tusan": 8790,
      "Ġpernapasan": 8791,
      "Ġgrant": 8792,
      "Ġgratifikasi": 8793,
      "Ġgreat": 8794,
      "frey": 8795,
      "Ġislam": 8796,
      "Ġishak": 8797,
      "Ġterpusat": 8798,
      "Ġterpaksa": 8799,
      "Ġterpaku": 8800,
      "Ġterpasang": 8801,
      "Ġterpanas": 8802,
      "Ġterpapar": 8803,
      "Ġresminya": 8804,
      "Ġreservasi": 8805,
      "ago": 8806,
      "agresi": 8807,
      "agoras": 8808,
      "Ġmanila": 8809,
      "Ġmanipulasi": 8810,
      "Ġburuh": 8811,
      "Ġmeyak": 8812,
      "Ġpunah": 8813,
      "Ġpunja": 8814,
      "Ġpunakha": 8815,
      "Ġkedewasa": 8816,
      "Ġchick": 8817,
      "Ġcheers": 8818,
      "ĠchiÃ": 8819,
      "Ġchoud": 8820,
      "dikatakan": 8821,
      "Ġorkes": 8822,
      "Ġortod": 8823,
      "Ġoregon": 8824,
      "Ġpanah": 8825,
      "Ġpanik": 8826,
      "Ġpantainya": 8827,
      "Ġmendapati": 8828,
      "eskimo": 8829,
      "pansi": 8830,
      "panedo": 8831,
      "seth": 8832,
      "setidaknya": 8833,
      "Ġtaksi": 8834,
      "Ġtakhta": 8835,
      "origami": 8836,
      "Ġ2006": 8837,
      "lakukanlah": 8838,
      "Ġanggun": 8839,
      "ahkannya": 8840,
      "Ġsesak": 8841,
      "Ġsesulit": 8842,
      "Ġsesame": 8843,
      "Ġsesekali": 8844,
      "Ġperluasan": 8845,
      "Ġbawahnya": 8846,
      "Ġkonsol": 8847,
      "Ġkonsep": 8848,
      "Ġkonsesi": 8849,
      "Ġkonstan": 8850,
      "Ġkonsumen": 8851,
      "Ġkonsens": 8852,
      "Ġkonstant": 8853,
      "Ġkonstruksinya": 8854,
      "Ġkonsistensi": 8855,
      "add": 8856,
      "admin": 8857,
      "Ġsatunya": 8858,
      "Ġsatupun": 8859,
      "Ġsaturn": 8860,
      "Ġsatoru": 8861,
      "Ġkre": 8862,
      "Ġkru": 8863,
      "Ġkritik": 8864,
      "Ġkrushch": 8865,
      "Ġkronis": 8866,
      "Ġkriminal": 8867,
      "Ġkelinci": 8868,
      "Ġkelebihannya": 8869,
      "Ġberhari": 8870,
      "Ġmenyebar": 8871,
      "pengunjung": 8872,
      "pengalaman": 8873,
      "pengikut": 8874,
      "pengaruh": 8875,
      "pengeluaran": 8876,
      "penglihatan": 8877,
      "pengawas": 8878,
      "penggunaan": 8879,
      "pengintaian": 8880,
      "Ġdays": 8881,
      "Ġsie": 8882,
      "Ġdirekam": 8883,
      "Ġdirektur": 8884,
      "Ġdirilis": 8885,
      "Ġdirepresentasikan": 8886,
      "Ġdiremehkan": 8887,
      "ususnya": 8888,
      "Ġmembaur": 8889,
      "Ġmembajak": 8890,
      "Ġjamuan": 8891,
      "Ġjaminan": 8892,
      "ivora": 8893,
      "Ġ46": 8894,
      "Ġ48": 8895,
      "Ġ489": 8896,
      "Ġ491": 8897,
      "Ġtersering": 8898,
      "Ġtersegel": 8899,
      "Ġtersisih": 8900,
      "Ġtersembunyi": 8901,
      "Ġterseret": 8902,
      "apaian": 8903,
      "Ġgunanya": 8904,
      "Ġdarwin": 8905,
      "Ġsamping": 8906,
      "tikal": 8907,
      "tikultur": 8908,
      "Ġmaryland": 8909,
      "Ġbukaan": 8910,
      "Ġtrace": 8911,
      "Ġtraumatis": 8912,
      "Ġprosesi": 8913,
      "yahudi": 8914,
      "Ġtertangkap": 8915,
      "michael": 8916,
      "Ġminat": 8917,
      "Ġminne": 8918,
      "Ġminimum": 8919,
      "Ġkafe": 8920,
      "Ġkairo": 8921,
      "etakkan": 8922,
      "ibal": 8923,
      "Ġdemokr": 8924,
      "Ġkepik": 8925,
      "Ġkepemilikan": 8926,
      "Ġkepuasan": 8927,
      "Ġjarum": 8928,
      "Ġjaromir": 8929,
      "Ġtransfer": 8930,
      "Ġtranslate": 8931,
      "Ġekosistem": 8932,
      "Ġoli": 8933,
      "Ġolds": 8934,
      "Ġkatja": 8935,
      "Ġkehancuran": 8936,
      "Ġgeologis": 8937,
      "Ġgeofis": 8938,
      "Ġgeega": 8939,
      "Ġgeospi": 8940,
      "Ġ2012": 8941,
      "Ġ2013": 8942,
      "Ġ2014": 8943,
      "Ġorganik": 8944,
      "Ġbrook": 8945,
      "Ġbrother": 8946,
      "Ġbrevis": 8947,
      "Ġbelok": 8948,
      "Ġbelanja": 8949,
      "Ġbelarusia": 8950,
      "Ġbeliau": 8951,
      "Ġberpaku": 8952,
      "Ġberpasir": 8953,
      "Ġgeromb": 8954,
      "Ġgermline": 8955,
      "Ġgerobak": 8956,
      "Ġmendapatkannya": 8957,
      "mbuh": 8958,
      "mbangan": 8959,
      "Ġkanal": 8960,
      "Ġkanaan": 8961,
      "Ġkandidat": 8962,
      "Ġkandahar": 8963,
      "Ġkanibal": 8964,
      "Ġdilewat": 8965,
      "Ġdilolos": 8966,
      "Ġdilanggar": 8967,
      "Ġdiluncurkan": 8968,
      "Ġdilukis": 8969,
      "Ġmenerangi": 8970,
      "Ġhukumnya": 8971,
      "Ġmasalahnya": 8972,
      "bilah": 8973,
      "biji": 8974,
      "bijian": 8975,
      "Ġestrellas": 8976,
      "Ġestafet": 8977,
      "Ġskotlandia": 8978,
      "Ġskeptis": 8979,
      "Ġskopolamin": 8980,
      "Ġjenisnya": 8981,
      "Ġroman": 8982,
      "Ġromani": 8983,
      "Ġromney": 8984,
      "Ġromantisisme": 8985,
      "Ġspesiasi": 8986,
      "negatif": 8987,
      "Ã£Â": 8988,
      "Ġelang": 8989,
      "Ġelec": 8990,
      "Ġellis": 8991,
      "Ġperkirakan": 8992,
      "Ġperkebunan": 8993,
      "Ġperkawinan": 8994,
      "Ġpencakar": 8995,
      "Ġpenciuman": 8996,
      "Ġpencurian": 8997,
      "Ġpencitraan": 8998,
      "Ġpencegahan": 8999,
      "Ġpencernaan": 9000,
      "Ġbarangnya": 9001,
      "gaskar": 9002,
      "Ġpasifisme": 9003,
      "Ġkoran": 9004,
      "Ġpermohon": 9005,
      "Ġpermusuhan": 9006,
[...]
