{
  "version": "1.0",
  "truncation": null,
  "padding": null,
  "added_tokens": [
    {
      "id": 0,
      "content": "<start>",
      "single_word": false,
      "lstrip": false,
      "rstrip": false,
      "normalized": false,
      "special": true
    },
    {
      "id": 1,
      "content": "<end>",
      "single_word": false,
      "lstrip": false,
      "rstrip": false,
      "normalized": false,
      "special": true
    },
    {
      "id": 2,
      "content": "<pad>",
      "single_word": false,
      "lstrip": false,
      "rstrip": false,
      "normalized": false,
      "special": true
    },
    {
      "id": 3,
      "content": "<unk>",
      "single_word": false,
      "lstrip": false,
      "rstrip": false,
      "normalized": false,
      "special": true
    }
  ],
  "normalizer": null,
  "pre_tokenizer": {
    "type": "ByteLevel",
    "add_prefix_space": false,
    "trim_offsets": true,
    "use_regex": true
  },
  "post_processor": {
    "type": "ByteLevel",
    "add_prefix_space": true,
    "trim_offsets": false,
    "use_regex": true
  },
  "decoder": {
    "type": "ByteLevel",
    "add_prefix_space": true,
    "trim_offsets": true,
    "use_regex": true
  },
  "model": {
    "type": "BPE",
    "dropout": null,
    "unk_token": null,
    "continuing_subword_prefix": null,
    "end_of_word_suffix": null,
    "fuse_unk": false,
    "byte_fallback": false,
    "ignore_merges": false,
    "vocab": {
      "<start>": 0,
      "<end>": 1,
      "<pad>": 2,
      "<unk>": 3,
      "!": 4,
      "\"": 5,
      "$": 6,
      "%": 7,
      "&": 8,
      "'": 9,
      "(": 10,
      ")": 11,
      "+": 12,
      ",": 13,
      "-": 14,
      ".": 15,
      "/": 16,
      "0": 17,
      "1": 18,
      "2": 19,
      "3": 20,
      "4": 21,
      "5": 22,
      "6": 23,
      "7": 24,
      "8": 25,
      "9": 26,
      ":": 27,
      ";": 28,
      "?": 29,
      "[": 30,
      "]": 31,
      "a": 32,
      "b": 33,
      "c": 34,
      "d": 35,
      "e": 36,
      "f": 37,
      "g": 38,
      "h": 39,
      "i": 40,
      "j": 41,
      "k": 42,
      "l": 43,
      "m": 44,
      "n": 45,
      "o": 46,
      "p": 47,
      "q": 48,
      "r": 49,
      "s": 50,
      "t": 51,
      "u": 52,
      "v": 53,
      "w": 54,
      "x": 55,
      "y": 56,
      "z": 57,
      "¡": 58,
      "£": 59,
      "¥": 60,
      "§": 61,
      "©": 62,
      "°": 63,
      "²": 64,
      "³": 65,
      "µ": 66,
      "¶": 67,
      "º": 68,
      "Â": 69,
      "Ã": 70,
      "Ä": 71,
      "Å": 72,
      "Ì": 73,
      "â": 74,
      "Ċ": 75,
      "č": 76,
      "Ġ": 77,
      "Ģ": 78,
      "ĥ": 79,
      "ĩ": 80,
      "ĭ": 81,
      "ĵ": 82,
      "Ķ": 83,
      "ĺ": 84,
      "Ļ": 85,
      "ľ": 86,
      "Ŀ": 87,
      "Ł": 88,
      "Ń": 89,
      "Ġt": 90,
      "Ġa": 91,
      "he": 92,
      "in": 93,
      "Ġthe": 94,
      "re": 95,
      "Ġo": 96,
      "Ġs": 97,
      "er": 98,
      "Ġc": 99,
      "Ġw": 100,
      "on": 101,
      "čĊ": 102,
      "an": 103,
      "en": 104,
      "at": 105,
      "Ġb": 106,
      "es": 107,
      "is": 108,
      "it": 109,
      "Ġp": 110,
      "ed": 111,
      "Ġf": 112,
      "Ġm": 113,
      "or": 114,
      "al": 115,
      "ing": 116,
      "Ġan": 117,
      "ou": 118,
      "ar": 119,
      "Ġof": 120,
      "Ġin": 121,
      "Ġto": 122,
      "Ġand": 123,
      "as": 124,
      "Ġd": 125,
      "Ġh": 126,
      "ic": 127,
      "le": 128,
      "ion": 129,
      "om": 130,
      "Ġn": 131,
      "Ġth": 132,
      "Ġe": 133,
      "ent": 134,
      "Ġl": 135,
      "il": 136,
      "Ġbe": 137,
      "Ġre": 138,
      "ve": 139,
      "the": 140,
      "st": 141,
      "Ġg": 142,
      "ly": 143,
      "Ġis": 144,
      "ro": 145,
      "ra": 146,
      "ct": 147,
      "id": 148,
      "Ġu": 149,
      "ce": 150,
      "ir": 151,
      "et": 152,
      "im": 153,
      "Ġon": 154,
      "ot": 155,
      "ation": 156,
      "Ġst": 157,
      "ow": 158,
      "ig": 159,
      "ay": 160,
      "ut": 161,
      "Ġfor": 162,
      "ver": 163,
      "ol": 164,
      "ur": 165,
      "Ġare": 166,
      "ad": 167,
      "se": 168,
      "Ġy": 169,
      "am": 170,
      "Ġthat": 171,
      "th": 172,
      "ch": 173,
      "Ġas": 174,
      "ll": 175,
      "ith": 176,
      "oun": 177,
      "Ġmo": 178,
      "ter": 179,
      "Ġit": 180,
      "Ġwe": 181,
      "if": 182,
      "op": 183,
      "ul": 184,
      "Ġor": 185,
      "Ġr": 186,
      "Ġwith": 187,
      "Ġwas": 188,
      "and": 189,
      "Ġwh": 190,
      "Ġv": 191,
      "Ġcon": 192,
      "Ġha": 193,
      "Ġyou": 194,
      "ge": 195,
      "Ġsu": 196,
      "ak": 197,
      "ill": 198,
      "ies": 199,
      "Ġfr": 200,
      "Ġat": 201,
      "Ġk": 202,
      "pe": 203,
      "Ġhe": 204,
      "ld": 205,
      "est": 206,
      "Ġcom": 207,
      "Ġby": 208,
      "Ġne": 209,
      "ers": 210,
      "ist": 211,
      "ort": 212,
      "Ġex": 213,
      "Ġse": 214,
      "iv": 215,
      "'s": 216,
      "ac": 217,
      "ment": 218,
      "ain": 219,
      "qu": 220,
      "Ġal": 221,
      "Ġch": 222,
      "Ġj": 223,
      "Ġcan": 224,
      "Ġhave": 225,
      "igh": 226,
      "us": 227,
      "Ġde": 228,
      "Ġpro": 229,
      "ther": 230,
      "un": 231,
      "os": 232,
      "ab": 233,
      "Ġfrom": 234,
      "ure": 235,
      "Ġsh": 236,
      "Ġun": 237,
      "ate": 238,
      "all": 239,
      "ity": 240,
      "od": 241,
      "Ġnot": 242,
      "Ġ1": 243,
      "ive": 244,
      "oc": 245,
      "Ġle": 246,
      "our": 247,
      "ant": 248,
      "gh": 249,
      "ap": 250,
      "ess": 251,
      "red": 252,
      "ome": 253,
      "fe": 254,
      "em": 255,
      "end": 256,
      "ight": 257,
      "port": 258,
      "Ġpl": 259,
      "Ġwere": 260,
      "ren": 261,
      "ial": 262,
      "Ġthey": 263,
      "Ġab": 264,
      "ough": 265,
      "Ġtra": 266,
      "um": 267,
      "out": 268,
      "res": 269,
      "ud": 270,
      "Ġar": 271,
      "Ġtheir": 272,
      "Ġwor": 273,
      "any": 274,
      "00": 275,
      "ast": 276,
      "ount": 277,
      "ust": 278,
      "Ġus": 279,
      "ip": 280,
      "art": 281,
      "ich": 282,
      "Ġhas": 283,
      "ard": 284,
      "ans": 285,
      "Ġaf": 286,
      "ous": 287,
      "Ġgo": 288,
      "ry": 289,
      "Ġwhe": 290,
      "ag": 291,
      "ong": 292,
      "ated": 293,
      "ound": 294,
      "el": 295,
      "Ġwhich": 296,
      "ions": 297,
      "ide": 298,
      "Ġen": 299,
      "Ġbut": 300,
      "per": 301,
      "Ġall": 302,
      "Ġpe": 303,
      "ian": 304,
      "so": 305,
      "der": 306,
      "Ġ(": 307,
      "ally": 308,
      "Ġcl": 309,
      "Ġwill": 310,
      "iz": 311,
      "Ġsa": 312,
      "ould": 313,
      "Ġ2": 314,
      "ia": 315,
      "ke": 316,
      "Ġint": 317,
      "ult": 318,
      "Ġcomp": 319,
      "Ġtr": 320,
      "Ġother": 321,
      "Ġad": 322,
      "ations": 323,
      "og": 324,
      "Ġthis": 325,
      "vel": 326,
      "Ġmore": 327,
      "Ġbeen": 328,
      "ople": 329,
      "ish": 330,
      "ib": 331,
      "one": 332,
      "pt": 333,
      "Ġsc": 334,
      "Ġcount": 335,
      "Ġev": 336,
      "ost": 337,
      "ack": 338,
      "ite": 339,
      "ice": 340,
      "ear": 341,
      "Ġag": 342,
      "her": 343,
      "Ġmost": 344,
      "ake": 345,
      "ie": 346,
      "ile": 347,
      "Ġoff": 348,
      "av": 349,
      "now": 350,
      "Ġone": 351,
      "ore": 352,
      "pl": 353,
      "age": 354,
      "Ġpeople": 355,
      "Ġ\"": 356,
      "Ġim": 357,
      "ine": 358,
      "ater": 359,
      "Ġind": 360,
      "ning": 361,
      "Ġro": 362,
      "Ġpr": 363,
      "ace": 364,
      "ime": 365,
      "ok": 366,
      "ame": 367,
      "Ġac": 368,
      "ang": 369,
      "Ġhad": 370,
      "Ġph": 371,
      "Ġmay": 372,
      "cl": 373,
      "ence": 374,
      "Ġalso": 375,
      "Ġsp": 376,
      "Ġfe": 377,
      "Ġnor": 378,
      "Ġsome": 379,
      "Ġdis": 380,
      "ical": 381,
      "ind": 382,
      "Ġbec": 383,
      "Ġover": 384,
      "able": 385,
      "Ġte": 386,
      "Ġmany": 387,
      "Ġres": 388,
      "ign": 389,
      "ild": 390,
      "rent": 391,
      "Ġra": 392,
      "Ġits": 393,
      "land": 394,
      "rit": 395,
      "Ġout": 396,
      "Ġfir": 397,
      "for": 398,
      "ru": 399,
      "Ġspe": 400,
      "Ġcar": 401,
      "als": 402,
      "very": 403,
      "Ġnew": 404,
      "ten": 405,
      "Ġdo": 406,
      "ike": 407,
      "Ġthere": 408,
      "ens": 409,
      "ass": 410,
      "act": 411,
      "Ġtw": 412,
      "Ġam": 413,
      "ire": 414,
      "ary": 415,
      "Ġpart": 416,
      "Ġyear": 417,
      "Ġfirst": 418,
      "au": 419,
      "ep": 420,
      "Ġso": 421,
      "Ġper": 422,
      "ark": 423,
      "ber": 424,
      "Ġyour": 425,
      "ose": 426,
      "Ġme": 427,
      "ff": 428,
      "Ġtime": 429,
      "Ġabout": 430,
      "Ġcont": 431,
      "ient": 432,
      "Ġhis": 433,
      "Ġup": 434,
      "tern": 435,
      "fect": 436,
      "cess": 437,
      "Ġdif": 438,
      "ach": 439,
      "ue": 440,
      "ance": 441,
      "ates": 442,
      "Ġknow": 443,
      "ub": 444,
      "ings": 445,
      "old": 446,
      "Ġwhen": 447,
      "Ġworld": 448,
      "iver": 449,
      "Ġap": 450,
      "reat": 451,
      "Ġcent": 452,
      "Ġwho": 453,
      "Ġcomm": 454,
      "erm": 455,
      "ade": 456,
      "ments": 457,
      "Ġafter": 458,
      "ree": 459,
      "Ġthan": 460,
      "Ġform": 461,
      "rough": 462,
      "Ġco": 463,
      "Ġpol": 464,
      "Ġno": 465,
      "ular": 466,
      "Ġvis": 467,
      "ck": 468,
      "ric": 469,
      "we": 470,
      "Ġpres": 471,
      "Ġfl": 472,
      "ail": 473,
      "ction": 474,
      "Ġsaid": 475,
      "Ġinto": 476,
      "wn": 477,
      "Ġlike": 478,
      "Ġgr": 479,
      "Ġtwo": 480,
      "day": 481,
      "te": 482,
      "Ġoften": 483,
      "ents": 484,
      "Ġcons": 485,
      "Ġrec": 486,
      "ces": 487,
      "ts": 488,
      "Ġwar": 489,
      "Ġonly": 490,
      "Ġdiffe": 491,
      "âĢ": 492,
      "Ġthem": 493,
      "Ġrel": 494,
      "ays": 495,
      "bs": 496,
      "cial": 497,
      "Ġqu": 498,
      "hed": 499,
      "ition": 500,
      "ord": 501,
      "oin": 502,
      "ple": 503,
      "Ġsk": 504,
      "Ġwould": 505,
      "ons": 506,
      "Ġbas": 507,
      "ors": 508,
      "ational": 509,
      "ause": 510,
      "Ġpre": 511,
      "ied": 512,
      "ph": 513,
      "Ġair": 514,
      "Ġbo": 515,
      "Ġthrough": 516,
      "Ġshow": 517,
      "Ġeven": 518,
      "ities": 519,
      "Ġunder": 520,
      "clud": 521,
      "ious": 522,
      "Ġcall": 523,
      "Ġany": 524,
      "Ġreport": 525,
      "this": 526,
      "Ġused": 527,
      "Ġcountry": 528,
      "are": 529,
      "ries": 530,
      "Ġbl": 531,
      "Ġear": 532,
      "Ġget": 533,
      "ific": 534,
      "ood": 535,
      "ved": 536,
      "Ġif": 537,
      "Ġsm": 538,
      "Ġeas": 539,
      "Ġbet": 540,
      "Ġwork": 541,
      "con": 542,
      "Ġact": 543,
      "Ġreg": 544,
      "Ġrequ": 545,
      "Ġneed": 546,
      "Ġdifferent": 547,
      "uc": 548,
      "Ġback": 549,
      "ory": 550,
      "uring": 551,
      "'t": 552,
      "Ġtour": 553,
      "Ġser": 554,
      "Ġinv": 555,
      "Ġinclud": 556,
      "Ġlar": 557,
      "Ġ19": 558,
      "Ġsuch": 559,
      "ited": 560,
      "Ġloc": 561,
      "Ġjust": 562,
      "Ġbu": 563,
      "ism": 564,
      "Ġtravel": 565,
      "Ġacc": 566,
      "Ġwater": 567,
      "Ġmed": 568,
      "oth": 569,
      "Ġstud": 570,
      "Ġatt": 571,
      "Ġcountries": 572,
      "Ġcity": 573,
      "Ġpos": 574,
      "Ġmake": 575,
      "Ġmade": 576,
      "ase": 577,
      "form": 578,
      "gan": 579,
      "ne": 580,
      "ually": 581,
      "Ġman": 582,
      "Ġmet": 583,
      "ily": 584,
      "Ġrem": 585,
      "ists": 586,
      "ress": 587,
      "ible": 588,
      "Ġz": 589,
      "ener": 590,
      "aw": 591,
      "Ġpop": 592,
      "Ġhow": 593,
      "Ġlo": 594,
      "Ġdr": 595,
      "Ġtrans": 596,
      "ubl": 597,
      "ative": 598,
      "ick": 599,
      "Ġbel": 600,
      "Ġwell": 601,
      "Ġvisit": 602,
      "ince": 603,
      "Ġbr": 604,
      "ital": 605,
      "Ġbeing": 606,
      "Ġprov": 607,
      "Ġshould": 608,
      "ards": 609,
      "pro": 610,
      "ral": 611,
      "ting": 612,
      "Ġma": 613,
      "Ġmin": 614,
      "Ġmon": 615,
      "Ġdes": 616,
      "Ġisland": 617,
      "ros": 618,
      "ures": 619,
      "Ġsmall": 620,
      "gest": 621,
      "tain": 622,
      "Ġsou": 623,
      "ather": 624,
      "own": 625,
      "Ġwhere": 626,
      "ual": 627,
      "Ġvery": 628,
      "Ġaw": 629,
      "ink": 630,
      "Ġcult": 631,
      "Ġway": 632,
      "Ġfin": 633,
      "Ġmar": 634,
      "Ġanim": 635,
      "Ġele": 636,
      "there": 637,
      "pect": 638,
      "Ġbecause": 639,
      "Ġ3": 640,
      "Ġtem": 641,
      "Ġsur": 642,
      "Ġcr": 643,
      "ath": 644,
      "ram": 645,
      "imes": 646,
      "oll": 647,
      "Ġ20": 648,
      "co": 649,
      "dition": 650,
      "ft": 651,
      "alth": 652,
      "Ġlong": 653,
      "ident": 654,
      "Ġvar": 655,
      "Ġexper": 656,
      "ock": 657,
      "ever": 658,
      "ience": 659,
      "Ġend": 660,
      "hes": 661,
      "Ġsim": 662,
      "ange": 663,
      "Ġmat": 664,
      "Ġwhile": 665,
      "Ġchar": 666,
      "Ġprob": 667,
      "Ġgood": 668,
      "Ġnorth": 669,
      "ank": 670,
      "ise": 671,
      "Ġduring": 672,
      "Ġass": 673,
      "velop": 674,
      "Ġoffic": 675,
      "Ġyears": 676,
      ".\"": 677,
      "ced": 678,
      "hen": 679,
      "ines": 680,
      "Ġthen": 681,
      "Ġmill": 682,
      "Ġgener": 683,
      "Ġext": 684,
      "ween": 685,
      "Ġcalled": 686,
      "les": 687,
      "uro": 688,
      "ins": 689,
      "Ġintern": 690,
      "Ġdist": 691,
      "omet": 692,
      "Ġhel": 693,
      "ived": 694,
      "Ġbetween": 695,
      "fore": 696,
      "Ġed": 697,
      "Ġown": 698,
      "Ġsy": 699,
      "ars": 700,
      "Ġnum": 701,
      "Ġthose": 702,
      "they": 703,
      "vern": 704,
      "amp": 705,
      "Ġrun": 706,
      "Ġwhat": 707,
      "Ġgovern": 708,
      ").": 709,
      "ds": 710,
      "Ġthese": 711,
      "Ġop": 712,
      "Ġsign": 713,
      "Ġche": 714,
      "ict": 715,
      "ilt": 716,
      "ets": 717,
      "Ġwithout": 718,
      "iving": 719,
      "ivers": 720,
      "ublic": 721,
      "Ġhelp": 722,
      "ms": 723,
      "Ġi": 724,
      "Ġce": 725,
      "Ġboth": 726,
      "its": 727,
      "Ġmil": 728,
      "Ġmain": 729,
      "olog": 730,
      "ands": 731,
      "aking": 732,
      "Ġnear": 733,
      "Ġlear": 734,
      "Ġplace": 735,
      "Ġ200": 736,
      "vis": 737,
      "Ġcap": 738,
      "Ġfam": 739,
      "Ġchild": 740,
      "urope": 741,
      "gy": 742,
      "iet": 743,
      "iqu": 744,
      "Ġav": 745,
      "ating": 746,
      "ished": 747,
      "Ġfound": 748,
      "ason": 749,
      "Ġdue": 750,
      "Ġem": 751,
      "Ġstart": 752,
      "ants": 753,
      "Ġteam": 754,
      "Ġpartic": 755,
      "Ġearth": 756,
      "ior": 757,
      "most": 758,
      "Ġsame": 759,
      "Ġca": 760,
      "Ġstr": 761,
      "Ġexp": 762,
      "Ġsee": 763,
      "Ġdevelop": 764,
      "air": 765,
      "ared": 766,
      "io": 767,
      "ving": 768,
      "Ġnow": 769,
      "Ġevery": 770,
      "Ġrep": 771,
      "ract": 772,
      "ife": 773,
      "Ġafric": 774,
      "ross": 775,
      "Ġta": 776,
      "ina": 777,
      "Ġpass": 778,
      "arch": 779,
      "Ġday": 780,
      "Ġstates": 781,
      "ages": 782,
      "Ġspec": 783,
      "Ġknown": 784,
      "af": 785,
      "ness": 786,
      "wh": 787,
      "Ġob": 788,
      "Ġmu": 789,
      "000": 790,
      "Ġagain": 791,
      "Ġanimals": 792,
      "du": 793,
      "Ġ4": 794,
      "Ġfind": 795,
      "Ġann": 796,
      "Ġnational": 797,
      "Ġthings": 798,
      "Ġeurope": 799,
      "Ġgerm": 800,
      "cept": 801,
      "Ġste": 802,
      "Ġher": 803,
      "Ġleg": 804,
      "Ġplan": 805,
      "Ġaround": 806,
      "els": 807,
      "Ġlarge": 808,
      "pic": 809,
      "rest": 810,
      "Ġsl": 811,
      "Ġsay": 812,
      "ering": 813,
      "Ġpoin": 814,
      "Ġfun": 815,
      "Ġmem": 816,
      "ases": 817,
      "Ġdown": 818,
      "Ġhigh": 819,
      "Ġnight": 820,
      "Ġrece": 821,
      "stem": 822,
      "ides": 823,
      "iron": 824,
      "Ġsup": 825,
      "Ġke": 826,
      "Ġalong": 827,
      "used": 828,
      "thern": 829,
      "Ġaffect": 830,
      "angu": 831,
      "Ġsouth": 832,
      "how": 833,
      "ix": 834,
      "jor": 835,
      "other": 836,
      "ug": 837,
      "ys": 838,
      "Ġest": 839,
      "Ġaut": 840,
      "read": 841,
      "Ġcur": 842,
      "Ġcour": 843,
      "enc": 844,
      "Ġdet": 845,
      "omen": 846,
      "Ġeach": 847,
      "Ġuse": 848,
      "Ġstate": 849,
      "ution": 850,
      "Ġorgan": 851,
      "Ġsun": 852,
      "ured": 853,
      "Ġallow": 854,
      "ogra": 855,
      "ffic": 856,
      "Ġcentur": 857,
      "Ġreported": 858,
      "Ġposs": 859,
      "Ġculture": 860,
      "ned": 861,
      "Ġwin": 862,
      "Ġbest": 863,
      "Ġbus": 864,
      "Ġpers": 865,
      "Ġins": 866,
      "ices": 867,
      "Ġthree": 868,
      "Ġlangu": 869,
      "Ġbefore": 870,
      "Ġge": 871,
      "ower": 872,
      "Ġconc": 873,
      "akes": 874,
      "ives": 875,
      "osp": 876,
      "Ġunited": 877,
      "Ġfew": 878,
      "Ġlook": 879,
      "hor": 880,
      "ier": 881,
      "ted": 882,
      "tle": 883,
      "vent": 884,
      "Ġtur": 885,
      "Ġset": 886,
      "Ġsomet": 887,
      "iss": 888,
      "Ġhot": 889,
      "Ġhand": 890,
      "oms": 891,
      "Ġthough": 892,
      "Ġlast": 893,
      "ility": 894,
      "Ġbeh": 895,
      "Ġrout": 896,
      "Ġsub": 897,
      "Ġlead": 898,
      "apan": 899,
      "ization": 900,
      "Ġimport": 901,
      "Ġresult": 902,
      "Ġcommon": 903,
      "ording": 904,
      "Ġlocal": 905,
      "Ġmajor": 906,
      "Ġ201": 907,
      "Ġsystem": 908,
      "Ġnumber": 909,
      "however": 910,
      "cient": 911,
      "ful": 912,
      "ik": 913,
      "led": 914,
      "tur": 915,
      "Ġcol": 916,
      "ats": 917,
      "Ġhost": 918,
      "row": 919,
      "ider": 920,
      "Ġdec": 921,
      "Ġusually": 922,
      "ips": 923,
      "âĢĻ": 924,
      "cially": 925,
      "Ġes": 926,
      "Ġtake": 927,
      "eric": 928,
      "atic": 929,
      "ese": 930,
      "Ġpar": 931,
      "orn": 932,
      "oup": 933,
      "Ġinc": 934,
      "Ġlaw": 935,
      "vell": 936,
      "sel": 937,
      "Ġmove": 938,
      "Ġking": 939,
      "ivid": 940,
      "Ġdep": 941,
      "abl": 942,
      "Ġplay": 943,
      "Ġameric": 944,
      "Ġunderst": 945,
      "Ġtransport": 946,
      "Ġofficial": 947,
      "Ġmillion": 948,
      "Ġchildren": 949,
      "hing": 950,
      "su": 951,
      "some": 952,
      "Ġold": 953,
      "Ġcre": 954,
      "Ġwild": 955,
      "Ġfall": 956,
      "Ġmark": 957,
      "alk": 958,
      "Ġinst": 959,
      "Ġinter": 960,
      "Ġdid": 961,
      "Ġhum": 962,
      "Ġbeg": 963,
      "Ġgre": 964,
      "Ġgreat": 965,
      "igin": 966,
      "ulation": 967,
      "pecially": 968,
      "ately": 969,
      "ended": 970,
      "Ġarm": 971,
      "Ġgroup": 972,
      "bo": 973,
      "bers": 974,
      "cur": 975,
      "ool": 976,
      "ves": 977,
      "Ġ5": 978,
      "Ġtry": 979,
      "Ġshe": 980,
      "Ġsit": 981,
      "Ġcamp": 982,
      "Ġwind": 983,
      "Ġbre": 984,
      "Ġbra": 985,
      "Ġbrit": 986,
      "Ġpat": 987,
      "Ġfood": 988,
      "Ġhome": 989,
      "lear": 990,
      "Ġrest": 991,
      "Ġgra": 992,
      "Ġstill": 993,
      "Ġrom": 994,
      "Ġjapan": 995,
      "ably": 996,
      "Ġusing": 997,
      "Ġcompany": 998,
      "Ġadd": 999,
      "Ġphot": 1000,
      "Ġpresent": 1001,
      "Ġbased": 1002,
      "Ġrequire": 1003,
      "Ġinclude": 1004,
      "Ġpopular": 1005,
      "Ġbelie": 1006,
      "Ġislands": 1007,
      "while": 1008,
      "aur": 1009,
      "de": 1010,
      "ium": 1011,
      "je": 1012,
      "mer": 1013,
      "vice": 1014,
      "Ġ6": 1015,
      "Ġty": 1016,
      "here": 1017,
      "Ġsw": 1018,
      "Ġsch": 1019,
      "Ġsite": 1020,
      "Ġsince": 1021,
      "eng": 1022,
      "Ġpark": 1023,
      "Ġinform": 1024,
      "ash": 1025,
      "these": 1026,
      "veral": 1027,
      "Ġprot": 1028,
      "Ġplac": 1029,
      "Ġgoing": 1030,
      "ize": 1031,
      "Ġscient": 1032,
      "ollow": 1033,
      "ditional": 1034,
      "Ġimportant": 1035,
      "be": 1036,
      "ca": 1037,
      "ges": 1038,
      "ires": 1039,
      "ertain": 1040,
      "Ġwide": 1041,
      "anish": 1042,
      "Ġpa": 1043,
      "Ġmight": 1044,
      "Ġtoday": 1045,
      "Ġreal": 1046,
      "Ġrese": 1047,
      "vered": 1048,
      "Ġgu": 1049,
      "cts": 1050,
      "ots": 1051,
      "vers": 1052,
      "ural": 1053,
      "Ġareas": 1054,
      "Ġorigin": 1055,
      "Ġjo": 1056,
      "Ġeng": 1057,
      "Ġinte": 1058,
      "Ġrad": 1059,
      "Ġcontro": 1060,
      "Ġpolice": 1061,
      "Ġremain": 1062,
      "Ġmonth": 1063,
      "Ġdesign": 1064,
      "Ġproble": 1065,
      "Ġmuch": 1066,
      "ograph": 1067,
      "dle": 1068,
      "wor": 1069,
      "Ġ8": 1070,
      "Ġent": 1071,
      "ined": 1072,
      "Ġciv": 1073,
      "Ġwrit": 1074,
      "ond": 1075,
      "Ġmount": 1076,
      "Ġinj": 1077,
      "Ġtop": 1078,
      "ased": 1079,
      "Ġdire": 1080,
      "lym": 1081,
      "Ġstand": 1082,
      "ters": 1083,
      "Ġexpl": 1084,
      "ody": 1085,
      "Ġleast": 1086,
      "Ġart": 1087,
      "Ġcentral": 1088,
      "Ġparticular": 1089,
      "Ġsupport": 1090,
      "Ġauthor": 1091,
      "ffect": 1092,
      "ged": 1093,
      "line": 1094,
      "Ġaust": 1095,
      "Ġoce": 1096,
      "Ġbir": 1097,
      "Ġfre": 1098,
      "Ġfil": 1099,
      "Ġdam": 1100,
      "Ġhist": 1101,
      "omm": 1102,
      "Ġthink": 1103,
      "Ġlit": 1104,
      "ctions": 1105,
      "Ġstay": 1106,
      "Ġsuc": 1107,
      "Ġsug": 1108,
      "Ġhead": 1109,
      "Ġseason": 1110,
      "acc": 1111,
      "Ġprocess": 1112,
      "osed": 1113,
      "Ġclose": 1114,
      "Ġnorm": 1115,
      "Ġtele": 1116,
      "Ġincluding": 1117,
      "Ġexperience": 1118,
      "Ġgovernment": 1119,
      "Ġafrica": 1120,
      "Ġtax": 1121,
      "Ġannoun": 1122,
      "Ġcentury": 1123,
      "Ġespecially": 1124,
      "Ġunderstand": 1125,
      "Ġinformation": 1126,
      "ger": 1127,
      "ty": 1128,
      "xt": 1129,
      "Ġour": 1130,
      "Ġolym": 1131,
      "Ġcertain": 1132,
      "itions": 1133,
      "Ġpy": 1134,
      "Ġpublic": 1135,
      "Ġthous": 1136,
      "Ġeffect": 1137,
      "Ġlight": 1138,
      "Ġur": 1139,
      "chn": 1140,
      "Ġmoder": 1141,
      "Ġval": 1142,
      "Ġsum": 1143,
      "Ġkm": 1144,
      "Ġable": 1145,
      "ized": 1146,
      "anger": 1147,
      "Ġdisco": 1148,
      "Ġbecome": 1149,
      "ailable": 1150,
      "Ġopen": 1151,
      "Ġagainst": 1152,
      "Ġmountain": 1153,
      "Ġolympic": 1154,
      "az": 1155,
      "ek": 1156,
      "ired": 1157,
      "oy": 1158,
      "ration": 1159,
      "ull": 1160,
      "Ġterm": 1161,
      "Ġtimes": 1162,
      "Ġsing": 1163,
      "Ġsent": 1164,
      "eral": 1165,
      "Ġcor": 1166,
      "iti": 1167,
      "Ġpur": 1168,
      "Ġfour": 1169,
      "Ġmid": 1170,
      "Ġant": 1171,
      "Ġhar": 1172,
      "Ġel": 1173,
      "Ġeast": 1174,
      "Ġlow": 1175,
      "though": 1176,
      "Ġwebs": 1177,
      "Ġriver": 1178,
      "Ġvir": 1179,
      "Ġexam": 1180,
      "Ġarr": 1181,
      "Ġindivid": 1182,
      "Ġspanish": 1183,
      "epend": 1184,
      "Ġappro": 1185,
      "Ġactiv": 1186,
      "Ġstudents": 1187,
      "after": 1188,
      "Ġreceived": 1189,
      "aim": 1190,
      "fort": 1191,
      "ha": 1192,
      "ming": 1193,
      "not": 1194,
      "ven": 1195,
      "ways": 1196,
      "Ġsate": 1197,
      "Ġpo": 1198,
      "Ġpower": 1199,
      "Ġfoc": 1200,
      "Ġmust": 1201,
      "Ġtow": 1202,
      "Ġhosp": 1203,
      "ential": 1204,
      "Ġless": 1205,
      "Ġlater": 1206,
      "Ġgive": 1207,
      "Ġstor": 1208,
      "Ġweek": 1209,
      "Ġorder": 1210,
      "Ġhealth": 1211,
      "Ġchina": 1212,
      "Ġ15": 1213,
      "Ġtravell": 1214,
      "idered": 1215,
      "Ġclass": 1216,
      "iew": 1217,
      "Ġphone": 1218,
      "Ġdise": 1219,
      "Ġbecom": 1220,
      "Ġmean": 1221,
      "Ġconsidered": 1222,
      "Ġaway": 1223,
      "ramid": 1224,
      "Ġinternet": 1225,
      "Ġcapital": 1226,
      "Ġpossible": 1227,
      "Ġplaces": 1228,
      "Ġcivil": 1229,
      "Ġpyramid": 1230,
      "Ġsatell": 1231,
      "Ġhospital": 1232,
      "\".": 1233,
      "ave": 1234,
      "aut": 1235,
      "ps": 1236,
      "to": 1237,
      "til": 1238,
      "when": 1239,
      "rem": 1240,
      "Ġcop": 1241,
      "Ġcould": 1242,
      "Ġcost": 1243,
      "Ġwat": 1244,
      "Ġbig": 1245,
      "ison": 1246,
      "ister": 1247,
      "Ġpot": 1248,
      "Ġfar": 1249,
      "Ġinfect": 1250,
      "Ġhold": 1251,
      "icated": 1252,
      "Ġbegan": 1253,
      "Ġretur": 1254,
      "Ġarea": 1255,
      "Ġright": 1256,
      "Ġvot": 1257,
      "Ġconf": 1258,
      "aken": 1259,
      "ests": 1260,
      "Ġdef": 1261,
      "Ġunivers": 1262,
      "Ġ10": 1263,
      "Ġ18": 1264,
      "Ġtraffic": 1265,
      "Ġimm": 1266,
      "Ġimp": 1267,
      "Ġindepend": 1268,
      "Ġroad": 1269,
      "Ġspecial": 1270,
      "Ġbook": 1271,
      "conom": 1272,
      "Ġbuild": 1273,
      "vision": 1274,
      "Ġavailable": 1275,
      "Ġstrong": 1276,
      "Ġinterest": 1277,
      "Ġdirect": 1278,
      "Ġaustral": 1279,
      "Ġsuccess": 1280,
      "),": 1281,
      "by": 1282,
      "viron": 1283,
      "ĠâĢ": 1284,
      "Ġsnow": 1285,
      "Ġcame": 1286,
      "Ġcases": 1287,
      "ane": 1288,
      "ature": 1289,
      "Ġfollow": 1290,
      "Ġmor": 1291,
      "Ġdoc": 1292,
      "Ġdanger": 1293,
      "omin": 1294,
      "Ġthir": 1295,
      "Ġlim": 1296,
      "ilar": 1297,
      "Ġref": 1298,
      "raft": 1299,
      "cell": 1300,
      "Ġcomb": 1301,
      "Ġsecon": 1302,
      "Ġseveral": 1303,
      "oss": 1304,
      "Ġ16": 1305,
      "Ġenviron": 1306,
      "Ġcomple": 1307,
      "Ġacross": 1308,
      "Ġmeans": 1309,
      "Ġpresident": 1310,
      "Ġground": 1311,
      "Ġbetter": 1312,
      "Ġinvol": 1313,
      "Ġbuilt": 1314,
      "Ġmiles": 1315,
      "Ġaffected": 1316,
      "Ġwinter": 1317,
      "Ġperson": 1318,
      "Ġbehav": 1319,
      "self": 1320,
      "Ġroman": 1321,
      "Ġsatellite": 1322,
      "Ġuniversity": 1323,
      "Ġsecond": 1324,
      "Ġenvironment": 1325,
      "hip": 1326,
      "lo": 1327,
      "life": 1328,
      "no": 1329,
      "par": 1330,
      "with": 1331,
      "Ġve": 1332,
      "inos": 1333,
      "Ġoper": 1334,
      "ern": 1335,
      "ances": 1336,
      "Ġfail": 1337,
      "Ġanother": 1338,
      "Ġinf": 1339,
      "Ġtom": 1340,
      "Ġdest": 1341,
      "Ġhun": 1342,
      "Ġhour": 1343,
      "ley": 1344,
      "Ġname": 1345,
      "Ġthreat": 1346,
      "Ġeconom": 1347,
      "Ġlens": 1348,
      "Ġstre": 1349,
      "ute": 1350,
      "thing": 1351,
      "Ġatl": 1352,
      "Ġchang": 1353,
      "Ġjoin": 1354,
      "Ġ100": 1355,
      "Ġplant": 1356,
      "ption": 1357,
      "Ġnorthern": 1358,
      "Ġamount": 1359,
      "Ġmeet": 1360,
      "Ġappe": 1361,
      "Ġski": 1362,
      "Ġpopulation": 1363,
      "Ġtemple": 1364,
      "Ġgoods": 1365,
      "Ġlearn": 1366,
      "Ġlearning": 1367,
      "Ġkeep": 1368,
      "Ġestabl": 1369,
      "Ġlanguage": 1370,
      "Ġsometimes": 1371,
      "Ġschool": 1372,
      "Ġradio": 1373,
      "Ġsuggest": 1374,
      "Ġmodern": 1375,
      "Ġsummer": 1376,
      "Ġdocu": 1377,
      "bu": 1378,
      "ches": 1379,
      "ians": 1380,
      "many": 1381,
      "oot": 1382,
      "pol": 1383,
      "tra": 1384,
      "where": 1385,
      "Ġter": 1386,
      "Ġtreat": 1387,
      "Ġsoc": 1388,
      "ergy": 1389,
      "itive": 1390,
      "Ġpath": 1391,
      "Ġfore": 1392,
      "Ġfire": 1393,
      "Ġancient": 1394,
      "icy": 1395,
      "lect": 1396,
      "ional": 1397,
      "Ġlat": 1398,
      "Ġland": 1399,
      "ames": 1400,
      "amed": 1401,
      "Ġital": 1402,
      "Ġconst": 1403,
      "Ġsuper": 1404,
      "Ġprodu": 1405,
      "Ġ11": 1406,
      "Ġleav": 1407,
      "ember": 1408,
      "Ġenough": 1409,
      "Ġenergy": 1410,
      "Ġsaf": 1411,
      "Ġcomput": 1412,
      "Ġevent": 1413,
      "hers": 1414,
      "Ġprim": 1415,
      "Ġperform": 1416,
      "Ġflow": 1417,
      "Ġsimilar": 1418,
      "ology": 1419,
      "iety": 1420,
      "Ġstarted": 1421,
      "Ġrepublic": 1422,
      "Ġspecific": 1423,
      "Ġcourse": 1424,
      "ission": 1425,
      "ography": 1426,
      "work": 1427,
      "bre": 1428,
      "ble": 1429,
      "che": 1430,
      "een": 1431,
      "man": 1432,
      "oid": 1433,
      "pp": 1434,
      "ron": 1435,
      "round": 1436,
      "side": 1437,
      "way": 1438,
      "yn": 1439,
      "Ġice": 1440,
      "inning": 1441,
      "Ġobs": 1442,
      "Ġsol": 1443,
      "Ġsport": 1444,
      "Ġcat": 1445,
      "Ġwest": 1446,
      "Ġwant": 1447,
      "Ġwomen": 1448,
      "Ġwalk": 1449,
      "ones": 1450,
      "ene": 1451,
      "atures": 1452,
      "ised": 1453,
      "Ġpast": 1454,
      "Ġmult": 1455,
      "ale": 1456,
      "Ġdon": 1457,
      "Ġnations": 1458,
      "Ġnuc": 1459,
      "Ġla": 1460,
      "Ġled": 1461,
      "Ġlot": 1462,
      "Ġliving": 1463,
      "Ġlife": 1464,
      "Ġread": 1465,
      "vere": 1466,
      "Ġgain": 1467,
      "Ġstru": 1468,
      "quent": 1469,
      "Ġju": 1470,
      "app": 1471,
      "Ġarg": 1472,
      "Ġwhether": 1473,
      "agn": 1474,
      "Ġenc": 1475,
      "Ġpeace": 1476,
      "avy": 1477,
      "Ġrock": 1478,
      "Ġtechn": 1479,
      "ruction": 1480,
      "Ġcontin": 1481,
      "Ġcommun": 1482,
      "Ġearly": 1483,
      "Ġattack": 1484,
      "Ġbring": 1485,
      "Ġbrid": 1486,
      "although": 1487,
      "Ġprobably": 1488,
      "Ġeduc": 1489,
      "Ġcheck": 1490,
      "Ġcell": 1491,
      "Ġpoint": 1492,
      "Ġcurrent": 1493,
      "ledge": 1494,
      "Ġbritish": 1495,
      "Ġmiddle": 1496,
      "Ġwebsite": 1497,
      "Ġexample": 1498,
      "Ġatlant": 1499,
      "get": 1500,
      "hn": 1501,
      "iation": 1502,
      "iant": 1503,
      "lu": 1504,
      "rist": 1505,
      "since": 1506,
      "yle": 1507,
      "Ġ-": 1508,
      "Ġtre": 1509,
      "Ġtro": 1510,
      "Ġtaken": 1511,
      "Ġcy": 1512,
      "Ġcross": 1513,
      "Ġbro": 1514,
      "Ġpract": 1515,
      "Ġfact": 1516,
      "aland": 1517,
      "Ġtook": 1518,
      "Ġhig": 1519,
      "Ġgame": 1520,
      "Ġweather": 1521,
      "ops": 1522,
      "Ġrange": 1523,
      "Ġview": 1524,
      "estig": 1525,
      "Ġuntil": 1526,
      "rench": 1527,
      "key": 1528,
      "Ġadv": 1529,
      "ield": 1530,
      "Ġrace": 1531,
      "Ġspeed": 1532,
      "Ġdoes": 1533,
      "acter": 1534,
      "Ġknowledge": 1535,
      "Ġsky": 1536,
      "Ġreports": 1537,
      "Ġeasy": 1538,
      "Ġtourist": 1539,
      "Ġinvestig": 1540,
      "Ġelect": 1541,
      "Ġgenerally": 1542,
      "Ġsignific": 1543,
      "Ġfamily": 1544,
      "Ġgermany": 1545,
      "Ġtransportation": 1546,
      "Ġcontrol": 1547,
      "Ġproblems": 1548,
      "Ġauthorities": 1549,
      "Ġannounced": 1550,
      "Ġdisease": 1551,
      "..": 1552,
      "ealand": 1553,
      "ging": 1554,
      "hod": 1555,
      "iod": 1556,
      "mit": 1557,
      "ner": 1558,
      "oes": 1559,
      "pre": 1560,
      "por": 1561,
      "ues": 1562,
      "uals": 1563,
      "Ġ7": 1564,
      "Ġir": 1565,
      "Ġver": 1566,
      "Ġaud": 1567,
      "inct": 1568,
      "ination": 1569,
      "Ġcit": 1570,
      "Ġcause": 1571,
      "ense": 1572,
      "ator": 1573,
      "Ġbody": 1574,
      "Ġpay": 1575,
      "Ġport": 1576,
      "Ġfly": 1577,
      "Ġfac": 1578,
      "Ġfair": 1579,
      "Ġtoge": 1580,
      "aster": 1581,
      "Ġdays": 1582,
      "Ġhim": 1583,
      "ically": 1584,
      "leg": 1585,
      "ention": 1586,
      "Ġissu": 1587,
      "utes": 1588,
      "Ġyoun": 1589,
      "Ġmoon": 1590,
      "ified": 1591,
      "Ġvol": 1592,
      "Ġhaving": 1593,
      "Ġneg": 1594,
      "Ġsea": 1595,
      "iven": 1596,
      "Ġalmost": 1597,
      "Ġchange": 1598,
      "Ġdeath": 1599,
      "abet": 1600,
      "Ġlevel": 1601,
      "Ġtraditional": 1602,
      "iple": 1603,
      "Ġclaim": 1604,
      "Ġcompet": 1605,
      "Ġevents": 1606,
      "ples": 1607,
      "Ġroll": 1608,
      "Ġphys": 1609,
      "Ġresp": 1610,
      "Ġlikely": 1611,
      "Ġconsider": 1612,
      "Ġrecord": 1613,
      "Ġlargest": 1614,
      "Ġmethod": 1615,
      "Ġzealand": 1616,
      "Ġprovide": 1617,
      "Ġminister": 1618,
      "Ġsmaller": 1619,
      "Ġrunning": 1620,
      "Ġmilit": 1621,
      "ique": 1622,
      "Ġlegal": 1623,
      "Ġpoints": 1624,
      "ready": 1625,
      "ency": 1626,
      "Ġhumans": 1627,
      "Ġswim": 1628,
      "according": 1629,
      "Ġnormal": 1630,
      "Ġtelevision": 1631,
      "Ġpotential": 1632,
      "Ġtogether": 1633,
      "'re": 1634,
      "ah": 1635,
      "ball": 1636,
      "cut": 1637,
      "ding": 1638,
      "ered": 1639,
      "gen": 1640,
      "gram": 1641,
      "iend": 1642,
      "of": 1643,
      "ove": 1644,
      "tc": 1645,
      "year": 1646,
      "Ġ9": 1647,
      "ream": 1648,
      "Ġsound": 1649,
      "Ġcust": 1650,
      "Ġwon": 1651,
      "Ġbar": 1652,
      "Ġbom": 1653,
      "Ġbank": 1654,
      "ither": 1655,
      "Ġpred": 1656,
      "ouse": 1657,
      "Ġdinos": 1658,
      "Ġhous": 1659,
      "Ġeither": 1660,
      "Ġlive": 1661,
      "rown": 1662,
      "ety": 1663,
      "Ġrough": 1664,
      "Ġhapp": 1665,
      "Ġexpect": 1666,
      "Ġalthough": 1667,
      "Ġcannot": 1668,
      "uss": 1669,
      "Ġprogram": 1670,
      "Ġabs": 1671,
      "ishing": 1672,
      "oney": 1673,
      "Ġindian": 1674,
      "Ġprin": 1675,
      "Ġprime": 1676,
      "Ġrelig": 1677,
      "Ġrelative": 1678,
      "Ġquite": 1679,
      "Ġeasily": 1680,
      "Ġregion": 1681,
      "Ġregular": 1682,
      "Ġrequires": 1683,
      "Ġserved": 1684,
      "Ġhowever": 1685,
      "Ġinternational": 1686,
      "Ġdistinct": 1687,
      "Ġfamil": 1688,
      "Ġmembers": 1689,
      "Ġdeterm": 1690,
      "Ġorganization": 1691,
      "Ġroutes": 1692,
      "Ġpatient": 1693,
      "ject": 1694,
      "Ġtype": 1695,
      "Ġoriginal": 1696,
      "Ġjohn": 1697,
      "Ġocean": 1698,
      "Ġhistory": 1699,
      "Ġthousands": 1700,
      "Ġindividuals": 1701,
      "Ġestablished": 1702,
      "Ġsafety": 1703,
      "Ġcitiz": 1704,
      "Ġdinosaur": 1705,
      "\",": 1706,
      "cy": 1707,
      "cent": 1708,
      "duc": 1709,
      "hic": 1710,
      "off": 1711,
      "pa": 1712,
      "vices": 1713,
      "xim": 1714,
      "zil": 1715,
      "reg": 1716,
      "Ġoc": 1717,
      "ont": 1718,
      "Ġbot": 1719,
      "Ġpain": 1720,
      "Ġfast": 1721,
      "Ġfrench": 1722,
      "Ġfield": 1723,
      "Ġmen": 1724,
      "Ġmakes": 1725,
      "ales": 1726,
      "Ġtown": 1727,
      "Ġdi": 1728,
      "Ġhal": 1729,
      "Ġhouse": 1730,
      "Ġlost": 1731,
      "Ġrele": 1732,
      "Ġreason": 1733,
      "Ġgames": 1734,
      "rain": 1735,
      "idents": 1736,
      "ami": 1737,
      "oph": 1738,
      "Ġvide": 1739,
      "Ġconne": 1740,
      "Ġfriend": 1741,
      "Ġhere": 1742,
      "Ġcome": 1743,
      "Ġnecess": 1744,
      "ival": 1745,
      "aches": 1746,
      "Ġalready": 1747,
      "Ġchur": 1748,
      "ighb": 1749,
      "Ġprof": 1750,
      "Ġships": 1751,
      "Ġ17": 1752,
      "arding": 1753,
      "aged": 1754,
      "Ġsafe": 1755,
      "Ġtrip": 1756,
      "Ġothers": 1757,
      "Ġago": 1758,
      "Ġoffice": 1759,
      "Ġpriv": 1760,
      "Ġspace": 1761,
      "Ġoutside": 1762,
      "Ġperiod": 1763,
      "Ġpresence": 1764,
      "Ġflight": 1765,
      "Ġrelations": 1766,
      "Ġquick": 1767,
      "Ġworking": 1768,
      "Ġ199": 1769,
      "Ġlocated": 1770,
      "Ġmetro": 1771,
      "Ġvisiting": 1772,
      "Ġminutes": 1773,
      "Ġsouthern": 1774,
      "Ġsurround": 1775,
      "Ġassoc": 1776,
      "Ġnearly": 1777,
      "Ġeuropean": 1778,
      "Ġmember": 1779,
      "Ġtrying": 1780,
      "Ġscientists": 1781,
      "Ġresearch": 1782,
      "Ġfrequent": 1783,
      "Ġfilm": 1784,
      "Ġdamage": 1785,
      "Ġactivity": 1786,
      "Ġmeaning": 1787,
      "Ġaustralia": 1788,
      "Ġbehavior": 1789,
      "Ġbridge": 1790,
      "Ġsignificant": 1791,
      "20": 1792,
      "br": 1793,
      "but": 1794,
      "ditions": 1795,
      "face": 1796,
      "go": 1797,
      "gress": 1798,
      "ham": 1799,
      "hab": 1800,
      "lin": 1801,
      "lation": 1802,
      "less": 1803,
      "ns": 1804,
      "pical": 1805,
      "ring": 1806,
      "sp": 1807,
      "tes": 1808,
      "uel": 1809,
      "yond": 1810,
      "Ġil": 1811,
      "Ġsle": 1812,
      "Ġsour": 1813,
      "Ġcrit": 1814,
      "Ġcru": 1815,
      "Ġcare": 1816,
      "Ġclear": 1817,
      "ann": 1818,
      "ata": 1819,
      "Ġbat": 1820,
      "estern": 1821,
      "iting": 1822,
      "Ġphen": 1823,
      "Ġfree": 1824,
      "Ġfull": 1825,
      "Ġmic": 1826,
      "alan": 1827,
      "ality": 1828,
      "also": 1829,
      "aring": 1830,
      "arily": 1831,
      "asons": 1832,
      "ics": 1833,
      "Ġnon": 1834,
      "Ġnet": 1835,
      "Ġnation": 1836,
      "Ġegy": 1837,
      "Ġetc": 1838,
      "Ġlist": 1839,
      "ilities": 1840,
      "Ġbeaut": 1841,
      "Ġgal": 1842,
      "ray": 1843,
      "Ġstop": 1844,
      "uts": 1845,
      "Ġmos": 1846,
      "iff": 1847,
      "ify": 1848,
      "ope": 1849,
      "Ġrather": 1850,
      "ills": 1851,
      "Ġkill": 1852,
      "Ġneighb": 1853,
      "istan": 1854,
      "Ġalways": 1855,
      "Ġdecl": 1856,
      "apt": 1857,
      "ending": 1858,
      "Ġability": 1859,
      "Ġtrain": 1860,
      "ude": 1861,
      "ogn": 1862,
      "Ġoffer": 1863,
      "Ġprior": 1864,
      "Ġdisc": 1865,
      "Ġbecame": 1866,
      "Ġcarr": 1867,
      "Ġdiff": 1868,
      "Ġrelated": 1869,
      "Ġeastern": 1870,
      "Ġneeded": 1871,
      "Ġtourists": 1872,
      "Ġmedical": 1873,
      "Ġsurv": 1874,
      "Ġlonger": 1875,
      "Ġafrican": 1876,
      "Ġplanning": 1877,
      "Ġlanguages": 1878,
      "Ġamerica": 1879,
      "Ġwildlife": 1880,
      "Ġgreen": 1881,
      "Ġbreak": 1882,
      "Ġrequirements": 1883,
      "Ġlittle": 1884,
      "Ġelse": 1885,
      "Ġtowards": 1886,
      "Ġbiggest": 1887,
      "Ġforeign": 1888,
      "Ġcomputer": 1889,
      "Ġobser": 1890,
      "Ġrelatively": 1891,
      "Ġcitizens": 1892,
      "Ġegypt": 1893,
      ",\"": 1894,
      "bl": 1895,
      "bur": 1896,
      "dr": 1897,
      "during": 1898,
      "light": 1899,
      "mar": 1900,
      "ov": 1901,
      "pr": 1902,
      "pes": 1903,
      "poin": 1904,
      "rom": 1905,
      "uck": 1906,
      "vious": 1907,
      "Ġident": 1908,
      "Ġten": 1909,
      "Ġtest": 1910,
      "Ġcou": 1911,
      "Ġcities": 1912,
      "Ġbal": 1913,
      "Ġball": 1914,
      "Ġbord": 1915,
      "Ġpen": 1916,
      "Ġput": 1917,
      "Ġfest": 1918,
      "Ġface": 1919,
      "Ġmus": 1920,
      "Ġmix": 1921,
      "Ġmoney": 1922,
      "Ġdark": 1923,
      "Ġhor": 1924,
      "Ġhur": 1925,
      "Ġhard": 1926,
      "ication": 1927,
      "omp": 1928,
      "omatic": 1929,
      "Ġgod": 1930,
      "ows": 1931,
      "Ġforces": 1932,
      "olic": 1933,
      "Ġask": 1934,
      "Ġround": 1935,
      "Ġheld": 1936,
      "Ġcomes": 1937,
      "Ġcomfort": 1938,
      "Ġjour": 1939,
      "Ġcanad": 1940,
      "ush": 1941,
      "Ġdem": 1942,
      "Ġproper": 1943,
      "unch": 1944,
      "aper": 1945,
      "ems": 1946,
      "Ġwords": 1947,
      "ipl": 1948,
      "ulture": 1949,
      "agement": 1950,
      "Ġphil": 1951,
      "Ġfeet": 1952,
      "Ġfeel": 1953,
      "Ġrare": 1954,
      "Ġpercent": 1955,
      "Ġcenter": 1956,
      "Ġformer": 1957,
      "Ġservice": 1958,
      "Ġaccident": 1959,
      "Ġpositive": 1960,
      "Ġmanagement": 1961,
      "Ġcultural": 1962,
      "Ġmatch": 1963,
      "Ġmatter": 1964,
      "Ġgeneral": 1965,
      "Ġextra": 1966,
      "Ġcele": 1967,
      "ological": 1968,
      "Ġavoid": 1969,
      "Ġcaused": 1970,
      "iking": 1971,
      "Ġbrazil": 1972,
      "Ġadded": 1973,
      "Ġwriting": 1974,
      "Ġinjur": 1975,
      "Ġdiscovered": 1976,
      "Ġapproach": 1977,
      "Ġstorm": 1978,
      "Ġdangerous": 1979,
      "Ġlimited": 1980,
      "Ġvehic": 1981,
      "Ġproduction": 1982,
      "Ġstruct": 1983,
      "Ġcycl": 1984,
      "Ġmilitary": 1985,
      "Ġbomb": 1986,
      "Ġroughly": 1987,
      "duced": 1988,
      "ai": 1989,
      "bit": 1990,
      "bour": 1991,
      "based": 1992,
      "cu": 1993,
      "chers": 1994,
      "des": 1995,
      "ex": 1996,
      "iw": 1997,
      "ien": 1998,
      "ipe": 1999,
      "iate": 2000,
      "lish": 2001,
      "over": 2002,
      "ply": 2003,
      "pite": 2004,
      "sure": 2005,
      "sue": 2006,
      "tw": 2007,
      "tal": 2008,
      "tic": 2009,
      "tual": 2010,
      "yal": 2011,
      "Ġer": 2012,
      "Ġtend": 2013,
      "Ġtick": 2014,
      "Ġtaking": 2015,
      "Ġara": 2016,
      "iness": 2017,
      "erg": 2018,
      "Ġcle": 2019,
      "Ġcase": 2020,
      "atives": 2021,
      "Ġbor": 2022,
      "Ġbud": 2023,
      "ites": 2024,
      "itial": 2025,
      "itical": 2026,
      "itable": 2027,
      "itte": 2028,
      "Ġpal": 2029,
      "Ġpet": 2030,
      "Ġpost": 2031,
      "Ġfur": 2032,
      "Ġfive": 2033,
      "Ġmaking": 2034,
      "Ġmagn": 2035,
      "oura": 2036,
      "Ġinitial": 2037,
      "asure": 2038,
      "Ġdra": 2039,
      "Ġdied": 2040,
      "icult": 2041,
      "omer": 2042,
      "Ġnin": 2043,
      "Ġbeyond": 2044,
      "Ġred": 2045,
      "ided": 2046,
      "iding": 2047,
      "idence": 2048,
      "cel": 2049,
      "etic": 2050,
      "imb": 2051,
      "Ġonce": 2052,
      "Ġstyle": 2053,
      "olution": 2054,
      "Ġmob": 2055,
      "oper": 2056,
      "opes": 2057,
      "ules": 2058,
      "Ġrise": 2059,
      "Ġwithin": 2060,
      "Ġvict": 2061,
      "Ġconditions": 2062,
      "Ġsure": 2063,
      "Ġfront": 2064,
      "people": 2065,
      "Ġnever": 2066,
      "Ġnext": 2067,
      "Ġexist": 2068,
      "Ġsevere": 2069,
      "que": 2070,
      "using": 2071,
      "ateg": 2072,
      "Ġlet": 2073,
      "aps": 2074,
      "Ġuses": 2075,
      "ipp": 2076,
      "Ġ24": 2077,
      "ptember": 2078,
      "Ġmostly": 2079,
      "Ġoffers": 2080,
      "Ġimpro": 2081,
      "Ġroyal": 2082,
      "Ġaccess": 2083,
      "Ġcars": 2084,
      "ensive": 2085,
      "Ġcovered": 2086,
      "Ġpolicy": 2087,
      "Ġvisa": 2088,
      "Ġgrand": 2089,
      "Ġquest": 2090,
      "Ġbase": 2091,
      "Ġprec": 2092,
      "Ġblock": 2093,
      "Ġrequired": 2094,
      "Ġtourism": 2095,
      "Ġserious": 2096,
      "Ġaccording": 2097,
      "Ġstudy": 2098,
      "Ġattract": 2099,
      "Ġdrink": 2100,
      "Ġdriving": 2101,
      "Ġmarch": 2102,
      "Ġelements": 2103,
      "Ġcrash": 2104,
      "Ġvarious": 2105,
      "Ġextrem": 2106,
      "Ġhelped": 2107,
      "Ġparticip": 2108,
      "Ġdevelopment": 2109,
      "Ġpassed": 2110,
      "Ġspecies": 2111,
      "Ġobtain": 2112,
      "Ġgerman": 2113,
      "Ġcourt": 2114,
      "Ġbusiness": 2115,
      "Ġconcent": 2116,
      "Ġsomething": 2117,
      "Ġhotels": 2118,
      "Ġroute": 2119,
      "Ġcreated": 2120,
      "Ġbeginning": 2121,
      "Ġgreater": 2122,
      "Ġarmy": 2123,
      "Ġjapanese": 2124,
      "Ġbelieved": 2125,
      "Ġscientific": 2126,
      "Ġenglish": 2127,
      "Ġinjured": 2128,
      "Ġbirds": 2129,
      "Ġbecomes": 2130,
      "Ġwatch": 2131,
      "Ġconfir": 2132,
      "Ġimmed": 2133,
      "Ġindependence": 2134,
      "Ġthird": 2135,
      "Ġchanged": 2136,
      "built": 2137,
      "Ġatlantic": 2138,
      "Ġadvance": 2139,
      "Ġyoung": 2140,
      "Ġhappen": 2141,
      "Ġdetermine": 2142,
      "parent": 2143,
      "Ġquickly": 2144,
      "Ġsleep": 2145,
      "Ġnetwork": 2146,
      "Ġcouple": 2147,
      "ittee": 2148,
      "50": 2149,
      "ax": 2150,
      "can": 2151,
      "come": 2152,
      "craft": 2153,
      "do": 2154,
      "ded": 2155,
      "gs": 2156,
      "gin": 2157,
      "just": 2158,
      "joy": 2159,
      "li": 2160,
      "mi": 2161,
      "night": 2162,
      "right": 2163,
      "sh": 2164,
      "she": 2165,
      "ture": 2166,
      "ward": 2167,
      "Ġiron": 2168,
      "Ġtar": 2169,
      "Ġaug": 2170,
      "ino": 2171,
      "Ġsan": 2172,
      "Ġside": 2173,
      "Ġsix": 2174,
      "Ġsize": 2175,
      "Ġcoll": 2176,
      "Ġwall": 2177,
      "Ġways": 2178,
      "ona": 2179,
      "enz": 2180,
      "Ġbab": 2181,
      "Ġbrough": 2182,
      "Ġpubl": 2183,
      "Ġfed": 2184,
      "Ġfoot": 2185,
      "Ġmass": 2186,
      "ingly": 2187,
      "Ġtoo": 2188,
      "Ġdru": 2189,
      "Ġdream": 2190,
      "Ġnomin": 2191,
      "Ġequ": 2192,
      "enth": 2193,
      "ented": 2194,
      "Ġrev": 2195,
      "Ġreact": 2196,
      "Ġgree": 2197,
      "Ġgiant": 2198,
      "raq": 2199,
      "ctic": 2200,
      "iment": 2201,
      "ote": 2202,
      "ament": 2203,
      "chie": 2204,
      "Ġaspect": 2205,
      "Ġvi": 2206,
      "Ġfrance": 2207,
      "Ġkan": 2208,
      "Ġheavy": 2209,
      "orts": 2210,
      "Ġsepar": 2211,
      "Ġseptember": 2212,
      "Ġchrist": 2213,
      "Ġprote": 2214,
      "Ġshop": 2215,
      "Ġunion": 2216,
      "fered": 2217,
      "Ġabu": 2218,
      "Ġabove": 2219,
      "Ġenjoy": 2220,
      "Ġclock": 2221,
      "Ġadditional": 2222,
      "pted": 2223,
      "Ġindia": 2224,
      "Ġprom": 2225,
      "Ġaccept": 2226,
      "Ġdispl": 2227,
      "Ġspeak": 2228,
      "active": 2229,
      "Ġtwent": 2230,
      "Ġamong": 2231,
      "augh": 2232,
      "Ġsole": 2233,
      "Ġcook": 2234,
      "Ġpolitical": 2235,
      "rict": 2236,
      "Ġconsist": 2237,
      "Ġrecent": 2238,
      "Ġrecogn": 2239,
      "Ġwarning": 2240,
      "Ġdifferen": 2241,
      "Ġskills": 2242,
      "Ġairport": 2243,
      "Ġanything": 2244,
      "Ġeasier": 2245,
      "Ġlarger": 2246,
      "Ġ196": 2247,
      "Ġfinal": 2248,
      "Ġfinished": 2249,
      "Ġtemper": 2250,
      "Ġsurface": 2251,
      "Ġvariety": 2252,
      "Ġofficers": 2253,
      "Ġsym": 2254,
      "iques": 2255,
      "Ġearthqu": 2256,
      "Ġrepres": 2257,
      "Ġpassport": 2258,
      "Ġsteep": 2259,
      "Ġlegis": 2260,
      "Ġsaying": 2261,
      "Ġconcern": 2262,
      "Ġcolon": 2263,
      "Ġamerican": 2264,
      "Ġofficials": 2265,
      "Ġmarket": 2266,
      "Ġsitu": 2267,
      "Ġcamping": 2268,
      "Ġbrain": 2269,
      "Ġbritain": 2270,
      "ength": 2271,
      "Ġresear": 2272,
      "Ġremaining": 2273,
      "Ġmountains": 2274,
      "Ġvirus": 2275,
      "Ġbecoming": 2276,
      "Ġroads": 2277,
      "Ġinteresting": 2278,
      "Ġfollowed": 2279,
      "Ġinvolved": 2280,
      "Ġlenses": 2281,
      "Ġskiing": 2282,
      "Ġdocuments": 2283,
      "Ġlatin": 2284,
      "Ġmultiple": 2285,
      "Ġnuclear": 2286,
      "Ġjuly": 2287,
      "Ġeducation": 2288,
      "Ġphysical": 2289,
      "Ġfamilies": 2290,
      "Ġhalf": 2291,
      "Ġvideo": 2292,
      "Ġchurch": 2293,
      "Ġborders": 2294,
      "Ġinjuries": 2295,
      "Ġimprove": 2296,
      "Ġextreme": 2297,
      "Ġaugust": 2298,
      "Ġbrought": 2299,
      "30": 2300,
      "89": 2301,
      "dar": 2302,
      "hips": 2303,
      "jar": 2304,
      "know": 2305,
      "lag": 2306,
      "lines": 2307,
      "met": 2308,
      "scient": 2309,
      "ton": 2310,
      "ux": 2311,
      "uary": 2312,
      "viet": 2313,
      "ws": 2314,
      "Ã¡": 2315,
      "Ġtut": 2316,
      "iny": 2317,
      "rel": 2318,
      "Ġsam": 2319,
      "Ġcas": 2320,
      "Ġcav": 2321,
      "Ġwav": 2322,
      "Ġwestern": 2323,
      "onst": 2324,
      "anc": 2325,
      "atural": 2326,
      "Ġbill": 2327,
      "itness": 2328,
      "itution": 2329,
      "Ġpan": 2330,
      "Ġpack": 2331,
      "Ġfight": 2332,
      "Ġmr": 2333,
      "Ġmy": 2334,
      "Ġmot": 2335,
      "Ġmind": 2336,
      "ories": 2337,
      "ouble": 2338,
      "ara": 2339,
      "Ġtool": 2340,
      "Ġdyn": 2341,
      "Ġhy": 2342,
      "Ġhit": 2343,
      "Ġhiking": 2344,
      "icism": 2345,
      "Ġnamed": 2346,
      "Ġep": 2347,
      "Ġeat": 2348,
      "Ġlay": 2349,
      "Ġlab": 2350,
      "ils": 2351,
      "Ġreach": 2352,
      "Ġgl": 2353,
      "Ġones": 2354,
      "oty": 2355,
      "Ġstar": 2356,
      "Ġstated": 2357,
      "Ġstory": 2358,
      "ades": 2359,
      "Ġmoving": 2360,
      "Ġrat": 2361,
      "Ġrug": 2362,
      "Ġvary": 2363,
      "Ġatoms": 2364,
      "Ġje": 2365,
      "una": 2366,
      "Ġshar": 2367,
      "Ġunique": 2368,
      "oded": 2369,
      "apore": 2370,
      "Ġplants": 2371,
      "ume": 2372,
      "Ġarch": 2373,
      "Ġword": 2374,
      "Ġgoal": 2375,
      "Ġclos": 2376,
      "Ġclub": 2377,
      "Ġwilling": 2378,
      "Ġ25": 2379,
      "Ġcompan": 2380,
      "Ġadm": 2381,
      "oga": 2382,
      "Ġsched": 2383,
      "Ġages": 2384,
      "Ġagree": 2385,
      "Ġimage": 2386,
      "Ġindic": 2387,
      "Ġfeatures": 2388,
      "Ġsoviet": 2389,
      "Ġcommittee": 2390,
      "Ġcoast": 2391,
      "cks": 2392,
      "âĢĿ": 2393,
      "Ġqueen": 2394,
      "Ġbasic": 2395,
      "Ġairline": 2396,
      "Ġshowed": 2397,
      "Ġblack": 2398,
      "Ġneeds": 2399,
      "Ġservices": 2400,
      "Ġtraveling": 2401,
      "Ġmedit": 2402,
      "ney": 2403,
      "ressed": 2404,
      "Ġvisitors": 2405,
      "Ġaward": 2406,
      "Ġanimal": 2407,
      "Ġtempor": 2408,
      "anks": 2409,
      "Ġmillions": 2410,
      "Ġopp": 2411,
      "Ġchem": 2412,
      "Ġdeveloped": 2413,
      "Ġeveryone": 2414,
      "Ġ40": 2415,
      "Ġallows": 2416,
      "Ġturkey": 2417,
      "ornad": 2418,
      "Ġincre": 2419,
      "Ġwidely": 2420,
      "Ġproblem": 2421,
      "Ġhistor": 2422,
      "Ġtaxes": 2423,
      "Ġvalley": 2424,
      "Ġarrived": 2425,
      "Ġapproxim": 2426,
      "Ġindependent": 2427,
      "Ġbuildings": 2428,
      "Ġcombined": 2429,
      "Ġinflu": 2430,
      "Ġitalian": 2431,
      "Ġleaving": 2432,
      "Ġcatalan": 2433,
      "Ġlaunch": 2434,
      "Ġencoura": 2435,
      "Ġcells": 2436,
      "Ġhigher": 2437,
      "Ġnegative": 2438,
      "Ġrespons": 2439,
      "Ġrecorded": 2440,
      "Ġswimming": 2441,
      "Ġabsol": 2442,
      "Ġoccur": 2443,
      "Ġbott": 2444,
      "Ġsurrounding": 2445,
      "Ġsource": 2446,
      "Ġphenomen": 2447,
      "Ġdifficult": 2448,
      "Ġgreenland": 2449,
      "Ġfestiv": 2450,
      "Ġcelebr": 2451,
      "ipelag": 2452,
      "Ġfurther": 2453,
      "Ġnominations": 2454,
      "scientists": 2455,
      "Ġschedul": 2456,
      "aign": 2457,
      "bal": 2458,
      "back": 2459,
      "cer": 2460,
      "ched": 2461,
      "dro": 2462,
      "ecut": 2463,
      "gar": 2464,
      "iers": 2465,
      "ored": 2466,
      "pers": 2467,
      "pread": 2468,
      "run": 2469,
      "rib": 2470,
      "rons": 2471,
      "ued": 2472,
      "vir": 2473,
      "Ġtens": 2474,
      "Ġtues": 2475,
      "Ġtiny": 2476,
      "Ġachie": 2477,
      "Ġoil": 2478,
      "Ġoption": 2479,
      "Ġsend": 2480,
      "ert": 2481,
      "erv": 2482,
      "Ġcal": 2483,
      "Ġcam": 2484,
      "Ġwent": 2485,
      "enous": 2486,
      "atur": 2487,
      "Ġbh": 2488,
      "Ġber": 2489,
      "Ġbed": 2490,
      "Ġbce": 2491,
      "isk": 2492,
      "Ġpil": 2493,
      "Ġpak": 2494,
      "Ġpull": 2495,
      "Ġfif": 2496,
      "Ġfill": 2497,
      "Ġmig": 2498,
      "Ġmold": 2499,
      "Ġdone": 2500,
      "Ġhol": 2501,
      "Ġnative": 2502,
      "Ġthin": 2503,
      "Ġever": 2504,
      "Ġeth": 2505,
      "Ġeight": 2506,
      "Ġlate": 2507,
      "Ġlake": 2508,
      "Ġbeaches": 2509,
      "Ġrepl": 2510,
      "Ġrebuilt": 2511,
      "stain": 2512,
      "Ġgas": 2513,
      "Ġglo": 2514,
      "roy": 2515,
      "eth": 2516,
      "imin": 2517,
      "Ġstra": 2518,
      "Ġstep": 2519,
      "seum": 2520,
      "Ġyet": 2521,
      "lling": 2522,
      "ula": 2523,
      "Ġru": 2524,
      "Ġrich": 2525,
      "Ġrisk": 2526,
      "Ġwhite": 2527,
      "Ġcongress": 2528,
      "aki": 2529,
      "Ġkong": 2530,
      "Ġexecut": 2531,
      "Ġseen": 2532,
      "Ġsearch": 2533,
      "Ġchair": 2534,
      "Ġjud": 2535,
      "Ġdel": 2536,
      "Ġshort": 2537,
      "ively": 2538,
      "Ġplum": 2539,
      "Ġtradition": 2540,
      "ustry": 2541,
      "Ġenem": 2542,
      "izations": 2543,
      "Ġcompl": 2544,
      "Ġtrial": 2545,
      "Ġadvice": 2546,
      "Ġadapt": 2547,
      "ibility": 2548,
      "Ġscience": 2549,
      "Ġscene": 2550,
      "Ġevidence": 2551,
      "Ġagric": 2552,
      "Ġindustry": 2553,
      "Ġspring": 2554,
      "Ġrespect": 2555,
      "Ġnews": 2556,
      "Ġwhole": 2557,
      "Ġformat": 2558,
      "Ġformed": 2559,
      "Ġcover": 2560,
      "Ġrecomm": 2561,
      "Ġthroughout": 2562,
      "Ġshows": 2563,
      "Ġworks": 2564,
      "Ġserve": 2565,
      "Ġ197": 2566,
      "Ġdriver": 2567,
      "Ġsimply": 2568,
      "Ġcharge": 2569,
      "Ġcharacter": 2570,
      "Ġextended": 2571,
      "Ġgovernments": 2572,
      "Ġsigns": 2573,
      "Ġfamous": 2574,
      "Ġexpressed": 2575,
      "Ġeverything": 2576,
      "Ġobje": 2577,
      "Ġmuseum": 2578,
      "idespread": 2579,
      "Ġstatement": 2580,
      "fficient": 2581,
      "Ġcenturies": 2582,
      "Ġconcer": 2583,
      "fully": 2584,
      "Ġkingd": 2585,
      "Ġfalling": 2586,
      "Ġdidn": 2587,
      "Ġhuman": 2588,
      "Ġsites": 2589,
      "Ġcampaign": 2590,
      "Ġaddress": 2591,
      "Ġmonths": 2592,
      "Ġwritten": 2593,
      "Ġnormally": 2594,
      "Ġunderstanding": 2595,
      "Ġthousand": 2596,
      "Ġeffects": 2597,
      "Ġolympics": 2598,
      "Ġsingapore": 2599,
      "Ġtravellers": 2600,
      "Ġpyramids": 2601,
      "Ġreturn": 2602,
      "Ġreturning": 2603,
      "Ġmorning": 2604,
      "Ġtombs": 2605,
      "Ġeconomy": 2606,
      "Ġmeeting": 2607,
      "Ġdocument": 2608,
      "police": 2609,
      "Ġsocial": 2610,
      "Ġleaves": 2611,
      "break": 2612,
      "Ġtreasure": 2613,
      "Ġiran": 2614,
      "Ġfairly": 2615,
      "Ġissued": 2616,
      "Ġclaimed": 2617,
      "Ġreligious": 2618,
      "Ġilleg": 2619,
      "Ġbeauty": 2620,
      "Ġneighbor": 2621,
      "ova": 2622,
      "Ġcomfortable": 2623,
      "Ġvehicle": 2624,
      "Ġclean": 2625,
      "Ġconfirm": 2626,
      "Ġgreek": 2627,
      "Ġkanjar": 2628,
      "aught": 2629,
      "Ġearthquake": 2630,
      "Ġarchipelag": 2631,
      "Ġchemical": 2632,
      "Ġapproximately": 2633,
      "Ġtuesday": 2634,
      "Ġpakistan": 2635,
      "Ġexecutive": 2636,
      "10": 2637,
      "19": 2638,
      "500": 2639,
      "aff": 2640,
      "cing": 2641,
      "comm": 2642,
      "ders": 2643,
      "hand": 2644,
      "iations": 2645,
      "lf": 2646,
      "ma": 2647,
      "nal": 2648,
      "oke": 2649,
      "rs": 2650,
      "ria": 2651,
      "rane": 2652,
      "sun": 2653,
      "spect": 2654,
      "tod": 2655,
      "up": 2656,
      "ware": 2657,
      "ya": 2658,
      "you": 2659,
      "ze": 2660,
      "Ġic": 2661,
      "Ġill": 2662,
      "Ġvers": 2663,
      "Ġtib": 2664,
      "Ġtsun": 2665,
      "Ġath": 2666,
      "hest": 2667,
      "Ġtheory": 2668,
      "reoty": 2669,
      "Ġsad": 2670,
      "Ġsand": 2671,
      "Ġsense": 2672,
      "ĠsÃ¡": 2673,
      "Ġcold": 2674,
      "Ġcreat": 2675,
      "Ġcards": 2676,
      "Ġcrow": 2677,
      "Ġcateg": 2678,
      "ani": 2679,
      "atus": 2680,
      "Ġband": 2681,
      "Ġbacter": 2682,
      "ision": 2683,
      "isation": 2684,
      "Ġmap": 2685,
      "orter": 2686,
      "Ġoffered": 2687,
      "Ġinhab": 2688,
      "Ġdig": 2689,
      "Ġdate": 2690,
      "Ġhon": 2691,
      "Ġhong": 2692,
      "letes": 2693,
      "Ġthing": 2694,
      "Ġthick": 2695,
      "Ġlib": 2696,
      "Ġlack": 2697,
      "Ġlength": 2698,
      "Ġredu": 2699,
      "Ġgard": 2700,
      "Ġgrow": 2701,
      "Ġgiven": 2702,
      "Ġisol": 2703,
      "cted": 2704,
      "ceed": 2705,
      "etan": 2706,
      "Ġonline": 2707,
      "Ġstage": 2708,
      "Ġstars": 2709,
      "Ġforce": 2710,
      "ola": 2711,
      "urance": 2712,
      "Ġyoga": 2713,
      "Ġweb": 2714,
      "Ġruss": 2715,
      "Ġvill": 2716,
      "Ġconvent": 2717,
      "Ġsuitable": 2718,
      "Ġsustain": 2719,
      "Ġsuspect": 2720,
      "Ġherit": 2721,
      "Ġneut": 2722,
      "Ġsec": 2723,
      "Ġchamp": 2724,
      "Ġjr": 2725,
      "Ġjan": 2726,
      "Ġdead": 2727,
      "Ġdeity": 2728,
      "Ġprose": 2729,
      "une": 2730,
      "Ġship": 2731,
      "Ġleak": 2732,
      "Ġleft": 2733,
      "Ġplate": 2734,
      "Ġworth": 2735,
      "asty": 2736,
      "Ġgoes": 2737,
      "Ġgoals": 2738,
      "ags": 2739,
      "eland": 2740,
      "Ġsave": 2741,
      "Ġtrouble": 2742,
      "Ġadult": 2743,
      "Ġadvis": 2744,
      "Ġscre": 2745,
      "Ġagent": 2746,
      "Ġagents": 2747,
      "ief": 2748,
      "plic": 2749,
      "Ġimpl": 2750,
      "Ġindicated": 2751,
      "Ġspok": 2752,
      "Ġfeather": 2753,
      "Ġovernight": 2754,
      "Ġtex": 2755,
      "Ġresidents": 2756,
      "force": 2757,
      "ruption": 2758,
      "Ġcarry": 2759,
      "acts": 2760,
      "Ġparts": 2761,
      "Ġparty": 2762,
      "arks": 2763,
      "Ġyourself": 2764,
      "ffiti": 2765,
      "Ġapparent": 2766,
      "Ġcommer": 2767,
      "Ġcommission": 2768,
      "Ġpoll": 2769,
      "Ġprevent": 2770,
      "Ġprevious": 2771,
      "Ġaircraft": 2772,
      "Ġboots": 2773,
      "Ġblog": 2774,
      "Ġgetting": 2775,
      "Ġactual": 2776,
      "Ġmedia": 2777,
      "Ġdrivers": 2778,
      "Ġbelow": 2779,
      "Ġelection": 2780,
      "Ġsimple": 2781,
      "insula": 2782,
      "Ġgovernor": 2783,
      "Ġsigned": 2784,
      "Ġii": 2785,
      "Ġiraq": 2786,
      "Ġmainly": 2787,
      "Ġemerg": 2788,
      "Ġseek": 2789,
      "Ġdeveloping": 2790,
      "Ġstereoty": 2791,
      "Ġslow": 2792,
      "Ġestim": 2793,
      "Ġreportedly": 2794,
      "Ġinside": 2795,
      "Ġhotel": 2796,
      "Ġ2010": 2797,
      "Ġhosted": 2798,
      "selves": 2799,
      "Ġdepend": 2800,
      "Ġplayer": 2801,
      "Ġfalls": 2802,
      "Ġarmen": 2803,
      "Ġgroups": 2804,
      "Ġsitting": 2805,
      "Ġgraffiti": 2806,
      "Ġphotography": 2807,
      "Ġ60": 2808,
      "Ġparent": 2809,
      "Ġengine": 2810,
      "Ġcontroll": 2811,
      "Ġparticularly": 2812,
      "Ġbird": 2813,
      "Ġcorre": 2814,
      "Ġindividual": 2815,
      "Ġfocused": 2816,
      "Ġinfected": 2817,
      "Ġbuilding": 2818,
      "Ġcomplex": 2819,
      "Ġcomplete": 2820,
      "Ġfailure": 2821,
      "Ġchanges": 2822,
      "Ġjoined": 2823,
      "Ġterrain": 2824,
      "Ġsociety": 2825,
      "Ġitaly": 2826,
      "Ġprimary": 2827,
      "Ġsports": 2828,
      "Ġwalking": 2829,
      "Ġreading": 2830,
      "Ġelectric": 2831,
      "...": 2832,
      "Ġaudience": 2833,
      "Ġcustoms": 2834,
      "Ġhousing": 2835,
      "Ġdistinctive": 2836,
      "Ġprofess": 2837,
      "Ġmicro": 2838,
      "Ġtraining": 2839,
      "Ġpeninsula": 2840,
      "Ġmusic": 2841,
      "Ġasked": 2842,
      "Ġcanada": 2843,
      "Ġtickets": 2844,
      "Ġletter": 2845,
      "Ġhappened": 2846,
      "Ġviol": 2847,
      "Ġabuse": 2848,
      "Ġtwenty": 2849,
      "Ġrepresent": 2850,
      "Ġlegislation": 2851,
      "Ġsituation": 2852,
      "Ġresearchers": 2853,
      "Ġdynasty": 2854,
      "Ġrugby": 2855,
      "Ġcompanies": 2856,
      "Ġoccurred": 2857,
      "Ġbottom": 2858,
      "Ġphenomenon": 2859,
      "Ġfestivals": 2860,
      "Ġscheduled": 2861,
      "today": 2862,
      "Ġiceland": 2863,
      "Ġtibetan": 2864,
      "Ġtsunami": 2865,
      "Ġheritage": 2866,
      "Ġfeathers": 2867,
      "bi": 2868,
      "cas": 2869,
      "den": 2870,
      "ell": 2871,
      "eper": 2872,
      "every": 2873,
      "each": 2874,
      "hu": 2875,
      "his": 2876,
      "haps": 2877,
      "ij": 2878,
      "iated": 2879,
      "kish": 2880,
      "ling": 2881,
      "like": 2882,
      "lier": 2883,
      "mon": 2884,
      "make": 2885,
      "mosp": 2886,
      "na": 2887,
      "ping": 2888,
      "part": 2889,
      "rated": 2890,
      "vie": 2891,
      "vict": 2892,
      "water": 2893,
      "writ": 2894,
      "wards": 2895,
      "ym": 2896,
      "ying": 2897,
      "Ġ'": 2898,
      "Ġx": 2899,
      "Ġide": 2900,
      "Ġtalk": 2901,
      "Ġage": 2902,
      "head": 2903,
      "intern": 2904,
      "Ġoct": 2905,
      "Ġsen": 2906,
      "Ġsil": 2907,
      "Ġsant": 2908,
      "Ġspl": 2909,
      "Ġsens": 2910,
      "Ġsold": 2911,
      "Ġsides": 2912,
      "Ġcro": 2913,
      "Ġcut": 2914,
      "Ġcab": 2915,
      "Ġwood": 2916,
      "onso": 2917,
      "ancial": 2918,
      "anca": 2919,
      "Ġbul": 2920,
      "Ġbars": 2921,
      "ester": 2922,
      "Ġpac": 2923,
      "eds": 2924,
      "Ġfig": 2925,
      "Ġful": 2926,
      "Ġfem": 2927,
      "Ġfav": 2928,
      "Ġfold": 2929,
      "Ġfash": 2930,
      "Ġfuel": 2931,
      "Ġmm": 2932,
      "Ġmart": 2933,
      "ingu": 2934,
      "arse": 2935,
      "arrow": 2936,
      "Ġiniti": 2937,
      "Ġtotal": 2938,
      "Ġdipl": 2939,
      "Ġhill": 2940,
      "Ġhang": 2941,
      "Ġhands": 2942,
      "lec": 2943,
      "lex": 2944,
      "Ġnav": 2945,
      "Ġnavy": 2946,
      "Ġnatural": 2947,
      "Ġey": 2948,
      "Ġeff": 2949,
      "Ġlands": 2950,
      "Ġlower": 2951,
      "Ġlakes": 2952,
      "Ġreid": 2953,
      "Ġreasons": 2954,
      "thes": 2955,
      "Ġgun": 2956,
      "Ġgold": 2957,
      "Ġissue": 2958,
      "road": 2959,
      "rael": 2960,
      "iders": 2961,
      "Ġonto": 2962,
      "Ġstable": 2963,
      "igenous": 2964,
      "ading": 2965,
      "several": 2966,
      "lla": 2967,
      "Ġmoved": 2968,
      "Ġmovie": 2969,
      "Ġmolec": 2970,
      "Ġitems": 2971,
      "Ġwear": 2972,
      "ift": 2973,
      "ulated": 2974,
      "Ġvacc": 2975,
      "Ġatmosp": 2976,
      "Ġhearing": 2977,
      "Ġexact": 2978,
      "Ġexcept": 2979,
      "quer": 2980,
      "Ġalone": 2981,
      "Ġalonso": 2982,
      "Ġchh": 2983,
      "Ġchall": 2984,
      "Ġjav": 2985,
      "Ġcancell": 2986,
      "usion": 2987,
      "Ġdeal": 2988,
      "osis": 2989,
      "Ġshorter": 2990,
      "Ġnotes": 2991,
      "Ġnothing": 2992,
      "Ġleave": 2993,
      "ources": 2994,
      "feren": 2995,
      "Ġabroad": 2996,
      "Ġtrade": 2997,
      "Ġafgh": 2998,
      "ager": 2999,
      "Ġclosed": 3000,
      "Ġclimb": 3001,
      "Ġsaw": 3002,
      "Ġintr": 3003,
      "Ġtrib": 3004,
      "Ġtrue": 3005,
      "Ġtrips": 3006,
      "ibly": 3007,
      "Ġagre": 3008,
      "Ġaged": 3009,
      "Ġindigenous": 3010,
      "Ġprison": 3011,
      "oks": 3012,
      "Ġfeat": 3013,
      "Ġfell": 3014,
      "Ġsomewhere": 3015,
      "Ġresources": 3016,
      "Ġrain": 3017,
      "Ġamaz": 3018,
      "Ġcontain": 3019,
      "Ġforms": 3020,
      "Ġcovers": 3021,
      "ricane": 3022,
      "Ġreconst": 3023,
      "Ġwarm": 3024,
      "Ġthemselves": 3025,
      "Ġbases": 3026,
      "Ġprey": 3027,
      "ification": 3028,
      "Ġeaster": 3029,
      "Ġworked": 3030,
      "Ġregard": 3031,
      "Ġdifferently": 3032,
      "othing": 3033,
      "Ġstudent": 3034,
      "Ġattention": 3035,
      "Ġremote": 3036,
      "Ġbelg": 3037,
      "Ġprovince": 3038,
      "Ġprovides": 3039,
      "Ġaware": 3040,
      "Ġfinancial": 3041,
      "Ġ30": 3042,
      "Ġ35": 3043,
      "Ġcrus": 3044,
      "Ġcrust": 3045,
      "Ġexperien": 3046,
      "Ġexperiment": 3047,
      "Ġmatches": 3048,
      "Ġcharges": 3049,
      "Ġruns": 3050,
      "Ġ2008": 3051,
      "Ġteams": 3052,
      "Ġcave": 3053,
      "Ġexpensive": 3054,
      "Ġplanned": 3055,
      "Ġdetail": 3056,
      "ograp": 3057,
      "Ġbuses": 3058,
      "Ġturn": 3059,
      "Ġbehind": 3060,
      "Ġleader": 3061,
      "Ġleading": 3062,
      "Ġmajority": 3063,
      "Ġdepart": 3064,
      "Ġinterpre": 3065,
      "Ġbegins": 3066,
      "Ġwinds": 3067,
      "Ġwindows": 3068,
      "Ġbreaking": 3069,
      "Ġrestaur": 3070,
      "Ġphotos": 3071,
      "Ġphotograp": 3072,
      "Ġpresented": 3073,
      "Ġbelieve": 3074,
      "Ġtypes": 3075,
      "Ġswed": 3076,
      "Ġparks": 3077,
      "Ġprotest": 3078,
      "Ġoriginally": 3079,
      "Ġremains": 3080,
      "Ġdesigned": 3081,
      "Ġentered": 3082,
      "Ġstandards": 3083,
      "Ġthinking": 3084,
      "Ġdiscover": 3085,
      "Ġterms": 3086,
      "Ġpoison": 3087,
      "Ġfocus": 3088,
      "Ġwaters": 3089,
      "Ġrefer": 3090,
      "Ġdestroy": 3091,
      "Ġeconomic": 3092,
      "Ġstreet": 3093,
      "Ġappear": 3094,
      "Ġappeared": 3095,
      "Ġsuggested": 3096,
      "lected": 3097,
      "Ġperformance": 3098,
      "Ġnucle": 3099,
      "Ġtechnology": 3100,
      "Ġtechniques": 3101,
      "Ġcommunity": 3102,
      "Ġeducational": 3103,
      "Ġtroops": 3104,
      "Ġpractices": 3105,
      "Ġhighest": 3106,
      "Ġissues": 3107,
      "Ġexpected": 3108,
      "Ġpatients": 3109,
      "going": 3110,
      "Ġcritical": 3111,
      "Ġmosqu": 3112,
      "Ġkilled": 3113,
      "Ġelsewhere": 3114,
      "marines": 3115,
      "Ġbalance": 3116,
      "Ġhurricane": 3117,
      "Ġphilos": 3118,
      "Ġrarely": 3119,
      "Ġbrazilian": 3120,
      "Ġstructures": 3121,
      "cuad": 3122,
      "exp": 3123,
      "Ġborder": 3124,
      "Ġbudd": 3125,
      "Ġmobile": 3126,
      "Ġquestion": 3127,
      "Ġpublished": 3128,
      "Ġfederal": 3129,
      "Ġchristian": 3130,
      "Ġdifferences": 3131,
      "Ġsharp": 3132,
      "ornadoes": 3133,
      "person": 3134,
      "Ġtension": 3135,
      "Ġachieve": 3136,
      "Ġmoldova": 3137,
      "Ġglobal": 3138,
      "Ġcomplain": 3139,
      "Ġagriculture": 3140,
      "Ġobjects": 3141,
      "Ġconfirmed": 3142,
      "Ġathletes": 3143,
      "Ġhonor": 3144,
      "Ġjanuary": 3145,
      "Ġplateau": 3146,
      "Ġemergency": 3147,
      "Ġestimated": 3148,
      "esterday": 3149,
      "Ġfigure": 3150,
      "Ġfully": 3151,
      "200": 3152,
      "ares": 3153,
      "ba": 3154,
      "bb": 3155,
      "case": 3156,
      "due": 3157,
      "fir": 3158,
      "fall": 3159,
      "fast": 3160,
      "gr": 3161,
      "germ": 3162,
      "gener": 3163,
      "hy": 3164,
      "hood": 3165,
      "jan": 3166,
      "ka": 3167,
      "krit": 3168,
      "lt": 3169,
      "mits": 3170,
      "ny": 3171,
      "nes": 3172,
      "oice": 3173,
      "ober": 3174,
      "put": 3175,
      "pire": 3176,
      "sc": 3177,
      "sub": 3178,
      "tend": 3179,
      "tles": 3180,
      "vid": 3181,
      "yl": 3182,
      "yr": 3183,
      "Ġtit": 3184,
      "Ġtel": 3185,
      "Ġtakes": 3186,
      "Ġalex": 3187,
      "inations": 3188,
      "Ġtheories": 3189,
      "ret": 3190,
      "Ġod": 3191,
      "Ġopt": 3192,
      "Ġsed": 3193,
      "Ġsans": 3194,
      "Ġsatur": 3195,
      "erus": 3196,
      "errane": 3197,
      "Ġcu": 3198,
      "Ġcir": 3199,
      "Ġcats": 3200,
      "Ġwa": 3201,
      "Ġwed": 3202,
      "Ġwet": 3203,
      "ana": 3204,
      "anes": 3205,
      "enment": 3206,
      "atory": 3207,
      "Ġban": 3208,
      "Ġbur": 3209,
      "esc": 3210,
      "itt": 3211,
      "itors": 3212,
      "itude": 3213,
      "Ġpm": 3214,
      "Ġpun": 3215,
      "Ġpict": 3216,
      "Ġpool": 3217,
      "Ġfut": 3218,
      "Ġfare": 3219,
      "Ġmal": 3220,
      "Ġmur": 3221,
      "Ġmater": 3222,
      "alem": 3223,
      "Ġans": 3224,
      "ouis": 3225,
      "arctic": 3226,
      "Ġdun": 3227,
      "Ġdry": 3228,
      "Ġdraft": 3229,
      "Ġdata": 3230,
      "Ġho": 3231,
      "Ġhind": 3232,
      "Ġlux": 3233,
      "Ġlouis": 3234,
      "iled": 3235,
      "Ġree": 3236,
      "vem": 3237,
      "Ġgap": 3238,
      "Ġgives": 3239,
      "Ġgaz": 3240,
      "roduced": 3241,
      "racy": 3242,
      "iring": 3243,
      "imates": 3244,
      "Ġstro": 3245,
      "Ġstation": 3246,
      "iger": 3247,
      "ayed": 3248,
      "uty": 3249,
      "Ġfort": 3250,
      "olf": 3251,
      "ads": 3252,
      "sects": 3253,
      "Ġyesterday": 3254,
      "amb": 3255,
      "amm": 3256,
      "Ġasia": 3257,
      "ulate": 3258,
      "Ġran": 3259,
      "Ġrang": 3260,
      "Ġrates": 3261,
      "Ġrider": 3262,
      "andon": 3263,
      "Ġwhy": 3264,
      "Ġvia": 3265,
      "Ġhaiti": 3266,
      "Ġhabit": 3267,
      "Ġkir": 3268,
      "Ġkind": 3269,
      "Ġcomment": 3270,
      "Ġcomments": 3271,
      "ership": 3272,
      "istic": 3273,
      "Ġexch": 3274,
      "Ġexport": 3275,
      "Ġexcess": 3276,
      "Ġexcell": 3277,
      "Ġsecur": 3278,
      "Ġsections": 3279,
      "Ġseven": 3280,
      "Ġseasons": 3281,
      "ached": 3282,
      "Ġalle": 3283,
      "Ġalph": 3284,
      "Ġalco": 3285,
      "Ġchile": 3286,
      "Ġcany": 3287,
      "Ġcancer": 3288,
      "uses": 3289,
      "Ġproced": 3290,
      "Ġproject": 3291,
      "under": 3292,
      "unte": 3293,
      "Ġshock": 3294,
      "Ġshoot": 3295,
      "Ġunable": 3296,
      "anted": 3297,
      "antage": 3298,
      "essential": 3299,
      "ender": 3300,
      "ightly": 3301,
      "portun": 3302,
      "Ġabandon": 3303,
      "ought": 3304,
      "Ġtraum": 3305,
      "Ġarist": 3306,
      "Ġarrest": 3307,
      "Ġwheels": 3308,
      "agu": 3309,
      "agos": 3310,
      "Ġenvelop": 3311,
      "Ġallian": 3312,
      "Ġclaw": 3313,
      "Ġclothing": 3314,
      "iza": 3315,
      "keep": 3316,
      "Ġintroduced": 3317,
      "Ġcompon": 3318,
      "Ġcompared": 3319,
      "Ġtried": 3320,
      "Ġscore": 3321,
      "plus": 3322,
      "Ġroom": 3323,
      "Ġpron": 3324,
      "Ġprix": 3325,
      "Ġphase": 3326,
      "claim": 3327,
      "Ġspread": 3328,
      "Ġfeared": 3329,
      "Ġsomeone": 3330,
      "lands": 3331,
      "Ġouter": 3332,
      "Ġoutbreak": 3333,
      "Ġspect": 3334,
      "Ġdoing": 3335,
      "Ġtwel": 3336,
      "Ġamb": 3337,
      "Ġsoon": 3338,
      "Ġsoft": 3339,
      "Ġperhaps": 3340,
      "Ġcontent": 3341,
      "Ġcontra": 3342,
      "Ġcontact": 3343,
      "Ġapart": 3344,
      "Ġapplic": 3345,
      "Ġformal": 3346,
      "Ġpolic": 3347,
      "Ġflu": 3348,
      "teen": 3349,
      "Ġconserv": 3350,
      "âĢĵ": 3351,
      "Ġtheme": 3352,
      "Ġqual": 3353,
      "Ġboat": 3354,
      "Ġboard": 3355,
      "Ġevening": 3356,
      "Ġbloss": 3357,
      "Ġjustice": 3358,
      "Ġaccomm": 3359,
      "Ġmanaged": 3360,
      "Ġmeters": 3361,
      "Ġmetals": 3362,
      "ression": 3363,
      "Ġproviding": 3364,
      "Ġminim": 3365,
      "Ġmonday": 3366,
      "Ġdesired": 3367,
      "rosc": 3368,
      "Ġfinishing": 3369,
      "Ġtemples": 3370,
      "Ġvaried": 3371,
      "Ġvariation": 3372,
      "Ġended": 3373,
      "Ġassess": 3374,
      "Ġdistance": 3375,
      "Ġnumbers": 3376,
      "Ġopportun": 3377,
      "Ġcerem": 3378,
      "Ġmaintain": 3379,
      "Ġ2005": 3380,
      "Ġ2009": 3381,
      "Ġfounded": 3382,
      "Ġtaiw": 3383,
      "ception": 3384,
      "Ġslightly": 3385,
      "Ġfund": 3386,
      "Ġkept": 3387,
      "encing": 3388,
      "Ġallowed": 3389,
      "Ġgeograph": 3390,
      "Ġlooking": 3391,
      "Ġsubst": 3392,
      "Ġresults": 3393,
      "Ġ2017": 3394,
      "Ġhostile": 3395,
      "Ġdecor": 3396,
      "Ġparli": 3397,
      "Ġincome": 3398,
      "Ġmovement": 3399,
      "ablanca": 3400,
      "Ġtransported": 3401,
      "Ġolder": 3402,
      "Ġcreate": 3403,
      "Ġbegin": 3404,
      "board": 3405,
      "Ġ56": 3406,
      "Ġrequirement": 3407,
      "Ġprotests": 3408,
      "Ġjob": 3409,
      "Ġ80": 3410,
      "Ġstanding": 3411,
      "Ġstandard": 3412,
      "Ġexplore": 3413,
      "Ġexploded": 3414,
      "Ġauthority": 3415,
      "Ġstaying": 3416,
      "Ġteleph": 3417,
      "Ġannounce": 3418,
      "Ġpurp": 3419,
      "Ġpurch": 3420,
      "Ġharbour": 3421,
      "Ġweeks": 3422,
      "Ġtraveller": 3423,
      "Ġtravelling": 3424,
      "Ġcivilization": 3425,
      "Ġimpact": 3426,
      "Ġdirector": 3427,
      "Ġdirectly": 3428,
      "ĠâĢĵ": 3429,
      "ĠâĢľ": 3430,
      "Ġfollowing": 3431,
      "Ġmoroc": 3432,
      "Ġlimit": 3433,
      "Ġrefused": 3434,
      "Ġbehavi": 3435,
      "Ġfailed": 3436,
      "Ġhours": 3437,
      "travell": 3438,
      "Ġterr": 3439,
      "Ġperformed": 3440,
      "check": 3441,
      "Ġsolution": 3442,
      "appan": 3443,
      "Ġcontinent": 3444,
      "Ġcheckpoin": 3445,
      "Ġcurrently": 3446,
      "Ġatlanta": 3447,
      "Ġfacilities": 3448,
      "Ġrolled": 3449,
      "Ġdiagn": 3450,
      "Ġdiabet": 3451,
      "Ġfriendly": 3452,
      "Ġrelationships": 3453,
      "Ġassociated": 3454,
      "Ġcarried": 3455,
      "burg": 3456,
      "lightenment": 3457,
      "Ġjournal": 3458,
      "despite": 3459,
      "two": 3460,
      "Ġpalm": 3461,
      "Ġmagnetic": 3462,
      "celona": 3463,
      "Ġparticipate": 3464,
      "Ġconcentration": 3465,
      "Ġimmediate": 3466,
      "Ġtemperatures": 3467,
      "Ġsympt": 3468,
      "Ġextremely": 3469,
      "known": 3470,
      "Ġmediterrane": 3471,
      "Ġawarded": 3472,
      "Ġtemporary": 3473,
      "Ġhistoric": 3474,
      "drogen": 3475,
      "virtual": 3476,
      "Ġbhog": 3477,
      "Ġberlin": 3478,
      "Ġfifth": 3479,
      "Ġplumage": 3480,
      "Ġillegal": 3481,
      "ĠsÃ¡mi": 3482,
      "Ġdigest": 3483,
      "Ġreduce": 3484,
      "Ġchampions": 3485,
      "Ġprosecut": 3486,
      "Ġcommercial": 3487,
      "Ġparents": 3488,
      "Ġcompletely": 3489,
      "Ġoctober": 3490,
      "Ġchhappan": 3491,
      "Ġrestaurants": 3492,
      "Ġmosquit": 3493,
      "cuador": 3494,
      "Ġtelesc": 3495,
      "erusalem": 3496,
      "Ġfuture": 3497,
      "Ġmaterial": 3498,
      "Ġsecurity": 3499,
      "Ġalcoh": 3500,
      "Ġprocedures": 3501,
      "Ġaccommod": 3502,
      "Ġceremon": 3503,
      "Ġtaiwan": 3504,
      "Ġparliament": 3505,
      "Ġmediterranean": 3506,
      "'ve": 3507,
      "'ll": 3508,
      "39": 3509,
      "40": 3510,
      "ban": 3511,
      "bow": 3512,
      "bans": 3513,
      "car": 3514,
      "cul": 3515,
      "cause": 3516,
      "cious": 3517,
      "ciple": 3518,
      "culture": 3519,
      "ey": 3520,
      "europe": 3521,
      "ext": 3522,
      "fer": 3523,
      "ffe": 3524,
      "follow": 3525,
      "gre": 3526,
      "hum": 3527,
      "hism": 3528,
      "iar": 3529,
      "iot": 3530,
      "iately": 3531,
      "ju": 3532,
      "ket": 3533,
      "last": 3534,
      "men": 3535,
      "more": 3536,
      "matic": 3537,
      "mbre": 3538,
      "nu": 3539,
      "oa": 3540,
      "oh": 3541,
      "pan": 3542,
      "pine": 3543,
      "piqu": 3544,
      "ri": 3545,
      "rip": 3546,
      "son": 3547,
      "sur": 3548,
      "tion": 3549,
      "tation": 3550,
      "tually": 3551,
      "town": 3552,
      "uese": 3553,
      "vann": 3554,
      "wal": 3555,
      "wide": 3556,
      "wild": 3557,
      "your": 3558,
      "zing": 3559,
      "Ġq": 3560,
      "Ġicy": 3561,
      "Ġtong": 3562,
      "Ġtank": 3563,
      "Ġtilt": 3564,
      "Ġtenth": 3565,
      "Ġai": 3566,
      "Ġaol": 3567,
      "Ġaction": 3568,
      "Ġauck": 3569,
      "Ġahead": 3570,
      "hematic": 3571,
      "inent": 3572,
      "inter": 3573,
      "inated": 3574,
      "income": 3575,
      "Ġol": 3576,
      "Ġsn": 3577,
      "Ġsqu": 3578,
      "Ġsight": 3579,
      "Ġsays": 3580,
      "erat": 3581,
      "erous": 3582,
      "erved": 3583,
      "erature": 3584,
      "Ġcra": 3585,
      "Ġcod": 3586,
      "Ġcred": 3587,
      "Ġcast": 3588,
      "Ġcry": 3589,
      "Ġcath": 3590,
      "Ġwil": 3591,
      "Ġwitness": 3592,
      "only": 3593,
      "onance": 3594,
      "ano": 3595,
      "anim": 3596,
      "another": 3597,
      "anese": 3598,
      "enetic": 3599,
      "Ġbay": 3600,
      "Ġbound": 3601,
      "esters": 3602,
      "isher": 3603,
      "itation": 3604,
      "Ġpit": 3605,
      "Ġple": 3606,
      "Ġpace": 3607,
      "Ġfa": 3608,
      "Ġfat": 3609,
      "Ġfle": 3610,
      "Ġfear": 3611,
      "Ġfaster": 3612,
      "Ġmut": 3613,
      "Ġmiss": 3614,
      "ork": 3615,
      "oral": 3616,
      "orge": 3617,
      "orms": 3618,
      "alry": 3619,
      "outh": 3620,
      "ouds": 3621,
      "ari": 3622,
      "around": 3623,
      "Ġtold": 3624,
      "Ġtoile": 3625,
      "ashed": 3626,
      "asaur": 3627,
      "asingly": 3628,
      "Ġden": 3629,
      "Ġdail": 3630,
      "Ġdoll": 3631,
      "Ġhu": 3632,
      "Ġhope": 3633,
      "icine": 3634,
      "icerat": 3635,
      "oma": 3636,
      "Ġni": 3637,
      "Ġnature": 3638,
      "Ġnarrow": 3639,
      "Ġeb": 3640,
      "Ġefficient": 3641,
      "Ġlad": 3642,
      "Ġlies": 3643,
      "Ġline": 3644,
      "then": 3645,
      "theast": 3646,
      "storms": 3647,
      "Ġgall": 3648,
      "Ġgram": 3649,
      "Ġgenetic": 3650,
      "Ġisrael": 3651,
      "Ġumbre": 3652,
      "imens": 3653,
      "Ġstan": 3654,
      "Ġstone": 3655,
      "Ġstore": 3656,
      "Ġstatus": 3657,
      "olina": 3658,
      "that": 3659,
      "thood": 3660,
      "child": 3661,
      "llig": 3662,
      "Ġitself": 3663,
      "iforn": 3664,
      "ulations": 3665,
      "Ġring": 3666,
      "Ġrivers": 3667,
      "Ġwasn": 3668,
      "Ġwashing": 3669,
      "ander": 3670,
      "Ġven": 3671,
      "Ġvast": 3672,
      "Ġconvict": 3673,
      "Ġfru": 3674,
      "Ġkore": 3675,
      "Ġkings": 3676,
      "Ġheart": 3677,
      "isticated": 3678,
      "Ġsex": 3679,
      "Ġseem": 3680,
      "Ġseeds": 3681,
      "aint": 3682,
      "quar": 3683,
      "Ġalpine": 3684,
      "Ġchick": 3685,
      "unc": 3686,
      "und": 3687,
      "Ġshap": 3688,
      "Ġshift": 3689,
      "Ġ14": 3690,
      "ocracy": 3691,
      "apock": 3692,
      "apagos": 3693,
      "embour": 3694,
      "rency": 3695,
      "Ġtrains": 3696,
      "umes": 3697,
      "Ġarray": 3698,
      "Ġworst": 3699,
      "ipment": 3700,
      "ipino": 3701,
      "Ġwheel": 3702,
      "agas": 3703,
      "ounds": 3704,
      "eled": 3705,
      "Ġenforce": 3706,
      "Ġenlightenment": 3707,
      "perial": 3708,
      "Ġallies": 3709,
      "Ġclouds": 3710,
      "izing": 3711,
      "Ġtricerat": 3712,
      "Ġadop": 3713,
      "Ġaddition": 3714,
      "ogs": 3715,
      "Ġagenc": 3716,
      "Ġagency": 3717,
      "ploy": 3718,
      "Ġimperial": 3719,
      "Ġroots": 3720,
      "Ġphara": 3721,
      "Ġsparse": 3722,
      "Ġnorway": 3723,
      "Ġovercome": 3724,
      "Ġresonance": 3725,
      "Ġcarib": 3726,
      "Ġcarolina": 3727,
      "Ġperce": 3728,
      "Ġcontract": 3729,
      "Ġupon": 3730,
      "Ġformally": 3731,
      "Ġpolo": 3732,
      "Ġnovem": 3733,
      "Ġvisual": 3734,
      "Ġpress": 3735,
      "Ġpressure": 3736,
      "Ġflo": 3737,
      "Ġconsum": 3738,
      "Ġconscious": 3739,
      "Ġrecall": 3740,
      "Ġskater": 3741,
      "Ġbasket": 3742,
      "Ġairlines": 3743,
      "Ġshowcase": 3744,
      "Ġcalling": 3745,
      "Ġblood": 3746,
      "Ġearlier": 3747,
      "Ġgets": 3748,
      "cont": 3749,
      "const": 3750,
      "Ġacting": 3751,
      "Ġregions": 3752,
      "Ġregarding": 3753,
      "Ġtours": 3754,
      "Ġinvented": 3755,
      "Ġ195": 3756,
      "Ġlocations": 3757,
      "isms": 3758,
      "Ġaccused": 3759,
      "Ġaccidents": 3760,
      "Ġaccomp": 3761,
      "Ġmedium": 3762,
      "Ġmedicine": 3763,
      "Ġstudies": 3764,
      "Ġattended": 3765,
      "Ġmanager": 3766,
      "Ġremember": 3767,
      "Ġzone": 3768,
      "awa": 3769,
      "Ġhoward": 3770,
      "Ġprovenz": 3771,
      "Ġdespite": 3772,
      "Ġfinish": 3773,
      "Ġelections": 3774,
      "Ġsurve": 3775,
      "Ġcrimin": 3776,
      "Ġcrashed": 3777,
      "ocket": 3778,
      "Ġmathematic": 3779,
      "Ġcharged": 3780,
      "ankham": 3781,
      "Ġinternal": 3782,
      "Ġediting": 3783,
      "Ġnumerous": 3784,
      "iction": 3785,
      "Ġempire": 3786,
      "Ġcape": 3787,
      "Ġpassing": 3788,
      "Ġplane": 3789,
      "Ġfung": 3790,
      "Ġfunction": 3791,
      "Ġfunding": 3792,
      "Ġhighly": 3793,
      "Ġkey": 3794,
      "Ġaffects": 3795,
      "uguese": 3796,
      "Ġcurrency": 3797,
      "Ġdete": 3798,
      "Ġsundar": 3799,
      "Ġinsp": 3800,
      "Ġgeolog": 3801,
      "Ġgeography": 3802,
      "Ġgeorge": 3803,
      "Ġsubculture": 3804,
      "Ġleads": 3805,
      "Ġ2016": 3806,
      "Ġcolder": 3807,
      "Ġdecades": 3808,
      "Ġparis": 3809,
      "Ġdepending": 3810,
      "Ġdepression": 3811,
      "Ġplaying": 3812,
      "Ġamericans": 3813,
      "Ġfallen": 3814,
      "Ġmarking": 3815,
      "Ġmarkets": 3816,
      "Ġinstru": 3817,
      "Ġshell": 3818,
      "Ġwindow": 3819,
      "Ġfoods": 3820,
      "Ġprotons": 3821,
      "Ġprotesters": 3822,
      "Ġplaced": 3823,
      "because": 3824,
      "cape": 3825,
      "Ġrealize": 3826,
      "Ġintellig": 3827,
      "Ġsupporting": 3828,
      "Ġocel": 3829,
      "Ġfreed": 3830,
      "Ġfilipino": 3831,
      "Ġliterature": 3832,
      "Ġsugar": 3833,
      "Ġheading": 3834,
      "Ġclosely": 3835,
      "Ġcertainly": 3836,
      "Ġurine": 3837,
      "Ġurban": 3838,
      "Ġsinger": 3839,
      "Ġantarctic": 3840,
      "Ġwebsites": 3841,
      "Ġvirtual": 3842,
      "Ġarrange": 3843,
      "fortun": 3844,
      "Ġstorms": 3845,
      "Ġdiseases": 3846,
      "author": 3847,
      "Ġcopy": 3848,
      "Ġcopies": 3849,
      "Ġcosts": 3850,
      "Ġvoted": 3851,
      "Ġimmig": 3852,
      "Ġsuccession": 3853,
      "Ġthirty": 3854,
      "Ġpresidential": 3855,
      "Ġgrounds": 3856,
      "Ġpersonal": 3857,
      "Ġdestination": 3858,
      "Ġdestinations": 3859,
      "Ġsuggests": 3860,
      "travel": 3861,
      "Ġconstant": 3862,
      "Ġcomputers": 3863,
      "Ġready": 3864,
      "Ġgained": 3865,
      "Ġargent": 3866,
      "Ġrocks": 3867,
      "Ġcontinued": 3868,
      "Ġcommunication": 3869,
      "Ġtropical": 3870,
      "Ġdoesn": 3871,
      "Ġinvestigating": 3872,
      "Ġ70": 3873,
      "Ġportuguese": 3874,
      "Ġclaims": 3875,
      "Ġroller": 3876,
      "Ġmethods": 3877,
      "Ġ90": 3878,
      "Ġhouses": 3879,
      "Ġreligion": 3880,
      "Ġdinosaurs": 3881,
      "Ġreasonably": 3882,
      "ophisticated": 3883,
      "Ġconnect": 3884,
      "Ġnecessity": 3885,
      "Ġprivate": 3886,
      "Ġfrequently": 3887,
      "Ġbattle": 3888,
      "Ġgalax": 3889,
      "Ġgalapagos": 3890,
      "Ġbreakfast": 3891,
      "Ġegyptian": 3892,
      "point": 3893,
      "Ġidentity": 3894,
      "Ġhorse": 3895,
      "Ġhurt": 3896,
      "Ġgods": 3897,
      "Ġproperty": 3898,
      "Ġphilipp": 3899,
      "Ġarab": 3900,
      "Ġinitially": 3901,
      "omerang": 3902,
      "operation": 3903,
      "Ġvictory": 3904,
      "Ġdrinking": 3905,
      "Ġimmediately": 3906,
      "Ġwalls": 3907,
      "Ġdrugs": 3908,
      "Ġequipment": 3909,
      "Ġrevolution": 3910,
      "Ġspeakers": 3911,
      "Ġtutankham": 3912,
      "Ġcavalry": 3913,
      "Ġwaves": 3914,
      "Ġratio": 3915,
      "Ġabsolute": 3916,
      "Ġcelebrate": 3917,
      "Ġcamer": 3918,
      "Ġchairman": 3919,
      "Ġrecommend": 3920,
      "Ġconcerned": 3921,
      "Ġkingdom": 3922,
      "Ġarchipelago": 3923,
      "Ġcategory": 3924,
      "Ġconventional": 3925,
      "Ġneutrons": 3926,
      "Ġcarrying": 3927,
      "Ġcommissioner": 3928,
      "Ġstereotypes": 3929,
      "Ġarmenia": 3930,
      "Ġcorrect": 3931,
      "Ġrepresentatives": 3932,
      "Ġsilver": 3933,
      "Ġsplit": 3934,
      "Ġfavor": 3935,
      "Ġdiplomatic": 3936,
      "Ġmolecules": 3937,
      "Ġjavanese": 3938,
      "Ġdealing": 3939,
      "Ġafghan": 3940,
      "Ġagreed": 3941,
      "Ġamazon": 3942,
      "Ġreconstruction": 3943,
      "Ġexperienced": 3944,
      "Ġreferred": 3945,
      "Ġdestroyed": 3946,
      "Ġnucleus": 3947,
      "first": 3948,
      "Ġhindu": 3949,
      "Ġreef": 3950,
      "Ġalleged": 3951,
      "Ġalliance": 3952,
      "Ġpronoun": 3953,
      "Ġapplications": 3954,
      "Ġpurpose": 3955,
      "Ġbehaviour": 3956,
      "Ġcheckpoints": 3957,
      "humans": 3958,
      "piquet": 3959,
      "Ġauckland": 3960,
      "Ġcatholic": 3961,
      "Ġdaily": 3962,
      "Ġgrammar": 3963,
      "Ġumbrella": 3964,
      "children": 3965,
      "ifornia": 3966,
      "Ġwashington": 3967,
      "embourg": 3968,
      "Ġtriceratops": 3969,
      "Ġagencies": 3970,
      "Ġpharaoh": 3971,
      "Ġsparsely": 3972,
      "Ġbasketball": 3973,
      "Ġprovenzano": 3974,
      "Ġcriminal": 3975,
      "Ġsundarbans": 3976,
      "Ġgalaxy": 3977,
      "Ġtutankhamun": 3978,
      ".,": 3979,
      "11": 3980,
      "15": 3981,
      "22": 3982,
      "400": 3983,
      "76": 3984,
      "80": 3985,
      "ape": 3986,
      "aren": 3987,
      "bon": 3988,
      "band": 3989,
      "both": 3990,
      "bars": 3991,
      "bug": 3992,
      "bane": 3993,
      "com": 3994,
      "col": 3995,
      "cod": 3996,
      "cum": 3997,
      "cue": 3998,
      "dic": 3999,
      "eer": 4000,
      "ecess": 4001,
      "eze": 4002,
      "four": 4003,
      "fire": 4004,
      "feral": 4005,
      "gl": 4006,
      "gent": 4007,
      "gage": 4008,
      "gree": 4009,
      "gaw": 4010,
      "hs": 4011,
      "had": 4012,
      "hist": 4013,
      "hall": 4014,
      "hag": 4015,
      "ira": 4016,
      "ks": 4017,
      "ky": 4018,
      "kin": 4019,
      "kar": 4020,
      "lar": 4021,
      "los": 4022,
      "late": 4023,
      "loc": 4024,
      "my": 4025,
      "mark": 4026,
      "nut": 4027,
      "oom": 4028,
      "och": 4029,
      "ores": 4030,
      "othes": 4031,
      "pass": 4032,
      "posed": 4033,
      "ras": 4034,
      "rate": 4035,
      "rates": 4036,
      "sim": 4037,
      "somet": 4038,
      "ties": 4039,
      "tour": 4040,
      "time": 4041,
      "tical": 4042,
      "tons": 4043,
      "tornadoes": 4044,
      "uing": 4045,
      "uated": 4046,
      "uff": 4047,
      "val": 4048,
      "west": 4049,
      "wise": 4050,
      "women": 4051,
      "widespread": 4052,
      "xic": 4053,
      "yard": 4054,
      "zer": 4055,
      "zen": 4056,
      "zards": 4057,
      "Ã©": 4058,
      "ĠÂ": 4059,
      "Ġip": 4060,
      "Ġessential": 4061,
      "Ġtu": 4062,
      "Ġtv": 4063,
      "Ġtree": 4064,
      "Ġau": 4065,
      "Ġast": 4066,
      "Ġaid": 4067,
      "hel": 4068,
      "Ġtheat": 4069,
      "Ġtheore": 4070,
      "rese": 4071,
      "Ġsort": 4072,
      "Ġsac": 4073,
      "Ġsque": 4074,
      "Ġcoc": 4075,
      "Ġcub": 4076,
      "Ġcaught": 4077,
      "Ġwag": 4078,
      "Ġwidespread": 4079,
      "ening": 4080,
      "ences": 4081,
      "enhag": 4082,
      "Ġben": 4083,
      "Ġbad": 4084,
      "Ġbreat": 4085,
      "Ġbare": 4086,
      "Ġborn": 4087,
      "Ġbha": 4088,
      "esides": 4089,
      "ises": 4090,
      "itants": 4091,
      "Ġpra": 4092,
      "Ġpad": 4093,
      "Ġpie": 4094,
      "Ġpets": 4095,
      "Ġpenc": 4096,
      "Ġfo": 4097,
      "Ġfern": 4098,
      "Ġfishing": 4099,
      "Ġfbi": 4100,
      "Ġmom": 4101,
      "Ġmac": 4102,
      "Ġmission": 4103,
      "Ġmamm": 4104,
      "ori": 4105,
      "Ġanal": 4106,
      "ouver": 4107,
      "ouch": 4108,
      "aration": 4109,
      "aries": 4110,
      "Ġinac": 4111,
      "Ġinno": 4112,
      "Ġinsects": 4113,
      "Ġtoll": 4114,
      "Ġtogin": 4115,
      "Ġda": 4116,
      "Ġdin": 4117,
      "Ġdar": 4118,
      "Ġdom": 4119,
      "Ġdro": 4120,
      "Ġdiv": 4121,
      "Ġdust": 4122,
      "Ġdivid": 4123,
      "Ġdna": 4124,
      "Ġhan": 4125,
      "Ġhike": 4126,
      "Ġhors": 4127,
      "icip": 4128,
      "let": 4129,
      "lection": 4130,
      "oman": 4131,
      "omad": 4132,
      "Ġthus": 4133,
      "Ġthrown": 4134,
      "Ġecuador": 4135,
      "Ġlos": 4136,
      "Ġlog": 4137,
      "Ġluc": 4138,
      "Ġlink": 4139,
      "Ġlives": 4140,
      "Ġlapt": 4141,
      "Ġlanes": 4142,
      "Ġbell": 4143,
      "Ġbeach": 4144,
      "Ġbears": 4145,
      "Ġren": 4146,
      "Ġreally": 4147,
      "Ġreferen": 4148,
      "veiled": 4149,
      "their": 4150,
      "ster": 4151,
      "stable": 4152,
      "stals": 4153,
      "Ġgar": 4154,
      "Ġgur": 4155,
      "Ġgather": 4156,
      "Ġgiving": 4157,
      "Ġgave": 4158,
      "Ġgym": 4159,
      "Ġgender": 4160,
      "lying": 4161,
      "rap": 4162,
      "rared": 4163,
      "ctor": 4164,
      "cture": 4165,
      "ids": 4166,
      "idal": 4167,
      "Ġult": 4168,
      "celed": 4169,
      "ird": 4170,
      "irru": 4171,
      "ims": 4172,
      "Ġongoing": 4173,
      "ott": 4174,
      "oting": 4175,
      "otte": 4176,
      "Ġforced": 4177,
      "urt": 4178,
      "aded": 4179,
      "severe": 4180,
      "Ġyach": 4181,
      "ama": 4182,
      "ams": 4183,
      "amine": 4184,
      "christ": 4185,
      "chkin": 4186,
      "Ġweap": 4187,
      "Ġwealth": 4188,
      "iful": 4189,
      "Ġric": 4190,
      "Ġrig": 4191,
      "Ġrul": 4192,
      "Ġrate": 4193,
      "Ġrome": 4194,
      "Ġrules": 4195,
      "andid": 4196,
      "Ġwhom": 4197,
      "Ġwhose": 4198,
      "Ġvanc": 4199,
      "Ġconclud": 4200,
      "Ġconcept": 4201,
      "Ġconquer": 4202,
      "Ġsubs": 4203,
      "illa": 4204,
      "Ġate": 4205,
      "Ġkar": 4206,
      "Ġheat": 4207,
      "establ": 4208,
      "istry": 4209,
      "istence": 4210,
      "istration": 4211,
      "Ġseal": 4212,
      "Ġsevent": 4213,
      "Ġseems": 4214,
      "Ġself": 4215,
      "Ġchines": 4216,
      "Ġchann": 4217,
      "Ġchief": 4218,
      "Ġjail": 4219,
      "Ġcanceled": 4220,
      "Ġdeep": 4221,
      "Ġdevice": 4222,
      "Ġdevices": 4223,
      "ung": 4224,
      "abor": 4225,
      "abwe": 4226,
      "ability": 4227,
      "Ġshy": 4228,
      "Ġshut": 4229,
      "Ġshade": 4230,
      "Ġshare": 4231,
      "Ġunveiled": 4232,
      "Ġunstable": 4233,
      "apted": 4234,
      "Ġplans": 4235,
      "Ġabort": 4236,
      "Ġtrading": 4237,
      "umb": 4238,
      "Ġarctic": 4239,
      "ipper": 4240,
      "ongs": 4241,
      "elly": 4242,
      "Ġensure": 4243,
      "Ġpeak": 4244,
      "sole": 4245,
      "derness": 4246,
      "izabet": 4247,
      "Ġ21": 4248,
      "Ġ26": 4249,
      "iage": 4250,
      "Ġcomposed": 4251,
      "Ġotherwise": 4252,
      "Ġadapted": 4253,
      "Ġscam": 4254,
      "Ġcounted": 4255,
      "herry": 4256,
      "Ġoffering": 4257,
      "avid": 4258,
      "plants": 4259,
      "Ġimag": 4260,
      "Ġroof": 4261,
      "clusion": 4262,
      "Ġspices": 4263,
      "Ġnortheast": 4264,
      "Ġdishes": 4265,
      "Ġdisney": 4266,
      "indeer": 4267,
      "Ġoverall": 4268,
      "Ġteach": 4269,
      "Ġrescue": 4270,
      "Ġracial": 4271,
      "rupted": 4272,
      "Ġcarbon": 4273,
      "Ġnewsp": 4274,
      "Ġpermits": 4275,
      "Ġcontext": 4276,
      "Ġupper": 4277,
      "Ġupright": 4278,
      "Ġknowing": 4279,
      "Ġformats": 4280,
      "Ġcoaster": 4281,
      "Ġpoland": 4282,
      "Ġvisas": 4283,
      "Ġrecording": 4284,
      "Ġbasis": 4285,
      "Ġprepar": 4286,
      "Ġboy": 4287,
      "Ġboomerang": 4288,
      "Ġanywhere": 4289,
      "Ġblamed": 4290,
      "Ġrequests": 4291,
      "Ġrequiring": 4292,
      "Ġtourn": 4293,
      "Ġincludes": 4294,
      "Ġincluded": 4295,
      "Ġlocation": 4296,
      "Ġbuy": 4297,
      "Ġtravelers": 4298,
      "Ġaccur": 4299,
      "Ġmedication": 4300,
      "Ġposition": 4301,
      "new": 4302,
      "Ġremod": 4303,
      "ressions": 4304,
      "Ġzones": 4305,
      "Ġzimb": 4306,
      "Ġzoom": 4307,
      "Ġlove": 4308,
      "Ġdrive": 4309,
      "Ġvisits": 4310,
      "Ġmaxim": 4311,
      "Ġmaori": 4312,
      "Ġministry": 4313,
      "Ġmarian": 4314,
      "Ġcrude": 4315,
      "Ġ2020": 4316,
      "Ġvaries": 4317,
      "Ġvariations": 4318,
      "Ġending": 4319,
      "Ġassyr": 4320,
      "Ġextend": 4321,
      "Ġdistances": 4322,
      "Ġdistingu": 4323,
      "Ġedge": 4324,
      "Ġedges": 4325,
      "Ġrunoff": 4326,
      "Ġsignal": 4327,
      "Ġcheap": 4328,
      "Ġcheaper": 4329,
      "iversary": 4330,
      "Ġceo": 4331,
      "Ġnearby": 4332,
      "Ġcausing": 4333,
      "Ġcauses": 4334,
      "Ġstrike": 4335,
      "Ġexpos": 4336,
      "Ġseeing": 4337,
      "Ġpasseng": 4338,
      "what": 4339,
      "Ġ400": 4340,
      "Ġanniversary": 4341,
      "Ġmemor": 4342,
      "Ġreceive": 4343,
      "Ġdeton": 4344,
      "Ġpossibly": 4345,
      "Ġinsight": 4346,
      "Ġinsurance": 4347,
      "Ġturns": 4348,
      "Ġturkish": 4349,
      "Ġhandwrit": 4350,
      "Ġsubmarines": 4351,
      "Ġ2011": 4352,
      "Ġsystems": 4353,
      "Ġdecide": 4354,
      "atican": 4355,
      "Ġparagu": 4356,
      "Ġlaws": 4357,
      "Ġplayed": 4358,
      "Ġplayers": 4359,
      "Ġofficially": 4360,
      "suit": 4361,
      "Ġmarks": 4362,
      "Ġinstance": 4363,
      "Ġinstruction": 4364,
      "book": 4365,
      "boarding": 4366,
      "Ġbelief": 4367,
      "dered": 4368,
      "enging": 4369,
      "Ġpaid": 4370,
      "Ġreality": 4371,
      "Ġguar": 4372,
      "Ġguard": 4373,
      "Ġ800": 4374,
      "Ġentering": 4375,
      "Ġexplos": 4376,
      "Ġartic": 4377,
      "Ġsupports": 4378,
      "Ġoceans": 4379,
      "Ġdamaged": 4380,
      "Ġheaded": 4381,
      "Ġeffective": 4382,
      "Ġurging": 4383,
      "Ġdiscovery": 4384,
      "Ġsentence": 4385,
      "Ġcorruption": 4386,
      "Ġpursue": 4387,
      "Ġfourth": 4388,
      "Ġharv": 4389,
      "Ġelizabet": 4390,
      "Ġtoward": 4391,
      "Ġstories": 4392,
      "Ġweekend": 4393,
      "Ġcopenhag": 4394,
      "Ġcostell": 4395,
      "Ġinfection": 4396,
      "Ġholding": 4397,
      "Ġvoters": 4398,
      "Ġdefense": 4399,
      "Ġaustralian": 4400,
      "ĠâĢĶ": 4401,
      "Ġcombination": 4402,
      "osses": 4403,
      "Ġromanian": 4404,
      "Ġoperation": 4405,
      "Ġtomb": 4406,
      "Ġhunting": 4407,
      "Ġthreats": 4408,
      "Ġstret": 4409,
      "Ġamounts": 4410,
      "Ġradioactive": 4411,
      "Ġforest": 4412,
      "Ġconstruction": 4413,
      "Ġrepublican": 4414,
      "Ġspecifically": 4415,
      "Ġobsc": 4416,
      "enef": 4417,
      "Ġpastries": 4418,
      "Ġstruck": 4419,
      "Ġpeaceful": 4420,
      "Ġpeacekeep": 4421,
      "Ġbringing": 4422,
      "lux": 4423,
      "Ġtrees": 4424,
      "Ġcrossing": 4425,
      "Ġpractice": 4426,
      "Ġfactors": 4427,
      "Ġinvestigation": 4428,
      "Ġinvestigate": 4429,
      "mitted": 4430,
      "Ġhimself": 4431,
      "Ġyounger": 4432,
      "Ġvolume": 4433,
      "Ġvolunte": 4434,
      "Ġcompetitors": 4435,
      "Ġrespond": 4436,
      "Ġbarrel": 4437,
      "Ġpredomin": 4438,
      "Ġpredecess": 4439,
      "Ġprint": 4440,
      "Ġfamiliar": 4441,
      "Ġfields": 4442,
      "Ġreleased": 4443,
      "Ġnecessary": 4444,
      "Ġnecessarily": 4445,
      "Ġprivile": 4446,
      "Ġmetroplus": 4447,
      "Ġcriticism": 4448,
      "Ġcruise": 4449,
      "Ġbattles": 4450,
      "Ġlisted": 4451,
      "Ġbeautiful": 4452,
      "iffs": 4453,
      "Ġkilling": 4454,
      "Ġdeclined": 4455,
      "Ġdeclaration": 4456,
      "Ġdiscuss": 4457,
      "Ġcarriage": 4458,
      "Ġsurvived": 4459,
      "Ġobserved": 4460,
      "Ġegyptians": 4461,
      "burgh": 4462,
      "prin": 4463,
      "Ġballs": 4464,
      "Ġmixture": 4465,
      "Ġcanadian": 4466,
      "Ġdemands": 4467,
      "Ġcycling": 4468,
      "aii": 4469,
      "Ġbudget": 4470,
      "Ġninet": 4471,
      "operative": 4472,
      "ipped": 4473,
      "Ġaccessible": 4474,
      "Ġquestions": 4475,
      "Ġwatching": 4476,
      "Ġcollabor": 4477,
      "Ġbaba": 4478,
      "Ġdreams": 4479,
      "Ġreview": 4480,
      "Ġaspects": 4481,
      "Ġproteins": 4482,
      "Ġdisplays": 4483,
      "Ġconsistent": 4484,
      "Ġrecently": 4485,
      "Ġtemperature": 4486,
      "Ġsymb": 4487,
      "Ġcolonial": 4488,
      "Ġcasablanca": 4489,
      "Ġcaves": 4490,
      "Ġmotor": 4491,
      "Ġtools": 4492,
      "Ġhydrogen": 4493,
      "Ġhitting": 4494,
      "Ġlabel": 4495,
      "Ġindicating": 4496,
      "Ġopposed": 4497,
      "Ġincreasingly": 4498,
      "Ġlaunching": 4499,
      "Ġencourages": 4500,
      "Ġresponsible": 4501,
      "ribut": 4502,
      "Ġcalifornia": 4503,
      "Ġpilgr": 4504,
      "Ġthinner": 4505,
      "Ġethn": 4506,
      "Ġsteps": 4507,
      "Ġrule": 4508,
      "Ġwhitehall": 4509,
      "Ġtraditionally": 4510,
      "Ġenemy": 4511,
      "Ġenemies": 4512,
      "Ġ1970": 4513,
      "Ġpakistani": 4514,
      "Ġversa": 4515,
      "Ġsaddle": 4516,
      "Ġsandbars": 4517,
      "Ġcreating": 4518,
      "Ġcrowded": 4519,
      "Ġbacteria": 4520,
      "Ġinhabitants": 4521,
      "Ġgardens": 4522,
      "Ġrussian": 4523,
      "Ġvillage": 4524,
      "Ġsecret": 4525,
      "Ġscreens": 4526,
      "Ġspoken": 4527,
      "Ġtexas": 4528,
      "Ġprofessional": 4529,
      "ijing": 4530,
      "Ġsenate": 4531,
      "Ġsanta": 4532,
      "Ġsoldiers": 4533,
      "Ġcrocod": 4534,
      "Ġpacific": 4535,
      "Ġfemales": 4536,
      "Ġfashion": 4537,
      "Ġhangi": 4538,
      "Ġefforts": 4539,
      "Ġvaccine": 4540,
      "Ġatmosphere": 4541,
      "Ġexactly": 4542,
      "Ġchallenging": 4543,
      "Ġclimbing": 4544,
      "Ġintrig": 4545,
      "Ġfeatured": 4546,
      "Ġphotographer": 4547,
      "Ġsweden": 4548,
      "expressions": 4549,
      "Ġcomplaints": 4550,
      "hyth": 4551,
      "nesday": 4552,
      "Ġsaturday": 4553,
      "Ġcuis": 4554,
      "Ġcircum": 4555,
      "Ġwednesday": 4556,
      "Ġluxur": 4557,
      "Ġexcellent": 4558,
      "Ġcanyon": 4559,
      "Ġshooting": 4560,
      "Ġcomponent": 4561,
      "Ġtwelve": 4562,
      "Ġsoftware": 4563,
      "Ġblossom": 4564,
      "Ġopportunity": 4565,
      "Ġpurchased": 4566,
      "Ġmoroccan": 4567,
      "travellers": 4568,
      "Ġdiabetes": 4569,
      "Ġsymptoms": 4570,
      "Ġprosecutions": 4571,
      "Ġtelescopes": 4572,
      "Ġceremonies": 4573,
      "ffee": 4574,
      "Ġcrystals": 4575,
      "Ġwilderness": 4576,
      "Ġfleet": 4577,
      "Ġebola": 4578,
      "Ġnovember": 4579,
      "Ġconsciousness": 4580,
      "Ġsurvey": 4581,
      "fortunately": 4582,
      "Ġimmigration": 4583,
      "Ġarabic": 4584,
      "Ġrecommendations": 4585,
      "Ġafghanistan": 4586,
      "bugs": 4587,
      "local": 4588,
      "sometimes": 4589,
      "Ġtheatre": 4590,
      "Ġsqueeze": 4591,
      "Ġpencil": 4592,
      "Ġfernand": 4593,
      "Ġmoment": 4594,
      "Ġmammals": 4595,
      "Ġinnov": 4596,
      "Ġtoginet": 4597,
      "Ġdivided": 4598,
      "Ġhorses": 4599,
      "omadic": 4600,
      "Ġlucid": 4601,
      "Ġlaptop": 4602,
      "Ġgathering": 4603,
      "Ġgymn": 4604,
      "Ġultim": 4605,
      "Ġvancouver": 4606,
      "Ġchinese": 4607,
      "Ġchannels": 4608,
      "Ġnewspaper": 4609,
      "Ġzimbabwe": 4610,
      "Ġparaguay": 4611,
      "Ġelizabeth": 4612,
      "Ġcopenhagen": 4613,
      "Ġcostello": 4614,
      "Ġbarrels": 4615,
      "Ġpredecessors": 4616,
      "14": 4617,
      "16": 4618,
      "28": 4619,
      "35": 4620,
      "45": 4621,
      "bor": 4622,
      "bad": 4623,
      "brit": 4624,
      "bits": 4625,
      "born": 4626,
      "body": 4627,
      "bron": 4628,
      "boks": 4629,
      "cal": 4630,
      "cus": 4631,
      "cany": 4632,
      "count": 4633,
      "care": 4634,
      "comp": 4635,
      "dp": 4636,
      "dain": 4637,
      "dles": 4638,
      "ew": 4639,
      "eor": 4640,
      "ech": 4641,
      "eering": 4642,
      "event": 4643,
      "even": 4644,
      "fu": 4645,
      "fred": 4646,
      "fish": 4647,
      "fact": 4648,
      "free": 4649,
      "from": 4650,
      "ga": 4651,
      "gu": 4652,
      "gue": 4653,
      "gold": 4654,
      "ground": 4655,
      "greg": 4656,
      "hin": 4657,
      "har": 4658,
      "high": 4659,
      "host": 4660,
      "hope": 4661,
      "iary": 4662,
      "iencing": 4663,
      "japan": 4664,
      "jerusalem": 4665,
      "km": 4666,
      "ken": 4667,
      "khar": 4668,
      "lap": 4669,
      "long": 4670,
      "lict": 4671,
      "luna": 4672,
      "min": 4673,
      "mid": 4674,
      "may": 4675,
      "mod": 4676,
      "mem": 4677,
      "mass": 4678,
      "made": 4679,
      "nh": 4680,
      "nor": 4681,
      "nels": 4682,
      "ob": 4683,
      "oose": 4684,
      "oons": 4685,
      "py": 4686,
      "pop": 4687,
      "pared": 4688,
      "rm": 4689,
      "rum": 4690,
      "rast": 4691,
      "ried": 4692,
      "rison": 4693,
      "rator": 4694,
      "sm": 4695,
      "sw": 4696,
      "san": 4697,
      "spe": 4698,
      "site": 4699,
      "ta": 4700,
      "tro": 4701,
      "tled": 4702,
      "tah": 4703,
      "uments": 4704,
      "ufact": 4705,
      "vantage": 4706,
      "wer": 4707,
      "wood": 4708,
      "western": 4709,
      "waii": 4710,
      "xy": 4711,
      "yer": 4712,
      "yan": 4713,
      "ych": 4714,
      "yapock": 4715,
      "zant": 4716,
      "Â²": 4717,
      "ÃŃ": 4718,
      "Ġ$": 4719,
      "Ġvel": 4720,
      "Ġton": 4721,
      "Ġtide": 4722,
      "Ġtail": 4723,
      "Ġtaught": 4724,
      "Ġaires": 4725,
      "Ġazer": 4726,
      "ini": 4727,
      "inity": 4728,
      "inary": 4729,
      "inness": 4730,
      "Ġtherm": 4731,
      "Ġoyapock": 4732,
      "Ġson": 4733,
      "Ġsul": 4734,
      "Ġsack": 4735,
      "Ġsized": 4736,
      "Ġsaint": 4737,
      "Ġsophisticated": 4738,
      "erve": 4739,
      "eration": 4740,
      "Ġcud": 4741,
      "Ġcart": 4742,
      "Ġcable": 4743,
      "Ġcep": 4744,
      "Ġcorn": 4745,
      "Ġcrown": 4746,
      "Ġwr": 4747,
      "Ġwish": 4748,
      "Ġwines": 4749,
      "Ġwives": 4750,
      "Ġwoman": 4751,
      "oning": 4752,
      "onic": 4753,
      "onse": 4754,
      "anian": 4755,
      "anied": 4756,
      "enic": 4757,
      "enos": 4758,
      "atch": 4759,
      "ators": 4760,
      "atoes": 4761,
      "Ġbi": 4762,
      "Ġbil": 4763,
      "Ġbish": 4764,
      "Ġbosses": 4765,
      "Ġbenef": 4766,
      "esus": 4767,
      "esco": 4768,
      "especially": 4769,
      "iser": 4770,
      "isis": 4771,
      "isod": 4772,
      "itures": 4773,
      "itute": 4774,
      "Ġpic": 4775,
      "Ġpow": 4776,
      "Ġpig": 4777,
      "Ġpod": 4778,
      "Ġpag": 4779,
      "Ġpage": 4780,
      "Ġpbs": 4781,
      "Ġpale": 4782,
      "Ġpaper": 4783,
      "Ġfans": 4784,
      "Ġfish": 4785,
      "Ġfame": 4786,
      "Ġfence": 4787,
      "Ġfoss": 4788,
      "Ġfought": 4789,
      "Ġmort": 4790,
      "Ġmant": 4791,
      "Ġmile": 4792,
      "Ġmine": 4793,
      "Ġmach": 4794,
      "Ġmale": 4795,
      "oria": 4796,
      "orph": 4797,
      "alo": 4798,
      "alt": 4799,
      "alom": 4800,
      "oulos": 4801,
      "aria": 4802,
      "asures": 4803,
      "Ġdu": 4804,
      "Ġder": 4805,
      "Ġdign": 4806,
      "Ġdates": 4807,
      "Ġdivers": 4808,
      "Ġdiet": 4809,
      "Ġduel": 4810,
      "Ġdani": 4811,
      "Ġdogs": 4812,
      "Ġhom": 4813,
      "Ġhus": 4814,
      "Ġhoc": 4815,
      "Ġhits": 4816,
      "Ġhier": 4817,
      "Ġhopes": 4818,
      "lege": 4819,
      "lects": 4820,
      "omy": 4821,
      "Ġnam": 4822,
      "Ġnone": 4823,
      "Ġnuts": 4824,
      "Ġnomadic": 4825,
      "Ġthrow": 4826,
      "Ġthunder": 4827,
      "Ġeg": 4828,
      "Ġlas": 4829,
      "Ġlived": 4830,
      "Ġliqu": 4831,
      "Ġlug": 4832,
      "Ġlond": 4833,
      "Ġluna": 4834,
      "Ġbeat": 4835,
      "Ġbever": 4836,
      "Ġreign": 4837,
      "Ġreindeer": 4838,
      "theless": 4839,
      "str": 4840,
      "stra": 4841,
      "state": 4842,
      "stone": 4843,
      "stances": 4844,
      "Ġgib": 4845,
      "Ġgoma": 4846,
      "lyn": 4847,
      "Ġisn": 4848,
      "rostr": 4849,
      "idering": 4850,
      "Ġuk": 4851,
      "Ġutah": 4852,
      "iments": 4853,
      "oto": 4854,
      "Ġstol": 4855,
      "Ġstaff": 4856,
      "Ġstirru": 4857,
      "igg": 4858,
      "ayat": 4859,
      "utation": 4860,
      "utions": 4861,
      "Ġforget": 4862,
      "olate": 4863,
      "Ġaren": 4864,
      "aders": 4865,
      "adays": 4866,
      "advantage": 4867,
      "Ġyard": 4868,
      "Ġyards": 4869,
      "amples": 4870,
      "thus": 4871,
      "cham": 4872,
      "ouns": 4873,
      "ounter": 4874,
      "Ġwelf": 4875,
      "ifts": 4876,
      "opoulos": 4877,
      "Ġrank": 4878,
      "Ġrival": 4879,
      "Ġriot": 4880,
      "Ġrhyth": 4881,
      "Ġvic": 4882,
      "Ġvins": 4883,
      "Ġvoice": 4884,
      "Ġcondu": 4885,
      "Ġhabits": 4886,
      "Ġhawaii": 4887,
      "Ġsuff": 4888,
      "Ġsusp": 4889,
      "Ġsufficient": 4890,
      "akis": 4891,
      "iest": 4892,
      "Ġfranc": 4893,
      "Ġken": 4894,
      "Ġkhand": 4895,
      "Ġkhu": 4896,
      "Ġhen": 4897,
      "Ġheav": 4898,
      "Ġheels": 4899,
      "Ġhebron": 4900,
      "estyle": 4901,
      "Ġbyzant": 4902,
      "ersburg": 4903,
      "istics": 4904,
      "Ġexem": 4905,
      "Ġexha": 4906,
      "Ġsect": 4907,
      "Ġsection": 4908,
      "Ġselected": 4909,
      "acy": 4910,
      "acher": 4911,
      "acuated": 4912,
      "quality": 4913,
      "Ġjaw": 4914,
      "Ġjames": 4915,
      "Ġjesus": 4916,
      "Ġcann": 4917,
      "Ġcanal": 4918,
      "Ġdeb": 4919,
      "Ġdeleg": 4920,
      "Ġdegree": 4921,
      "Ġproduced": 4922,
      "Ġproceed": 4923,
      "unk": 4924,
      "osite": 4925,
      "osition": 4926,
      "osling": 4927,
      "urer": 4928,
      "Ġshore": 4929,
      "Ġshared": 4930,
      "Ġunav": 4931,
      "Ġunesco": 4932,
      "Ġnote": 4933,
      "Ġ1200": 4934,
      "Ġlee": 4935,
      "Ġleather": 4936,
      "ours": 4937,
      "ante": 4938,
      "anticism": 4939,
      "apo": 4940,
      "apia": 4941,
      "enditures": 4942,
      "rene": 4943,
      "renthood": 4944,
      "ials": 4945,
      "ially": 4946,
      "Ġtrait": 4947,
      "Ġtrails": 4948,
      "Ġtracks": 4949,
      "ump": 4950,
      "Ġariz": 4951,
      "Ġworse": 4952,
      "anying": 4953,
      "usting": 4954,
      "elwal": 4955,
      "Ġenro": 4956,
      "peror": 4957,
      "Ġclimates": 4958,
      "izan": 4959,
      "izational": 4960,
      "Ġsavann": 4961,
      "kek": 4962,
      "Ġintu": 4963,
      "Ġintention": 4964,
      "Ġtrig": 4965,
      "Ġadvent": 4966,
      "Ġadmitted": 4967,
      "ptions": 4968,
      "Ġscale": 4969,
      "Ġscored": 4970,
      "Ġscaff": 4971,
      "Ġscores": 4972,
      "Ġevolution": 4973,
      "Ġevacuated": 4974,
      "itecture": 4975,
      "ateral": 4976,
      "Ġindo": 4977,
      "Ġrod": 4978,
      "Ġprices": 4979,
      "anged": 4980,
      "Ġphage": 4981,
      "Ġphones": 4982,
      "class": 4983,
      "Ġspill": 4984,
      "Ġspinning": 4985,
      "Ġsphin": 4986,
      "Ġfee": 4987,
      "Ġsomewhat": 4988,
      "Ġdisadvantage": 4989,
      "Ġovers": 4990,
      "Ġteeth": 4991,
      "Ġresist": 4992,
      "Ġresign": 4993,
      "Ġraces": 4994,
      "Ġraju": 4995,
      "Ġoutdo": 4996,
      "ford": 4997,
      "Ġspelling": 4998,
      "Ġnewer": 4999,
      "Ġdoor": 5000,
      "Ġtherefore": 5001,
      "enses": 5002,
      "asses": 5003,
      "Ġamended": 5004,
      "Ġpartizan": 5005,
      "Ġpermit": 5006,
      "bert": 5007,
      "Ġmeant": 5008,
      "Ġmeals": 5009,
      "ffalo": 5010,
      "fecture": 5011,
      "Ġformation": 5012,
      "Ġcoaches": 5013,
      "Ġcovid": 5014,
      "Ġcoffee": 5015,
      "Ġpolish": 5016,
      "Ġflies": 5017,
      "Ġflood": 5018,
      "Ġflags": 5019,
      "Ġgranted": 5020,
      "Ġreco": 5021,
      "Ġrecre": 5022,
      "Ġwarmer": 5023,
      "Ġwarming": 5024,
      "Ġrelax": 5025,
      "Ġskates": 5026,
      "orship": 5027,
      "Ġprefer": 5028,
      "Ġprefecture": 5029,
      "Ġairlin": 5030,
      "Ġbox": 5031,
      "Ġboost": 5032,
      "Ġboats": 5033,
      "Ġshown": 5034,
      "Ġunderwater": 5035,
      "Ġreporting": 5036,
      "Ġblade": 5037,
      "Ġsmoke": 5038,
      "Ġactive": 5039,
      "Ġactually": 5040,
      "Ġregulations": 5041,
      "Ġbackcount": 5042,
      "Ġseries": 5043,
      "Ġinvade": 5044,
      "Ġinvention": 5045,
      "Ġinvaded": 5046,
      "Ġ1989": 5047,
      "Ġbuenos": 5048,
      "Ġbuffalo": 5049,
      "Ġmedal": 5050,
      "Ġstudio": 5051,
      "Ġstudded": 5052,
      "Ġattend": 5053,
      "Ġpositions": 5054,
      "neider": 5055,
      "next": 5056,
      "Ġmanip": 5057,
      "Ġmanner": 5058,
      "Ġmanufact": 5059,
      "Ġmeteor": 5060,
      "Ġremo": 5061,
      "Ġzag": 5062,
      "Ġzamb": 5063,
      "Ġpopulated": 5064,
      "Ġtransparent": 5065,
      "Ġtranslate": 5066,
      "Ġbran": 5067,
      "Ġprovider": 5068,
      "Ġprovided": 5069,
      "Ġshouldn": 5070,
      "Ġmah": 5071,
      "Ġminute": 5072,
      "Ġmonaster": 5073,
      "Ġdesc": 5074,
      "Ġmaria": 5075,
      "Ġmarried": 5076,
      "pective": 5077,
      "Ġ36": 5078,
      "Ġ37": 5079,
      "Ġcrisis": 5080,
      "Ġexperiencing": 5081,
      "Ġendurance": 5082,
      "Ġcharm": 5083,
      "Ġcharles": 5084,
      "Ġnorthwest": 5085,
      "Ġassured": 5086,
      "Ġoffices": 5087,
      "Ġgeneration": 5088,
      "Ġextract": 5089,
      "Ġdistrict": 5090,
      "Ġownership": 5091,
      "arsh": 5092,
      "Ġiw": 5093,
      "Ġmainland": 5094,
      "Ġ2007": 5095,
      "ieth": 5096,
      "Ġavian": 5097,
      "Ġemail": 5098,
      "Ġemiss": 5099,
      "Ġemploy": 5100,
      "Ġemperor": 5101,
      "Ġstrateg": 5102,
      "Ġexpenditures": 5103,
      "Ġeveryday": 5104,
      "Ġfindings": 5105,
      "ceptions": 5106,
      "Ġsteal": 5107,
      "Ġsteeper": 5108,
      "Ġlegs": 5109,
      "pics": 5110,
      "Ġslipper": 5111,
      "Ġslalom": 5112,
      "Ġhighlight": 5113,
      "Ġreceiving": 5114,
      "otherm": 5115,
      "Ġautom": 5116,
      "Ġcurves": 5117,
      "Ġorganizations": 5118,
      "Ġsunk": 5119,
      "Ġallowing": 5120,
      "Ġpossess": 5121,
      "Ġpossibility": 5122,
      "Ġwinning": 5123,
      "Ġbush": 5124,
      "Ġpersons": 5125,
      "Ġperspective": 5126,
      "Ġinsurer": 5127,
      "Ġgeological": 5128,
      "tlement": 5129,
      "Ġsetting": 5130,
      "Ġsettled": 5131,
      "Ġsettlement": 5132,
      "Ġhandle": 5133,
      "Ġbehave": 5134,
      "Ġleaders": 5135,
      "Ġimportance": 5136,
      "Ġresulting": 5137,
      "turkey": 5138,
      "Ġdecided": 5139,
      "Ġdecision": 5140,
      "Ġlawsuit": 5141,
      "Ġunderstands": 5142,
      "such": 5143,
      "Ġinterior": 5144,
      "Ġinteractive": 5145,
      "Ġgreatest": 5146,
      "curs": 5147,
      "Ġ50": 5148,
      "Ġ53": 5149,
      "Ġ500": 5150,
      "Ġbrains": 5151,
      "Ġpatent": 5152,
      "learning": 5153,
      "Ġrestore": 5154,
      "Ġrestrict": 5155,
      "Ġgraft": 5156,
      "deback": 5157,
      "Ġparenthood": 5158,
      "Ġguinness": 5159,
      "Ġjobs": 5160,
      "Ġradar": 5161,
      "worth": 5162,
      "world": 5163,
      "Ġentire": 5164,
      "Ġdirection": 5165,
      "Ġexplan": 5166,
      "Ġsupported": 5167,
      "Ġbirth": 5168,
      "Ġsucceed": 5169,
      "Ġseasonal": 5170,
      "Ġprocesses": 5171,
      "Ġtaxis": 5172,
      "typical": 5173,
      "chner": 5174,
      "Ġsummit": 5175,
      "Ġopened": 5176,
      "Ġopening": 5177,
      "Ġmountaineering": 5178,
      "Ġsingle": 5179,
      "Ġcorpor": 5180,
      "Ġantique": 5181,
      "Ġantiques": 5182,
      "Ġharbor": 5183,
      "Ġvirgin": 5184,
      "Ġvirtually": 5185,
      "Ġarrival": 5186,
      "Ġactivities": 5187,
      "Ġpole": 5188,
      "Ġfocal": 5189,
      "Ġfocusing": 5190,
      "Ġtowers": 5191,
      "Ġhealthy": 5192,
      "Ġcouldn": 5193,
      "Ġholds": 5194,
      "Ġreturned": 5195,
      "Ġvote": 5196,
      "Ġvoter": 5197,
      "Ġconflict": 5198,
      "Ġdefin": 5199,
      "Ġspecialise": 5200,
      "Ġbooks": 5201,
      "Ġbooking": 5202,
      "Ġsuccesses": 5203,
      "Ġsnowy": 5204,
      "Ġmorph": 5205,
      "Ġcombines": 5206,
      "Ġinvolving": 5207,
      "Ġinvolves": 5208,
      "Ġenvironmental": 5209,
      "loading": 5210,
      "Ġveget": 5211,
      "Ġoperated": 5212,
      "Ġoperations": 5213,
      "Ġoperating": 5214,
      "Ġhungar": 5215,
      "Ġappears": 5216,
      "Ġtreatment": 5217,
      "Ġconstru": 5218,
      "Ġconstitution": 5219,
      "Ġproducts": 5220,
      "Ġeventually": 5221,
      "Ġlaid": 5222,
      "Ġjuice": 5223,
      "Ġargot": 5224,
      "Ġcontinue": 5225,
      "Ġbridges": 5226,
      "Ġbrother": 5227,
      "Ġbroken": 5228,
      "Ġviews": 5229,
      "Ġviewing": 5230,
      "Ġelectrons": 5231,
      "Ġirrit": 5232,
      "Ġverified": 5233,
      "Ġportion": 5234,
      "Ġflying": 5235,
      "Ġfacility": 5236,
      "Ġvolcan": 5237,
      "Ġlevels": 5238,
      "Ġlegalization": 5239,
      "aho": 5240,
      "Ġcustomer": 5241,
      "Ġwonder": 5242,
      "Ġbarcelona": 5243,
      "Ġpredict": 5244,
      "Ġprograms": 5245,
      "Ġabsent": 5246,
      "Ġprinciple": 5247,
      "jective": 5248,
      "Ġpaint": 5249,
      "Ġrelev": 5250,
      "Ġconnection": 5251,
      "Ġconnects": 5252,
      "Ġfriends": 5253,
      "Ġchurches": 5254,
      "Ġperiods": 5255,
      "Ġ1995": 5256,
      "Ġassociation": 5257,
      "Ġsources": 5258,
      "Ġfreezing": 5259,
      "Ġmicrosc": 5260,
      "alanches": 5261,
      "Ġmosasaur": 5262,
      "Ġsurvival": 5263,
      "Ġobserv": 5264,
      "Ġidentified": 5265,
      "Ġballot": 5266,
      "Ġmixed": 5267,
      "Ġhorr": 5268,
      "Ġjourdain": 5269,
      "Ġvehicles": 5270,
      "Ġstructure": 5271,
      "examples": 5272,
      "Ġticket": 5273,
      "Ġarabs": 5274,
      "Ġpetersburg": 5275,
      "Ġdrag": 5276,
      "Ġninth": 5277,
      "Ġnintend": 5278,
      "Ġexisting": 5279,
      "Ġexistence": 5280,
      "Ġaccessed": 5281,
      "Ġprecious": 5282,
      "Ġblocks": 5283,
      "Ġparticipating": 5284,
      "Ġtarget": 5285,
      "Ġsanctions": 5286,
      "Ġcollided": 5287,
      "enza": 5288,
      "Ġbaby": 5289,
      "Ġfootball": 5290,
      "Ġdrug": 5291,
      "Ġseparate": 5292,
      "Ġseparated": 5293,
      "Ġprotect": 5294,
      "Ġshopping": 5295,
      "Ġclocks": 5296,
      "Ġaccepted": 5297,
      "Ġacceptable": 5298,
      "Ġdisplay": 5299,
      "Ġcooked": 5300,
      "Ġrecognized": 5301,
      "Ġdifference": 5302,
      "Ġpassports": 5303,
      "Ġcolony": 5304,
      "meters": 5305,
      "related": 5306,
      "Ġsample": 5307,
      "Ġsamoa": 5308,
      "Ġpackages": 5309,
      "Ġfighting": 5310,
      "Ġhyp": 5311,
      "Ġepisod": 5312,
      "Ġvarying": 5313,
      "Ġcloser": 5314,
      "Ġclubs": 5315,
      "Ġadmin": 5316,
      "Ġagreement": 5317,
      "Ġmeditation": 5318,
      "Ġtemporarily": 5319,
      "Ġopposite": 5320,
      "Ġinfluence": 5321,
      "Ġinfluenza": 5322,
      "running": 5323,
      "Ġpulled": 5324,
      "Ġfilling": 5325,
      "Ġholes": 5326,
      "Ġholid": 5327,
      "Ġreplace": 5328,
      "Ġspringboks": 5329,
      "Ġrespectively": 5330,
      "Ġrecommended": 5331,
      "Ġcharacteristics": 5332,
      "Ġconcerts": 5333,
      "Ġkingdoms": 5334,
      "Ġiranian": 5335,
      "Ġneighborhood": 5336,
      "Ġarchipelagos": 5337,
      "Ġsaddles": 5338,
      "Ġcrowd": 5339,
      "Ġbacterium": 5340,
      "Ġgarden": 5341,
      "Ġisolation": 5342,
      "Ġisolated": 5343,
      "Ġrussia": 5344,
      "Ġsustained": 5345,
      "Ġsuspected": 5346,
      "Ġsecure": 5347,
      "Ġscreen": 5348,
      "Ġspokes": 5349,
      "Ġtexts": 5350,
      "Ġpreviously": 5351,
      "Ġviolent": 5352,
      "Ġidea": 5353,
      "international": 5354,
      "Ġwooden": 5355,
      "Ġbulb": 5356,
      "Ġinitiative": 5357,
      "Ġnaval": 5358,
      "Ġlandscape": 5359,
      "Ġbelgian": 5360,
      "Ġcrusaders": 5361,
      "Ġdetails": 5362,
      "Ġinterpreting": 5363,
      "Ġpoisoning": 5364,
      "Ġphilosop": 5365,
      "Ġphilosoph": 5366,
      "Ġbuddhism": 5367,
      "personal": 5368,
      "bbed": 5369,
      "germany": 5370,
      "general": 5371,
      "Ġtitle": 5372,
      "Ġalexander": 5373,
      "Ġsediment": 5374,
      "Ġsanskrit": 5375,
      "Ġpicture": 5376,
      "Ġmurder": 5377,
      "igeria": 5378,
      "Ġfortress": 5379,
      "Ġranging": 5380,
      "Ġkirchner": 5381,
      "Ġexchange": 5382,
      "Ġalphabet": 5383,
      "Ġabandoned": 5384,
      "Ġenvelopes": 5385,
      "claimed": 5386,
      "Ġspectrum": 5387,
      "Ġcontradic": 5388,
      "Ġapartment": 5389,
      "Ġpolicies": 5390,
      "Ġgeographical": 5391,
      "Ġannouncement": 5392,
      "Ġterror": 5393,
      "Ġdiagnosis": 5394,
      "Ġchampionship": 5395,
      "Ġalcoholic": 5396,
      "Ġaccommodation": 5397,
      "Ġparliamentary": 5398,
      "following": 5399,
      "wildlife": 5400,
      "Ġcracks": 5401,
      "Ġcredit": 5402,
      "Ġmutations": 5403,
      "Ġtoilets": 5404,
      "Ġdollars": 5405,
      "Ġlady": 5406,
      "thentic": 5407,
      "Ġgallons": 5408,
      "Ġvenus": 5409,
      "Ġkorean": 5410,
      "Ġsexual": 5411,
      "unciation": 5412,
      "Ġshapes": 5413,
      "Ġadoption": 5414,
      "Ġcaribes": 5415,
      "Ġconsuming": 5416,
      "constitution": 5417,
      "Ġaccompanying": 5418,
      "Ġmathematician": 5419,
      "Ġinternalized": 5420,
      "Ġfungus": 5421,
      "Ġkeyboard": 5422,
      "Ġinspires": 5423,
      "Ġgeologic": 5424,
      "Ġocelots": 5425,
      "Ġfreedom": 5426,
      "Ġantarctica": 5427,
      "Ġarrangement": 5428,
      "Ġargentine": 5429,
      "Ġphilippines": 5430,
      "Ġcorrectly": 5431,
      "Ġhinduism": 5432,
      "histor": 5433,
      "Ġauthentic": 5434,
      "Ġastron": 5435,
      "Ġsacr": 5436,
      "Ġbhajan": 5437,
      "Ġprague": 5438,
      "Ġpieces": 5439,
      "Ġfoam": 5440,
      "Ġdinner": 5441,
      "Ġdomest": 5442,
      "Ġyacht": 5443,
      "Ġweapons": 5444,
      "Ġshuttle": 5445,
      "Ġaccurate": 5446,
      "Ġmaximum": 5447,
      "Ġmemorial": 5448,
      "Ġguarante": 5449,
      "Ġstretch": 5450,
      "luxembourg": 5451,
      "Ġdiscussed": 5452,
      "ributed": 5453,
      "Ġethnic": 5454,
      "Ġsecretary": 5455,
      "Ġcuisine": 5456,
      "Ġcircumstances": 5457,
      "Ġfernando": 5458,
      "Ġinnovative": 5459,
      "Ġultimately": 5460,
      "canyoning": 5461,
      "eventually": 5462,
      "hopefully": 5463,
      "middle": 5464,
      "maybe": 5465,
      "modern": 5466,
      "members": 5467,
      "Ġcuddeback": 5468,
      "Ġbishkek": 5469,
      "orphic": 5470,
      "Ġhusband": 5471,
      "Ġhockey": 5472,
      "Ġhierarch": 5473,
      "Ġthrowing": 5474,
      "Ġthunderstorms": 5475,
      "Ġliquid": 5476,
      "Ġluggage": 5477,
      "Ġlondon": 5478,
      "Ġstolen": 5479,
      "Ġstirrup": 5480,
      "Ġwelfare": 5481,
      "Ġrhythms": 5482,
      "Ġvinson": 5483,
      "Ġfrancis": 5484,
      "Ġkhandelwal": 5485,
      "Ġkhufu": 5486,
      "Ġheavily": 5487,
      "Ġbyzantine": 5488,
      "Ġexhausting": 5489,
      "Ġproceedings": 5490,
      "Ġarizona": 5491,
      "Ġsavanna": 5492,
      "Ġscaffold": 5493,
      "Ġsphinx": 5494,
      "Ġoutdoors": 5495,
      "Ġairliner": 5496,
      "Ġbackcountry": 5497,
      "Ġzambia": 5498,
      "Ġemissions": 5499,
      "Ġstrategic": 5500,
      "Ġslippery": 5501,
      "Ġhungarian": 5502,
      "Ġmosasaurs": 5503,
      "Ġnintendo": 5504,
      "Ġepisode": 5505,
      "Ġcontradicts": 5506,
      "21": 5507,
      "24": 5508,
      "34": 5509,
      "36": 5510,
      "46": 5511,
      "84": 5512,
      "aan": 5513,
      "aus": 5514,
      "aust": 5515,
      "bed": 5516,
      "bar": 5517,
      "bra": 5518,
      "bod": 5519,
      "bound": 5520,
      "bel": 5521,
      "bage": 5522,
      "bru": 5523,
      "bration": 5524,
      "brown": 5525,
      "bai": 5526,
      "besides": 5527,
      "cos": 5528,
      "cast": 5529,
      "cong": 5530,
      "cons": 5531,
      "cities": 5532,
      "cines": 5533,
      "cium": 5534,
      "crip": 5535,
      "dy": 5536,
      "don": 5537,
      "dut": 5538,
      "dam": 5539,
      "dist": 5540,
      "dred": 5541,
      "dry": 5542,
      "dark": 5543,
      "dicated": 5544,
      "dipl": 5545,
      "dani": 5546,
      "dden": 5547,
      "dimens": 5548,
      "ev": 5549,
      "ees": 5550,
      "ele": 5551,
      "east": 5552,
      "eenth": 5553,
      "ecines": 5554,
      "fl": 5555,
      "fr": 5556,
      "fam": 5557,
      "fia": 5558,
      "french": 5559,
      "ffered": 5560,
      "gian": 5561,
      "hra": 5562,
      "hone": 5563,
      "iop": 5564,
      "iors": 5565,
      "iraq": 5566,
      "ja": 5567,
      "jon": 5568,
      "jah": 5569,
      "ki": 5570,
      "kn": 5571,
      "king": 5572,
      "kha": 5573,
      "ler": 5574,
      "las": 5575,
      "lic": 5576,
      "lad": 5577,
      "lod": 5578,
      "lib": 5579,
      "length": 5580,
      "lotte": 5581,
      "mr": 5582,
      "mt": 5583,
      "mis": 5584,
      "mates": 5585,
      "mail": 5586,
      "mapp": 5587,
      "mination": 5588,
      "money": 5589,
      "mrs": 5590,
      "marks": 5591,
      "nom": 5592,
      "net": 5593,
      "ners": 5594,
      "natural": 5595,
      "oz": 5596,
      "ooth": 5597,
      "ped": 5598,
      "pal": 5599,
      "phere": 5600,
      "pron": 5601,
      "ril": 5602,
      "rant": 5603,
      "rich": 5604,
      "sl": 5605,
      "ss": 5606,
      "sing": 5607,
      "set": 5608,
      "sch": 5609,
      "sip": 5610,
      "sans": 5611,
      "sack": 5612,
      "sday": 5613,
      "sik": 5614,
      "sca": 5615,
      "tow": 5616,
      "try": 5617,
      "take": 5618,
      "tured": 5619,
      "uan": 5620,
      "uity": 5621,
      "ujah": 5622,
      "vd": 5623,
      "vi": 5624,
      "vide": 5625,
      "villa": 5626,
      "vatican": 5627,
      "walk": 5628,
      "winning": 5629,
      "wanted": 5630,
      "xin": 5631,
      "yet": 5632,
      "ystem": 5633,
      "zoun": 5634,
      "zens": 5635,
      "zuel": 5636,
      "zamb": 5637,
      "§a": 5638,
      "Â°": 5639,
      "Ã³": 5640,
      "Ã¶": 5641,
      "Ã§a": 5642,
      "Ġions": 5643,
      "Ġtain": 5644,
      "Ġtap": 5645,
      "Ġtear": 5646,
      "Ġtub": 5647,
      "Ġtanks": 5648,
      "Ġtornad": 5649,
      "Ġtornadoes": 5650,
      "Ġtiger": 5651,
      "Ġtouch": 5652,
      "Ġaes": 5653,
      "Ġaur": 5654,
      "Ġald": 5655,
      "Ġaquar": 5656,
      "hered": 5657,
      "hecus": 5658,
      "inal": 5659,
      "inem": 5660,
      "inland": 5661,
      "inces": 5662,
      "inism": 5663,
      "invis": 5664,
      "inhab": 5665,
      "inforce": 5666,
      "intend": 5667,
      "inpoint": 5668,
      "inburgh": 5669,
      "rely": 5670,
      "rection": 5671,
      "Ġoha": 5672,
      "Ġsin": 5673,
      "Ġsis": 5674,
      "Ġsap": 5675,
      "Ġsess": 5676,
      "Ġsult": 5677,
      "Ġswe": 5678,
      "Ġsands": 5679,
      "Ġsought": 5680,
      "Ġsocket": 5681,
      "erly": 5682,
      "erry": 5683,
      "erated": 5684,
      "erts": 5685,
      "Ġcct": 5686,
      "Ġcow": 5687,
      "Ġcore": 5688,
      "Ġcens": 5689,
      "Ġcues": 5690,
      "Ġcuts": 5691,
      "Ġcandid": 5692,
      "Ġcherry": 5693,
      "Ġcinem": 5694,
      "Ġwings": 5695,
      "Ġwits": 5696,
      "Ġwond": 5697,
      "onut": 5698,
      "onia": 5699,
      "onways": 5700,
      "anur": 5701,
      "anned": 5702,
      "ancient": 5703,
      "anium": 5704,
      "enes": 5705,
      "ened": 5706,
      "enge": 5707,
      "enced": 5708,
      "enoid": 5709,
      "atography": 5710,
      "Ġbore": 5711,
      "Ġbread": 5712,
      "Ġbags": 5713,
      "ising": 5714,
      "isible": 5715,
      "isbane": 5716,
      "itud": 5717,
      "itian": 5718,
      "itual": 5719,
      "ithecus": 5720,
      "Ġpap": 5721,
      "Ġpests": 5722,
      "Ġpending": 5723,
      "Ġpocket": 5724,
      "Ġpinpoint": 5725,
      "editing": 5726,
      "Ġfis": 5727,
      "Ġfit": 5728,
      "Ġfic": 5729,
      "Ġfel": 5730,
      "Ġfost": 5731,
      "Ġfather": 5732,
      "Ġfram": 5733,
      "Ġfission": 5734,
      "Ġfitness": 5735,
      "Ġfencing": 5736,
      "Ġfonse": 5737,
      "Ġmis": 5738,
      "Ġment": 5739,
      "Ġmess": 5740,
      "Ġmend": 5741,
      "Ġmel": 5742,
      "Ġmang": 5743,
      "Ġmau": 5744,
      "Ġmoll": 5745,
      "Ġmales": 5746,
      "Ġmira": 5747,
      "Ġmakis": 5748,
      "ora": 5749,
      "orid": 5750,
      "orate": 5751,
      "orious": 5752,
      "origin": 5753,
      "ala": 5754,
      "alis": 5755,
      "alle": 5756,
      "alini": 5757,
      "ouval": 5758,
      "arm": 5759,
      "arter": 5760,
      "arian": 5761,
      "arable": 5762,
      "arles": 5763,
      "arps": 5764,
      "Ġinland": 5765,
      "Ġinexp": 5766,
      "Ġinmates": 5767,
      "asion": 5768,
      "astern": 5769,
      "asma": 5770,
      "Ġdous": 5771,
      "Ġdens": 5772,
      "Ġdram": 5773,
      "Ġdomin": 5774,
      "Ġduty": 5775,
      "Ġdavid": 5776,
      "Ġdvd": 5777,
      "Ġhk": 5778,
      "Ġhid": 5779,
      "Ġhall": 5780,
      "Ġhide": 5781,
      "Ġhij": 5782,
      "iche": 5783,
      "icing": 5784,
      "icial": 5785,
      "icient": 5786,
      "lev": 5787,
      "level": 5788,
      "ompl": 5789,
      "Ġnick": 5790,
      "Ġnatur": 5791,
      "Ġngaw": 5792,
      "Ġnerve": 5793,
      "Ġthr": 5794,
      "Ġthur": 5795,
      "Ġeh": 5796,
      "Ġell": 5797,
      "Ġeld": 5798,
      "Ġlif": 5799,
      "Ġlun": 5800,
      "Ġlum": 5801,
      "Ġlions": 5802,
      "Ġlav": 5803,
      "Ġlik": 5804,
      "Ġloss": 5805,
      "Ġlyn": 5806,
      "Ġlying": 5807,
      "Ġlingu": 5808,
      "iles": 5809,
      "illy": 5810,
      "ilomet": 5811,
      "Ġbearing": 5812,
      "Ġbeams": 5813,
      "Ġbeijing": 5814,
      "Ġret": 5815,
      "Ġrex": 5816,
      "Ġrect": 5817,
      "Ġreached": 5818,
      "Ġreinforce": 5819,
      "vement": 5820,
      "thetic": 5821,
      "strom": 5822,
      "stnut": 5823,
      "Ġgot": 5824,
      "Ġgest": 5825,
      "Ġgone": 5826,
      "Ġgord": 5827,
      "Ġgrown": 5828,
      "Ġgolf": 5829,
      "Ġgiza": 5830,
      "Ġghra": 5831,
      "Ġgmt": 5832,
      "rocities": 5833,
      "raction": 5834,
      "radar": 5835,
      "ctuary": 5836,
      "idic": 5837,
      "idity": 5838,
      "irl": 5839,
      "eter": 5840,
      "imate": 5841,
      "image": 5842,
      "imulated": 5843,
      "Ġonion": 5844,
      "otle": 5845,
      "otting": 5846,
      "otenoid": 5847,
      "Ġstur": 5848,
      "Ġstad": 5849,
      "Ġstren": 5850,
      "Ġstations": 5851,
      "Ġstark": 5852,
      "Ġstays": 5853,
      "Ġstamp": 5854,
      "Ġstones": 5855,
      "Ġstuck": 5856,
      "igil": 5857,
      "igata": 5858,
      "ayana": 5859,
      "utism": 5860,
      "Ġfork": 5861,
      "Ġforward": 5862,
      "vert": 5863,
      "olous": 5864,
      "uration": 5865,
      "urrection": 5866,
      "adian": 5867,
      "see": 5868,
      "sex": 5869,
      "sequ": 5870,
      "semination": 5871,
      "Ġyork": 5872,
      "aments": 5873,
      "amanian": 5874,
      "think": 5875,
      "thanks": 5876,
      "charles": 5877,
      "Ġasian": 5878,
      "Ġmod": 5879,
      "Ġmoist": 5880,
      "Ġmozamb": 5881,
      "tering": 5882,
      "Ġweak": 5883,
      "Ġweaken": 5884,
      "ifi": 5885,
      "ifacts": 5886,
      "opy": 5887,
      "oping": 5888,
      "opithecus": 5889,
      "ulpt": 5890,
      "Ġorg": 5891,
      "Ġvene": 5892,
      "Ġvidal": 5893,
      "Ġvigil": 5894,
      "Ġcondition": 5895,
      "Ġconvers": 5896,
      "Ġconferen": 5897,
      "Ġconclusion": 5898,
      "Ġcongreg": 5899,
      "Ġconsequ": 5900,
      "Ġhaz": 5901,
      "Ġhail": 5902,
      "Ġhaitian": 5903,
      "gement": 5904,
      "Ġsudden": 5905,
      "Ġsuffered": 5906,
      "akras": 5907,
      "akkha": 5908,
      "illes": 5909,
      "Ġatrocities": 5910,
      "Ġkay": 5911,
      "Ġkru": 5912,
      "Ġkph": 5913,
      "Ġkash": 5914,
      "Ġkund": 5915,
      "Ġkilomet": 5916,
      "Ġhear": 5917,
      "Ġheir": 5918,
      "Ġhebre": 5919,
      "Ġherostr": 5920,
      "Ġhemis": 5921,
      "ldom": 5922,
      "Ġnether": 5923,
      "Ġneare": 5924,
      "Ġnepal": 5925,
      "istical": 5926,
      "Ġexc": 5927,
      "Ġextern": 5928,
      "Ġseats": 5929,
      "Ġsemi": 5930,
      "Ġsevilla": 5931,
      "Ġseldom": 5932,
      "ivation": 5933,
      "quest": 5934,
      "Ġalive": 5935,
      "Ġalight": 5936,
      "Ġalbu": 5937,
      "Ġchand": 5938,
      "Ġchase": 5939,
      "Ġchath": 5940,
      "Ġchoice": 5941,
      "Ġchoose": 5942,
      "Ġchilly": 5943,
      "Ġchakras": 5944,
      "Ġjin": 5945,
      "Ġjar": 5946,
      "Ġjune": 5947,
      "Ġjerusalem": 5948,
      "usually": 5949,
      "Ġdev": 5950,
      "Ġdeer": 5951,
      "Ġdele": 5952,
      "Ġdefe": 5953,
      "Ġdeities": 5954,
      "Ġdecept": 5955,
      "Ġdeuts": 5956,
      "Ġproposed": 5957,
      "unched": 5958,
      "unfortunately": 5959,
      "oses": 5960,
      "abul": 5961,
      "about": 5962,
      "abilities": 5963,
      "Ġshops": 5964,
      "Ġshoes": 5965,
      "Ġshape": 5966,
      "Ġshuff": 5967,
      "Ġunit": 5968,
      "Ġunpl": 5969,
      "Ġuniver": 5970,
      "Ġunpre": 5971,
      "Ġunknow": 5972,
      "Ġuncomm": 5973,
      "Ġunders": 5974,
      "Ġunlike": 5975,
      "Ġuninhab": 5976,
      "alled": 5977,
      "Ġnoted": 5978,
      "Ġnotation": 5979,
      "Ġnotorious": 5980,
      "Ġ12": 5981,
      "ivered": 5982,
      "Ġleve": 5983,
      "ouri": 5984,
      "apple": 5985,
      "ends": 5986,
      "Ġplates": 5987,
      "Ġplasma": 5988,
      "Ġplotting": 5989,
      "Ġabilities": 5990,
      "Ġabdicated": 5991,
      "Ġtrail": 5992,
      "Ġtrack": 5993,
      "Ġtraders": 5994,
      "umacher": 5995,
      "outing": 5996,
      "Ġarter": 5997,
      "Ġarts": 5998,
      "astics": 5999,
      "Ġuser": 6000,
      "Ġusers": 6001,
      "Ġusoc": 6002,
      "ipitation": 6003,
      "ardust": 6004,
      "ansion": 6005,
      "elle": 6006,
      "eline": 6007,
      "Ġenact": 6008,
      "Ġbuttons": 6009,
      "iang": 6010,
      "soon": 6011,
      "soft": 6012,
      "Ġclothes": 6013,
      "izes": 6014,
      "izzards": 6015,
      "Ġsail": 6016,
      "Ġintended": 6017,
      "Ġcompare": 6018,
      "Ġcomposition": 6019,
      "Ġcomparable": 6020,
      "Ġtriant": 6021,
      "Ġtrump": 6022,
      "Ġtriang": 6023,
      "Ġadam": 6024,
      "Ġadjust": 6025,
      "ogging": 6026,
      "ishments": 6027,
      "Ġschen": 6028,
      "Ġscream": 6029,
      "Ġscrap": 6030,
      "Ġscott": 6031,
      "Ġscenes": 6032,
      "Ġscarps": 6033,
      "Ġsculpt": 6034,
      "Ġevict": 6035,
      "acking": 6036,
      "earns": 6037,
      "Ġaggress": 6038,
      "heric": 6039,
      "ieh": 6040,
      "play": 6041,
      "plies": 6042,
      "Ġimages": 6043,
      "Ġindus": 6044,
      "Ġindict": 6045,
      "Ġrog": 6046,
      "Ġroar": 6047,
      "Ġrole": 6048,
      "Ġrook": 6049,
      "Ġrooms": 6050,
      "Ġrotation": 6051,
      "Ġross": 6052,
      "Ġprice": 6053,
      "Ġacid": 6054,
      "Ġspir": 6055,
      "Ġspark": 6056,
      "Ġspray": 6057,
      "Ġspoke": 6058,
      "Ġdisru": 6059,
      "Ġdisruption": 6060,
      "Ġdissip": 6061,
      "Ġdissemination": 6062,
      "Ġtext": 6063,
      "Ġreside": 6064,
      "Ġresolution": 6065,
      "Ġreserved": 6066,
      "Ġresurrection": 6067,
      "Ġram": 6068,
      "Ġraised": 6069,
      "Ġraonic": 6070,
      "ritory": 6071,
      "Ġoutput": 6072,
      "Ġoutlying": 6073,
      "Ġfirm": 6074,
      "Ġfirms": 6075,
      "Ġspeaking": 6076,
      "Ġcaro": 6077,
      "Ġcarotenoid": 6078,
      "Ġdoves": 6079,
      "Ġdozens": 6080,
      "assment": 6081,
      "Ġamend": 6082,
      "Ġamino": 6083,
      "Ġamster": 6084,
      "Ġparties": 6085,
      "bercul": 6086,
      "Ġmexic": 6087,
      "Ġmeasures": 6088,
      "Ġmerely": 6089,
      "ffold": 6090,
      "Ġcontrast": 6091,
      "ients": 6092,
      "terns": 6093,
      "achman": 6094,
      "Ġknows": 6095,
      "Ġworldwide": 6096,
      "Ġapoll": 6097,
      "Ġapply": 6098,
      "Ġapril": 6099,
      "Ġcenters": 6100,
      "Ġcommand": 6101,
      "Ġafterwards": 6102,
      "Ġcooperation": 6103,
      "ricts": 6104,
      "well": 6105,
      "Ġpreserved": 6106,
      "Ġflag": 6107,
      "Ġflorid": 6108,
      "Ġgran": 6109,
      "techn": 6110,
      "teenth": 6111,
      "tevide": 6112,
      "Ġconsists": 6113,
      "âĢĶ": 6114,
      "âĢľ": 6115,
      "Ġrelied": 6116,
      "Ġrelatives": 6117,
      "Ġquality": 6118,
      "Ġquarter": 6119,
      "plement": 6120,
      "please": 6121,
      "Ġskis": 6122,
      "Ġprem": 6123,
      "Ġpret": 6124,
      "phot": 6125,
      "phants": 6126,
      "Ġbobe": 6127,
      "Ġshowing": 6128,
      "Ġblind": 6129,
      "Ġblizzards": 6130,
      "Ġsmooth": 6131,
      "Ġworkers": 6132,
      "conds": 6133,
      "Ġacta": 6134,
      "Ġactions": 6135,
      "Ġregulation": 6136,
      "Ġregister": 6137,
      "Ġneedle": 6138,
      "Ġbackstrom": 6139,
      "Ġtouring": 6140,
      "Ġinvisible": 6141,
      "Ġinvasion": 6142,
      "Ġ198": 6143,
      "Ġbug": 6144,
      "Ġbuying": 6145,
      "Ġtraveler": 6146,
      "Ġaccompl": 6147,
      "Ġmedecines": 6148,
      "Ġstudied": 6149,
      "Ġattem": 6150,
      "Ġattached": 6151,
      "Ġattraction": 6152,
      "Ġposes": 6153,
      "former": 6154,
      "Ġmetric": 6155,
      "Ġzhab": 6156,
      "Ġzmapp": 6157,
      "Ġlooting": 6158,
      "Ġtransform": 6159,
      "Ġtransmit": 6160,
      "Ġtranslation": 6161,
      "icking": 6162,
      "Ġbelt": 6163,
      "Ġbelongs": 6164,
      "Ġbright": 6165,
      "Ġbrief": 6166,
      "Ġbrisbane": 6167,
      "italy": 6168,
      "Ġprovinces": 6169,
      "prof": 6170,
      "Ġdesert": 6171,
      "Ġawarding": 6172,
      "Ġawaren": 6173,
      "inking": 6174,
      "Ġfinland": 6175,
      "Ġmara": 6176,
      "Ġmarble": 6177,
      "Ġmarria": 6178,
      "Ġeleven": 6179,
      "Ġelephants": 6180,
      "Ġ32": 6181,
      "Ġ39": 6182,
      "Ġsurger": 6183,
      "ftir": 6184,
      "Ġvari": 6185,
      "Ġsimps": 6186,
      "Ġmatters": 6187,
      "Ġcharlotte": 6188,
      "Ġprobe": 6189,
      "Ġnorthbound": 6190,
      "isely": 6191,
      "iseconds": 6192,
      "Ġassist": 6193,
      "Ġassume": 6194,
      "Ġmiller": 6195,
      "Ġmilliseconds": 6196,
      "Ġgeneric": 6197,
      "Ġgenerate": 6198,
      "Ġgenerations": 6199,
      "Ġdistricts": 6200,
      "ometer": 6201,
      "Ġedible": 6202,
      "Ġedison": 6203,
      "Ġedinburgh": 6204,
      "Ġowners": 6205,
      "Ġrunway": 6206,
      "Ġchestnut": 6207,
      "Ġmilky": 6208,
      "Ġlearned": 6209,
      "Ġ2000": 6210,
      "Ġ2004": 6211,
      "Ġcaptain": 6212,
      "Ġcaptured": 6213,
      "Ġcapabilities": 6214,
      "gyal": 6215,
      "iquity": 6216,
      "Ġfoundation": 6217,
      "Ġexpand": 6218,
      "Ġexpenses": 6219,
      "Ġexpansion": 6220,
      "Ġdevelopments": 6221,
      "airlines": 6222,
      "Ġrepair": 6223,
      "architecture": 6224,
      "afyl": 6225,
      "Ġobst": 6226,
      "Ġobvious": 6227,
      "Ġobey": 6228,
      "Ġobsole": 6229,
      "Ġanna": 6230,
      "Ġnationalism": 6231,
      "Ġgermans": 6232,
      "Ġsteve": 6233,
      "Ġsteel": 6234,
      "Ġplanes": 6235,
      "Ġplanet": 6236,
      "Ġplanets": 6237,
      "pically": 6238,
      "Ġfunds": 6239,
      "Ġfunctions": 6240,
      "Ġfunny": 6241,
      "Ġhighway": 6242,
      "Ġhighlands": 6243,
      "Ġnightlife": 6244,
      "Ġsupplies": 6245,
      "Ġsupplement": 6246,
      "Ġkeys": 6247,
      "ysis": 6248,
      "Ġauton": 6249,
      "Ġorganism": 6250,
      "Ġorganisation": 6251,
      "Ġorganisms": 6252,
      "Ġsunday": 6253,
      "Ġinspect": 6254,
      "Ġinsiders": 6255,
      "Ġfewer": 6256,
      "Ġlooks": 6257,
      "ventions": 6258,
      "Ġturning": 6259,
      "Ġthought": 6260,
      "Ġroutine": 6261,
      "Ġcommonly": 6262,
      "Ġ2015": 6263,
      "turkish": 6264,
      "Ġcollect": 6265,
      "Ġhosts": 6266,
      "Ġdecis": 6267,
      "Ġparo": 6268,
      "Ġparas": 6269,
      "Ġparody": 6270,
      "Ġlawyer": 6271,
      "Ġmovements": 6272,
      "Ġcrew": 6273,
      "Ġcreation": 6274,
      "Ġcrews": 6275,
      "Ġwilds": 6276,
      "Ġfallujah": 6277,
      "Ġmarked": 6278,
      "Ġinstitution": 6279,
      "Ġinstitute": 6280,
      "Ġinterrupted": 6281,
      "Ġinterventions": 6282,
      "Ġhumidity": 6283,
      "Ġbegun": 6284,
      "boats": 6285,
      "curate": 6286,
      "Ġpatience": 6287,
      "Ġpatterns": 6288,
      "Ġgrades": 6289,
      "Ġgrabbed": 6290,
      "Ġromans": 6291,
      "Ġschneider": 6292,
      "ertainment": 6293,
      "Ġguide": 6294,
      "Ġguests": 6295,
      "Ġengaged": 6296,
      "Ġ83": 6297,
      "Ġentr": 6298,
      "Ġwriters": 6299,
      "Ġexplo": 6300,
      "Ġexplain": 6301,
      "Ġartists": 6302,
      "Ġartistic": 6303,
      "Ġartifacts": 6304,
      "Ġaustria": 6305,
      "Ġfilms": 6306,
      "Ġdamages": 6307,
      "Ġdamadian": 6308,
      "Ġthinks": 6309,
      "Ġheadquar": 6310,
      "Ġeffectiven": 6311,
      "Ġvalid": 6312,
      "Ġvalves": 6313,
      "Ġvalues": 6314,
      "azaki": 6315,
      "Ġsingh": 6316,
      "Ġsentences": 6317,
      "Ġmidnight": 6318,
      "Ġanticip": 6319,
      "Ġantiquity": 6320,
      "Ġharassment": 6321,
      "Ġlowest": 6322,
      "Ġexamples": 6323,
      "Ġarrive": 6324,
      "Ġactivated": 6325,
      "Ġpoor": 6326,
      "Ġ150": 6327,
      "Ġclasses": 6328,
      "Ġcivilisation": 6329,
      "Ġcopper": 6330,
      "Ġcostume": 6331,
      "Ġwatched": 6332,
      "Ġinfectious": 6333,
      "Ġholders": 6334,
      "Ġvoting": 6335,
      "Ġdefine": 6336,
      "Ġimminent": 6337,
      "Ġspecialist": 6338,
      "Ġstronger": 6339,
      "Ġstrongly": 6340,
      "Ġinterests": 6341,
      "Ġdirecting": 6342,
      "Ġaustralopithecus": 6343,
      "Ġsnowboarding": 6344,
      "ominent": 6345,
      "Ġreflect": 6346,
      "Ġcombine": 6347,
      "ossible": 6348,
      "Ġ160": 6349,
      "Ġ168": 6350,
      "Ġcompleted": 6351,
      "inosity": 6352,
      "Ġoperational": 6353,
      "Ġfailures": 6354,
      "Ġinfrared": 6355,
      "Ġhundred": 6356,
      "Ġeconomically": 6357,
      "Ġstreak": 6358,
      "Ġstreets": 6359,
      "Ġkeeping": 6360,
      "Ġschools": 6361,
      "polis": 6362,
      "Ġterritory": 6363,
      "Ġtreaty": 6364,
      "Ġtreating": 6365,
      "Ġpaths": 6366,
      "Ġpathology": 6367,
      "Ġlatter": 6368,
      "Ġlatest": 6369,
      "Ġlanding": 6370,
      "Ġlandmarks": 6371,
      "Ġsuperintend": 6372,
      "Ġsafari": 6373,
      "Ġprimitive": 6374,
      "Ġprimarily": 6375,
      "pped": 6376,
      "ynthes": 6377,
      "Ġsolve": 6378,
      "Ġmulti": 6379,
      "Ġmultitude": 6380,
      "Ġlaunched": 6381,
      "Ġgains": 6382,
      "appa": 6383,
      "Ġargue": 6384,
      "Ġencounter": 6385,
      "Ġrocket": 6386,
      "Ġattacked": 6387,
      "iantep": 6388,
      "Ġtroop": 6389,
      "Ġcyanur": 6390,
      "Ġbroad": 6391,
      "Ġpracticing": 6392,
      "Ġviewed": 6393,
      "Ġadvantage": 6394,
      "Ġspeeds": 6395,
      "Ġspeedy": 6396,
      "Ġskywards": 6397,
      "Ġelectoral": 6398,
      "Ġsignificance": 6399,
      "Ġ78": 6400,
      "Ġpayment": 6401,
      "Ġflyer": 6402,
      "Ġfacial": 6403,
      "Ġneglect": 6404,
      "Ġcompeting": 6405,
      "Ġrolling": 6406,
      "Ġconsiderably": 6407,
      "Ġpotentially": 6408,
      "ovechkin": 6409,
      "Ġsounds": 6410,
      "ĠbarÃ§a": 6411,
      "Ġhappens": 6412,
      "Ġprinting": 6413,
      "Ġregularly": 6414,
      "Ġmembership": 6415,
      "Ġdeterminism": 6416,
      "jected": 6417,
      "regular": 6418,
      "Ġoccu": 6419,
      "Ġbotan": 6420,
      "Ġfasten": 6421,
      "Ġfastest": 6422,
      "Ġrelease": 6423,
      "Ġvideos": 6424,
      "Ġprivacy": 6425,
      "Ġspacecraft": 6426,
      "Ġperiodic": 6427,
      "Ġflights": 6428,
      "Ġ1990": 6429,
      "Ġ1994": 6430,
      "Ġsurrounded": 6431,
      "Ġassociate": 6432,
      "Ġsignificantly": 6433,
      "space": 6434,
      "Ġcruises": 6435,
      "Ġcareer": 6436,
      "Ġcarefully": 6437,
      "Ġclearly": 6438,
      "Ġbattal": 6439,
      "Ġmossack": 6440,
      "iffing": 6441,
      "Ġneighbors": 6442,
      "Ġdeclared": 6443,
      "Ġdiscount": 6444,
      "Ġdiscipl": 6445,
      "Ġdiffering": 6446,
      "Ġsurvive": 6447,
      "blown": 6448,
      "blogging": 6449,
      "drung": 6450,
      "prime": 6451,
      "Ġtenet": 6452,
      "Ġbaltic": 6453,
      "Ġfestival": 6454,
      "Ġmixing": 6455,
      "Ġasking": 6456,
      "Ġjourney": 6457,
      "Ġdemonst": 6458,
      "Ġdemocracy": 6459,
      "Ġproperties": 6460,
      "Ġcelebration": 6461,
      "Ġcyclone": 6462,
      "iwa": 6463,
      "iwazaki": 6464,
      "Ġera": 6465,
      "Ġpetros": 6466,
      "Ġposted": 6467,
      "Ġdraw": 6468,
      "Ġvictims": 6469,
      "Ġfrontie": 6470,
      "Ġprecision": 6471,
      "Ġprecipitation": 6472,
      "Ġprecisely": 6473,
      "Ġblocked": 6474,
      "Ġblockade": 6475,
      "Ġstudying": 6476,
      "Ġattractions": 6477,
      "Ġdrinks": 6478,
      "Ġtariffs": 6479,
      "Ġsanctuary": 6480,
      "Ġequator": 6481,
      "Ġreactions": 6482,
      "Ġviable": 6483,
      "Ġseparately": 6484,
      "Ġprompt": 6485,
      "Ġdisplayed": 6486,
      "Ġsolely": 6487,
      "Ġcooking": 6488,
      "Ġwarnings": 6489,
      "Ġ1960": 6490,
      "Ġlegisl": 6491,
      "Ġconcerns": 6492,
      "Ġchurchyard": 6493,
      "Ġtutor": 6494,
      "Ġwaved": 6495,
      "Ġbillion": 6496,
      "Ġpanes": 6497,
      "Ġpanamanian": 6498,
      "Ġfights": 6499,
      "Ġmri": 6500,
      "Ġmotivation": 6501,
      "Ġephes": 6502,
      "Ġepoch": 6503,
      "Ġlayer": 6504,
      "Ġlayers": 6505,
      "Ġglac": 6506,
      "Ġratify": 6507,
      "Ġjeans": 6508,
      "Ġclosing": 6509,
      "Ġadmire": 6510,
      "Ġindicates": 6511,
      "Ġindicator": 6512,
      "Ġcoastal": 6513,
      "âĢĿ.": 6514,
      "Ġblacks": 6515,
      "Ġ403": 6516,
      "Ġincrease": 6517,
      "Ġincreased": 6518,
      "Ġinfluenced": 6519,
      "Ġencouragement": 6520,
      "Ġresponses": 6521,
      "Ġresponsibility": 6522,
      "Ġabsolutism": 6523,
      "Ġcelebrated": 6524,
      "Ġcambod": 6525,
      "Ġbhut": 6526,
      "Ġbedding": 6527,
      "Ġpilots": 6528,
      "Ġfilled": 6529,
      "Ġmigrated": 6530,
      "Ġmigrates": 6531,
      "Ġethiop": 6532,
      "Ġstraight": 6533,
      "Ġstephen": 6534,
      "Ġchairs": 6535,
      "Ġjudge": 6536,
      "Ġdelivered": 6537,
      "Ġshortly": 6538,
      "Ġadaptations": 6539,
      "Ġcovering": 6540,
      "Ġmuseums": 6541,
      "Ġdocumented": 6542,
      "Ġcleaned": 6543,
      "108": 6544,
      "Ġillust": 6545,
      "Ġversions": 6546,
      "Ġcategories": 6547,
      "Ġinhabited": 6548,
      "Ġthicker": 6549,
      "Ġliberated": 6550,
      "Ġgrowing": 6551,
      "Ġconvention": 6552,
      "Ġsustaining": 6553,
      "Ġneutral": 6554,
      "Ġleaked": 6555,
      "Ġadvised": 6556,
      "Ġimplied": 6557,
      "Ġpollution": 6558,
      "Ġseeks": 6559,
      "Ġseeking": 6560,
      "Ġslowed": 6561,
      "Ġarmenian": 6562,
      "Ġengineering": 6563,
      "Ġcontroller": 6564,
      "Ġcontrolled": 6565,
      "Ġcontrollers": 6566,
      "Ġcorrelation": 6567,
      "Ġcomplexity": 6568,
      "Ġelectricity": 6569,
      "Ġprofessor": 6570,
      "Ġmicrosoft": 6571,
      "everyone": 6572,
      "Ġideas": 6573,
      "Ġcroat": 6574,
      "Ġcabbage": 6575,
      "Ġfemale": 6576,
      "Ġfolds": 6577,
      "Ġfashions": 6578,
      "Ġmartian": 6579,
      "Ġmartelly": 6580,
      "Ġeyes": 6581,
      "Ġeffort": 6582,
      "Ġguns": 6583,
      "Ġatmospheric": 6584,
      "querque": 6585,
      "Ġchallenge": 6586,
      "Ġcancelled": 6587,
      "Ġcancellation": 6588,
      "Ġprisoner": 6589,
      "Ġrainfall": 6590,
      "Ġregardless": 6591,
      "Ġcrusades": 6592,
      "Ġexperimental": 6593,
      "Ġdepartment": 6594,
      "Ġinterpretation": 6595,
      "Ġphotosynthes": 6596,
      "Ġphotographers": 6597,
      "Ġswedish": 6598,
      "Ġdiscoveries": 6599,
      "Ġappearances": 6600,
      "Ġbuddha": 6601,
      "Ġsharpener": 6602,
      "german": 6603,
      "science": 6604,
      "submarines": 6605,
      "Ġoptions": 6606,
      "Ġwaiting": 6607,
      "Ġbanned": 6608,
      "Ġburial": 6609,
      "Ġpictures": 6610,
      "Ġpools": 6611,
      "Ġansa": 6612,
      "Ġdunlap": 6613,
      "Ġgaziantep": 6614,
      "Ġstroll": 6615,
      "Ġstroke": 6616,
      "Ġhabitats": 6617,
      "Ġexchanged": 6618,
      "Ġexports": 6619,
      "Ġexcessive": 6620,
      "Ġalpha": 6621,
      "Ġtrauma": 6622,
      "Ġaristocracy": 6623,
      "Ġarrestees": 6624,
      "Ġenvelope": 6625,
      "Ġclaws": 6626,
      "Ġspectrosc": 6627,
      "Ġcontraception": 6628,
      "Ġpolicem": 6629,
      "Ġconservation": 6630,
      "Ġconservative": 6631,
      "Ġqualities": 6632,
      "Ġminimum": 6633,
      "Ġassessing": 6634,
      "Ġgeographic": 6635,
      "Ġsubstant": 6636,
      "Ġdecorated": 6637,
      "Ġtelephone": 6638,
      "Ġannouncements": 6639,
      "Ġterrified": 6640,
      "Ġjournalist": 6641,
      "Ġmosquitos": 6642,
      "Ġmosquitoes": 6643,
      "Ġalcohol": 6644,
      "european": 6645,
      "green": 6646,
      "moreover": 6647,
      "panama": 6648,
      "Ġqing": 6649,
      "interactive": 6650,
      "Ġolive": 6651,
      "Ġolaf": 6652,
      "Ġsquares": 6653,
      "Ġcastle": 6654,
      "Ġcastles": 6655,
      "animals": 6656,
      "Ġfauna": 6657,
      "Ġfatal": 6658,
      "Ġfears": 6659,
      "Ġmissouri": 6660,
      "Ġdenied": 6661,
      "Ġhuge": 6662,
      "Ġniigata": 6663,
      "Ġstanley": 6664,
      "Ġstanford": 6665,
      "Ġfruit": 6666,
      "Ġfruits": 6667,
      "Ġenforcement": 6668,
      "Ġimperialism": 6669,
      "Ġperceive": 6670,
      "Ġperceived": 6671,
      "Ġcontracts": 6672,
      "Ġcontracted": 6673,
      "Ġvisualization": 6674,
      "continent": 6675,
      "Ġ1959": 6676,
      "Ġinstructions": 6677,
      "Ġintelligent": 6678,
      "authorities": 6679,
      "Ġcopyright": 6680,
      "Ġcamera": 6681,
      "Ġcameras": 6682,
      "Ġfavorite": 6683,
      "Ġpronounce": 6684,
      "Ġpronounced": 6685,
      "colored": 6686,
      "gla": 6687,
      "hsieh": 6688,
      "large": 6689,
      "ĠÂ¥": 6690,
      "Ġiphone": 6691,
      "Ġtubercul": 6692,
      "Ġtheoretical": 6693,
      "research": 6694,
      "Ġcoconut": 6695,
      "Ġbennet": 6696,
      "Ġbreathing": 6697,
      "Ġanalysis": 6698,
      "Ġinaccurate": 6699,
      "Ġdaru": 6700,
      "Ġecuadorian": 6701,
      "Ġlosing": 6702,
      "Ġlogistical": 6703,
      "Ġlinks": 6704,
      "Ġreferenced": 6705,
      "Ġgarage": 6706,
      "Ġguru": 6707,
      "Ġrigged": 6708,
      "Ġruler": 6709,
      "Ġconclude": 6710,
      "Ġconquerors": 6711,
      "Ġsubsistence": 6712,
      "Ġkariwa": 6713,
      "establish": 6714,
      "Ġseventh": 6715,
      "Ġshyam": 6716,
      "Ġimagination": 6717,
      "Ġroofs": 6718,
      "Ġteachings": 6719,
      "Ġpreparations": 6720,
      "Ġtournaments": 6721,
      "Ġremodeled": 6722,
      "Ġmarianas": 6723,
      "Ġassyrian": 6724,
      "Ġexposure": 6725,
      "Ġpassengers": 6726,
      "Ġdetonated": 6727,
      "Ġhandwritten": 6728,
      "Ġguardian": 6729,
      "Ġexplosion": 6730,
      "Ġarticles": 6731,
      "Ġharvard": 6732,
      "Ġrepublicanism": 6733,
      "Ġobscured": 6734,
      "Ġpeacekeeping": 6735,
      "Ġresponding": 6736,
      "Ġpredominate": 6737,
      "Ġprivilege": 6738,
      "Ġnineteen": 6739,
      "Ġcollaboration": 6740,
      "Ġsymbolic": 6741,
      "Ġpilgrimage": 6742,
      "Ġversailles": 6743,
      "Ġcrocodile": 6744,
      "Ġintriguing": 6745,
      "Ġluxury": 6746,
      "Ġgymnastics": 6747,
      "badya": 6748,
      "british": 6749,
      "compared": 6750,
      "hostile": 6751,
      "japanese": 6752,
      "nhk": 6753,
      "popular": 6754,
      "swirl": 6755,
      "speaking": 6756,
      "tropical": 6757,
      "Ġveloc": 6758,
      "Ġtonle": 6759,
      "Ġazerbai": 6760,
      "Ġthermometer": 6761,
      "Ġsacked": 6762,
      "Ġwrite": 6763,
      "Ġbenefit": 6764,
      "Ġpowders": 6765,
      "Ġpigs": 6766,
      "Ġfossils": 6767,
      "Ġmortality": 6768,
      "Ġmantouval": 6769,
      "Ġderives": 6770,
      "Ġhomes": 6771,
      "Ġeggs": 6772,
      "Ġgibson": 6773,
      "lynn": 6774,
      "chambers": 6775,
      "Ġvicinity": 6776,
      "Ġsuffering": 6777,
      "Ġkenya": 6778,
      "Ġhenry": 6779,
      "Ġexempted": 6780,
      "Ġsectarian": 6781,
      "Ġdelegation": 6782,
      "Ġunavailable": 6783,
      "Ġrodents": 6784,
      "Ġrecreational": 6785,
      "Ġmanipulation": 6786,
      "Ġmannerisms": 6787,
      "Ġmahayana": 6788,
      "Ġmonasteries": 6789,
      "Ġautomated": 6790,
      "Ġrestrictions": 6791,
      "Ġbirthday": 6792,
      "Ġvirginia": 6793,
      "Ġdefinition": 6794,
      "Ġirritation": 6795,
      "Ġmicroscope": 6796,
      "Ġobservations": 6797,
      "Ġhorrors": 6798,
      "Ġadminist": 6799,
      "Ġreplacement": 6800,
      "Ġscreenplay": 6801,
      "Ġspokesperson": 6802,
      "Ġhusbandry": 6803,
      "Ġfrancisco": 6804,
      "barcelona": 6805,
      "congress": 6806,
      "dutch": 6807,
      "dimensional": 6808,
      "elements": 6809,
      "famil": 6810,
      "knp": 6811,
      "liberal": 6812,
      "oza": 6813,
      "pronunciation": 6814,
      "sanskrit": 6815,
      "scaffold": 6816,
      "towards": 6817,
      "zoungla": 6818,
      "zuelans": 6819,
      "Ġtubes": 6820,
      "Ġtornado": 6821,
      "Ġaesthetic": 6822,
      "Ġaurora": 6823,
      "Ġaquarium": 6824,
      "invisible": 6825,
      "Ġsisters": 6826,
      "Ġsultan": 6827,
      "Ġsweets": 6828,
      "Ġcctv": 6829,
      "Ġcensorship": 6830,
      "Ġcinematography": 6831,
      "Ġwonders": 6832,
      "Ġborealis": 6833,
      "itudes": 6834,
      "Ġpapers": 6835,
      "Ġfoster": 6836,
      "Ġfonseca": 6837,
      "Ġmessages": 6838,
      "Ġmendoza": 6839,
      "Ġmelamine": 6840,
      "original": 6841,
      "Ġinexpensive": 6842,
      "Ġdoused": 6843,
      "Ġdramatic": 6844,
      "Ġhidden": 6845,
      "Ġnicklas": 6846,
      "Ġnaturally": 6847,
      "Ġngawang": 6848,
      "Ġthursday": 6849,
      "Ġelderly": 6850,
      "Ġlunar": 6851,
      "Ġluminosity": 6852,
      "Ġlinguistic": 6853,
      "Ġrectify": 6854,
      "Ġreinforcements": 6855,
      "Ġgotten": 6856,
      "Ġgesture": 6857,
      "Ġgordon": 6858,
      "Ġghraib": 6859,
      "Ġsturdy": 6860,
      "Ġstadium": 6861,
      "Ġstreng": 6862,
      "Ġmoisture": 6863,
      "Ġmozambique": 6864,
      "Ġvenezuelans": 6865,
      "Ġconference": 6866,
      "Ġcongregations": 6867,
      "Ġsuddenly": 6868,
      "Ġkruger": 6869,
      "Ġkashiwazaki": 6870,
      "Ġkundalini": 6871,
      "Ġhebrew": 6872,
      "Ġherostratus": 6873,
      "Ġhemisphere": 6874,
      "Ġnetherlands": 6875,
      "Ġnepalese": 6876,
      "Ġexternal": 6877,
      "Ġalbuquerque": 6878,
      "Ġchatham": 6879,
      "Ġdeceptively": 6880,
      "Ġdeutsche": 6881,
      "Ġunplanned": 6882,
      "Ġuniverse": 6883,
      "Ġunprepared": 6884,
      "Ġunknowingly": 6885,
      "Ġuncommon": 6886,
      "Ġunderside": 6887,
      "Ġunlikely": 6888,
      "Ġuninhabited": 6889,
      "Ġenacted": 6890,
      "Ġtriantafyl": 6891,
      "Ġschengen": 6892,
      "Ġscreaming": 6893,
      "Ġscrapbook": 6894,
      "Ġsculptures": 6895,
      "Ġevictions": 6896,
      "Ġaggressive": 6897,
      "Ġindictment": 6898,
      "Ġrookie": 6899,
      "Ġdisruptions": 6900,
      "Ġamsterdam": 6901,
      "Ġmexico": 6902,
      "achmann": 6903,
      "Ġapollo": 6904,
      "Ġflorida": 6905,
      "technology": 6906,
      "tevideo": 6907,
      "Ġbobek": 6908,
      "Ġaccomplish": 6909,
      "Ġzhabdrung": 6910,
      "Ġawareness": 6911,
      "Ġmarriage": 6912,
      "Ġsurgery": 6913,
      "Ġsimpsons": 6914,
      "Ġobsolete": 6915,
      "Ġheadquarters": 6916,
      "Ġeffectiveness": 6917,
      "Ġsuperintendent": 6918,
      "Ġcyanuric": 6919,
      "Ġoccup": 6920,
      "Ġbattalion": 6921,
      "Ġdemonstrated": 6922,
      "Ġcambodia": 6923,
      "Ġethiopia": 6924,
      "Ġphotosynthesis": 6925,
      "Ġspectroscopy": 6926,
      "Ġtuberculosis": 6927,
      "Ġazerbaijan": 6928,
      "Ġmantouvalos": 6929,
      "Ġtriantafylopoulos": 6930,
      ");": 6931,
      ",âĢĿ": 6932,
      "--": 6933,
      ".'": 6934,
      ".)": 6935,
      "02": 6936,
      "09": 6937,
      "18": 6938,
      "189": 6939,
      "27": 6940,
      "29": 6941,
      "250": 6942,
      "31": 6943,
      "37": 6944,
      "38": 6945,
      "44": 6946,
      "49": 6947,
      "60": 6948,
      "62": 6949,
      "64": 6950,
      "67": 6951,
      "72": 6952,
      "850": 6953,
      "91": 6954,
      "96": 6955,
      "980": 6956,
      "aer": 6957,
      "ais": 6958,
      "aion": 6959,
      "aac": 6960,
      "aos": 6961,
      "ael": 6962,
      "aited": 6963,
      "avers": 6964,
      "bt": 6965,
      "bas": 6966,
      "bul": 6967,
      "bac": 6968,
      "bows": 6969,
      "bush": 6970,
      "beth": 6971,
      "bird": 6972,
      "bachmann": 6973,
      "ci": 6974,
      "cin": 6975,
      "cle": 6976,
      "cro": 6977,
      "cra": 6978,
      "city": 6979,
      "cap": 6980,
      "cip": 6981,
      "cult": 6982,
      "cone": 6983,
      "cold": 6984,
      "cros": 6985,
      "cft": 6986,
      "comet": 6987,
      "cution": 6988,
      "crow": 6989,
      "cca": 6990,
      "cogn": 6991,
      "cads": 6992,
      "couch": 6993,
      "candid": 6994,
      "cherry": 6995,
      "dd": 6996,
      "dh": 6997,
      "di": 6998,
      "dust": 6999,
      "dated": 7000,
      "dually": 7001,
      "down": 7002,
      "divid": 7003,
      "dration": 7004,
      "david": 7005,
      "dinary": 7006,
      "diments": 7007,
      "ethe": 7008,
      "eir": 7009,
      "ead": 7010,
      "eight": 7011,
      "eff": 7012,
      "ebo": 7013,
      "econom": 7014,
      "ework": 7015,
      "ecuador": 7016,
      "egl": 7017,
      "egaw": 7018,
      "fa": 7019,
      "fy": 7020,
      "fre": 7021,
      "fing": 7022,
      "far": 7023,
      "fil": 7024,
      "fur": 7025,
      "fth": 7026,
      "fter": 7027,
      "fif": 7028,
      "fare": 7029,
      "fair": 7030,
      "fering": 7031,
      "fires": 7032,
      "fron": 7033,
      "field": 7034,
      "facts": 7035,
      "fÃ©": 7036,
      "frared": 7037,
      "flynn": 7038,
      "gp": 7039,
      "gate": 7040,
      "great": 7041,
      "gets": 7042,
      "given": 7043,
      "gency": 7044,
      "golf": 7045,
      "giza": 7046,
      "goma": 7047,
      "gosling": 7048,
      "hi": 7049,
      "hl": 7050,
      "han": 7051,
      "hut": 7052,
      "hul": 7053,
      "hill": 7054,
      "hold": 7055,
      "hne": 7056,
      "hiti": 7057,
      "hamed": 7058,
      "hann": 7059,
      "hurt": 7060,
      "ii": 7061,
      "iÅ": 7062,
      "ias": 7063,
      "iro": 7064,
      "iac": 7065,
      "iren": 7066,
      "iag": 7067,
      "iens": 7068,
      "iina": 7069,
      "iages": 7070,
      "iots": 7071,
      "iology": 7072,
      "iapo": 7073,
      "iÃ³": 7074,
      "ji": 7075,
      "jj": 7076,
      "jo": 7077,
      "jab": 7078,
      "jour": 7079,
      "jong": 7080,
      "jord": 7081,
      "join": 7082,
      "kt": 7083,
      "kir": 7084,
      "kim": 7085,
      "kok": 7086,
      "koy": 7087,
      "keral": 7088,
      "kuts": 7089,
      "kawa": 7090,
      "kwood": 7091,
      "kgyal": 7092,
      "la": 7093,
      "lit": 7094,
      "lor": 7095,
      "lig": 7096,
      "lam": 7097,
      "lers": 7098,
      "lred": 7099,
      "later": 7100,
      "lical": 7101,
      "law": 7102,
      "lars": 7103,
      "living": 7104,
      "langu": 7105,
      "lik": 7106,
      "laps": 7107,
      "lÃ¶": 7108,
      "lakkha": 7109,
      "me": 7110,
      "mm": 7111,
      "mas": 7112,
      "mil": 7113,
      "mir": 7114,
      "mad": 7115,
      "mith": 7116,
      "mers": 7117,
      "main": 7118,
      "mus": 7119,
      "mos": 7120,
      "mich": 7121,
      "mong": 7122,
      "mie": 7123,
      "mike": 7124,
      "mold": 7125,
      "mble": 7126,
      "mont": 7127,
      "mality": 7128,
      "mri": 7129,
      "match": 7130,
      "mutation": 7131,
      "marsh": 7132,
      "nas": 7133,
      "nad": 7134,
      "nies": 7135,
      "nist": 7136,
      "nos": 7137,
      "num": 7138,
      "nish": 7139,
      "nature": 7140,
      "named": 7141,
      "nament": 7142,
      "nba": 7143,
      "nership": 7144,
      "nigeria": 7145,
      "nmr": 7146,
      "ox": 7147,
      "oon": 7148,
      "oil": 7149,
      "oise": 7150,
      "oys": 7151,
      "offic": 7152,
      "ocel": 7153,
      "oenic": 7154,
      "pit": 7155,
      "pot": 7156,
      "pout": 7157,
      "pone": 7158,
      "pare": 7159,
      "press": 7160,
      "pests": 7161,
      "pute": 7162,
      "pmi": 7163,
      "pws": 7164,
      "parks": 7165,
      "prene": 7166,
      "peter": 7167,
      "rout": 7168,
      "ride": 7169,
      "rations": 7170,
      "rary": 7171,
      "rise": 7172,
      "rases": 7173,
      "ratic": 7174,
      "rsp": 7175,
      "rarily": 7176,
      "rush": 7177,
      "ratory": 7178,
      "ratch": 7179,
      "sr": 7180,
      "ses": 7181,
      "sed": 7182,
      "sal": 7183,
      "sle": 7184,
      "sad": 7185,
      "sak": 7186,
      "sort": 7187,
      "squ": 7188,
      "sive": 7189,
      "sper": 7190,
      "same": 7191,
      "saf": 7192,
      "soph": 7193,
      "sien": 7194,
      "simin": 7195,
      "siders": 7196,
      "south": 7197,
      "saint": 7198,
      "sophisticated": 7199,
      "sistence": 7200,
      "sworth": 7201,
      "tp": 7202,
      "tan": 7203,
      "tis": 7204,
      "tit": 7205,
      "tar": 7206,
      "tent": 7207,
      "tak": 7208,
      "test": 7209,
      "tment": 7210,
      "tace": 7211,
      "tok": 7212,
      "table": 7213,
      "tru": 7214,
      "tail": 7215,
      "tended": 7216,
      "tomm": 7217,
      "tapp": 7218,
      "trib": 7219,
      "troy": 7220,
      "tessential": 7221,
      "ttp": 7222,
      "ua": 7223,
      "uz": 7224,
      "uer": 7225,
      "uation": 7226,
      "uably": 7227,
      "uption": 7228,
      "uaries": 7229,
      "ukawa": 7230,
      "vil": 7231,
      "vol": 7232,
      "vad": 7233,
      "vail": 7234,
      "vading": 7235,
      "vasses": 7236,
      "wl": 7237,
      "whe": 7238,
      "win": 7239,
      "wat": 7240,
      "wand": 7241,
      "wak": 7242,
      "wish": 7243,
      "wage": 7244,
      "wright": 7245,
      "wana": 7246,
      "whel": 7247,
      "wii": 7248,
      "xies": 7249,
      "xicated": 7250,
      "xander": 7251,
      "yo": 7252,
      "yat": 7253,
      "yes": 7254,
      "yip": 7255,
      "yday": 7256,
      "yles": 7257,
      "yuz": 7258,
      "zor": 7259,
      "zong": 7260,
      "zones": 7261,
      "zayat": 7262,
      "zmir": 7263,
      "£o": 7264,
      "Ãµ": 7265,
      "Ã£o": 7266,
      "Äĥ": 7267,
      "ÄŁ": 7268,
      "Ìĩ": 7269,
      "Ġ&": 7270,
      "Ġid": 7271,
      "Ġ00": 7272,
      "Łin": 7273,
      "Ġtt": 7274,
      "Ġtes": 7275,
      "Ġtal": 7276,
      "Ġtas": 7277,
      "Ġtent": 7278,
      "Ġtay": 7279,
      "Ġties": 7280,
      "Ġtort": 7281,
      "Ġtun": 7282,
      "Ġtall": 7283,
      "Ġtight": 7284,
      "Ġtough": 7285,
      "Ġtum": 7286,
      "Ġtres": 7287,
      "Ġtast": 7288,
      "Ġtag": 7289,
      "Ġtable": 7290,
      "Ġtrent": 7291,
      "Ġtags": 7292,
      "Ġtidal": 7293,
      "Ġait": 7294,
      "Ġaro": 7295,
      "Ġape": 7296,
      "Ġaper": 7297,
      "Ġapt": 7298,
      "hey": 7299,
      "hell": 7300,
      "herent": 7301,
      "hears": 7302,
      "hems": 7303,
      "inn": 7304,
      "inen": 7305,
      "inate": 7306,
      "inel": 7307,
      "inople": 7308,
      "infect": 7309,
      "inte": 7310,
      "ints": 7311,
      "inoff": 7312,
      "insects": 7313,
      "infrared": 7314,
      "intessential": 7315,
      "Ġtheor": 7316,
      "Ġtheft": 7317,
      "Ġtheological": 7318,
      "reb": 7319,
      "rew": 7320,
      "rex": 7321,
      "rell": 7322,
      "reck": 7323,
      "rehen": 7324,
      "retur": 7325,
      "reased": 7326,
      "requent": 7327,
      "recogn": 7328,
      "reprene": 7329,
      "Ġove": 7330,
      "Ġoak": 7331,
      "Ġope": 7332,
      "Ġoreg": 7333,
      "Ġoli": 7334,
      "Ġoxy": 7335,
      "Ġoiapo": 7336,
      "Ġosak": 7337,
      "Ġowl": 7338,
      "Ġsat": 7339,
      "Ġses": 7340,
      "Ġsir": 7341,
      "Ġsag": 7342,
      "Ġsong": 7343,
      "Ġske": 7344,
      "Ġsher": 7345,
      "Ġsie": 7346,
      "Ġsase": 7347,
      "Ġsets": 7348,
      "Ġsik": 7349,
      "Ġseng": 7350,
      "Ġsator": 7351,
      "Ġsales": 7352,
      "Ġsorts": 7353,
      "Ġsagas": 7354,
      "Ġsongs": 7355,
      "ĠsÃ£o": 7356,
      "erc": 7357,
      "ero": 7358,
      "erge": 7359,
      "eries": 7360,
      "erves": 7361,
      "erca": 7362,
      "erged": 7363,
      "ertil": 7364,
      "erden": 7365,
      "Ġcm": 7366,
      "Ġcad": 7367,
      "Ġcard": 7368,
      "Ġcail": 7369,
      "Ġcock": 7370,
      "Ġcured": 7371,
      "Ġcraft": 7372,
      "Ġcoded": 7373,
      "Ġcup": 7374,
      "Ġwol": 7375,
      "Ġwong": 7376,
      "Ġwound": 7377,
      "Ġwake": 7378,
      "Ġwire": 7379,
      "Ġwary": 7380,
      "Ġwick": 7381,
      "Ġwants": 7382,
      "Ġwrest": 7383,
      "Ġwik": 7384,
      "Ġwave": 7385,
      "Ġwolf": 7386,
      "Ġwounds": 7387,
      "Ġwlad": 7388,
      "Ġwifi": 7389,
      "Ġwwii": 7390,
      "Ġwreck": 7391,
      "onal": 7392,
      "once": 7393,
      "onian": 7394,
      "onts": 7395,
      "onds": 7396,
      "onians": 7397,
      "onami": 7398,
      "onward": 7399,
      "onych": 7400,
      "anity": 7401,
      "anning": 7402,
      "anuts": 7403,
      "enities": 7404,
      "enished": 7405,
      "ato": 7406,
      "atly": 7407,
      "atol": 7408,
      "atific": 7409,
      "atform": 7410,
      "atize": 7411,
      "atto": 7412,
      "atja": 7413,
      "athered": 7414,
      "attended": 7415,
      "Ġbit": 7416,
      "Ġbou": 7417,
      "Ġbow": 7418,
      "Ġbol": 7419,
      "Ġbod": 7420,
      "Ġbard": 7421,
      "Ġbag": 7422,
      "Ġbib": 7423,
      "Ġbav": 7424,
      "Ġbike": 7425,
      "Ġbible": 7426,
      "Ġbath": 7427,
      "Ġbats": 7428,
      "Ġbots": 7429,
      "Ġbiking": 7430,
      "Ġbesides": 7431,
      "Ġbinary": 7432,
      "Ġbonds": 7433,
      "esions": 7434,
      "essel": 7435,
      "esburg": 7436,
      "ishes": 7437,
      "isians": 7438,
      "israel": 7439,
      "isfy": 7440,
      "ito": 7441,
      "itan": 7442,
      "itis": 7443,
      "itor": 7444,
      "itas": 7445,
      "itro": 7446,
      "itals": 7447,
      "itvice": 7448,
      "itaries": 7449,
      "ittering": 7450,
      "Ġpou": 7451,
      "Ġpam": 7452,
      "Ġpoun": 7453,
      "Ġpest": 7454,
      "Ġpry": 7455,
      "Ġpav": 7456,
      "Ġpact": 7457,
      "Ġpue": 7458,
      "Ġpub": 7459,
      "Ġpick": 7460,
      "Ġpush": 7461,
      "Ġptw": 7462,
      "Ġpounds": 7463,
      "Ġpours": 7464,
      "Ġpuer": 7465,
      "edo": 7466,
      "eded": 7467,
      "editions": 7468,
      "edless": 7469,
      "edgar": 7470,
      "Ġfal": 7471,
      "Ġfing": 7472,
      "Ġfas": 7473,
      "Ġfent": 7474,
      "Ġfount": 7475,
      "Ġfich": 7476,
      "Ġfile": 7477,
      "Ġfine": 7478,
      "Ġfenc": 7479,
      "Ġfool": 7480,
      "Ġferal": 7481,
      "Ġferg": 7482,
      "Ġfert": 7483,
      "Ġfitt": 7484,
      "Ġfisher": 7485,
      "Ġfiction": 7486,
      "Ġfabul": 7487,
      "Ġfjord": 7488,
      "Ġfertil": 7489,
      "Ġmi": 7490,
      "Ġms": 7491,
      "Ġmad": 7492,
      "Ġmast": 7493,
      "Ġmag": 7494,
      "Ġmide": 7495,
      "Ġmice": 7496,
      "Ġmild": 7497,
      "Ġmary": 7498,
      "Ġmates": 7499,
      "Ġmick": 7500,
      "Ġmash": 7501,
      "Ġmister": 7502,
      "Ġmapp": 7503,
      "Ġmention": 7504,
      "Ġmouth": 7505,
      "orm": 7506,
      "oras": 7507,
      "orus": 7508,
      "oros": 7509,
      "orous": 7510,
      "orings": 7511,
      "organ": 7512,
      "orges": 7513,
      "already": 7514,
      "alcul": 7515,
      "alizing": 7516,
      "alitis": 7517,
      "ingual": 7518,
      "ingering": 7519,
      "ingrich": 7520,
      "Ġang": 7521,
      "Ġange": 7522,
      "Ġanne": 7523,
      "Ġanfa": 7524,
      "Ġanatol": 7525,
      "oubt": 7526,
      "oudh": 7527,
      "arp": 7528,
      "aris": 7529,
      "arly": 7530,
      "arot": 7531,
      "arist": 7532,
      "aruss": 7533,
      "argent": 7534,
      "arrator": 7535,
      "arinen": 7536,
      "Ġoftent": 7537,
      "Ġinqu": 7538,
      "Ġinning": 7539,
      "Ġinner": 7540,
      "Ġinward": 7541,
      "Ġinception": 7542,
      "Ġinclusion": 7543,
      "Ġinherent": 7544,
      "Ġtoky": 7545,
      "Ġtoxic": 7546,
      "Ġtoxin": 7547,
      "Ġtobac": 7548,
      "asp": 7549,
      "asing": 7550,
      "asco": 7551,
      "ashes": 7552,
      "asium": 7553,
      "asyn": 7554,
      "asaki": 7555,
      "aska": 7556,
      "Ġdan": 7557,
      "Ġdish": 7558,
      "Ġdie": 7559,
      "Ġdance": 7560,
      "Ġdiver": 7561,
      "Ġdress": 7562,
      "Ġdamp": 7563,
      "Ġdiving": 7564,
      "Ġdating": 7565,
      "Ġdense": 7566,
      "Ġdaugh": 7567,
      "Ġdux": 7568,
      "Ġdouble": 7569,
      "Ġdimens": 7570,
      "Ġdumb": 7571,
      "Ġdsl": 7572,
      "Ġduration": 7573,
      "Ġdzong": 7574,
      "Ġdrew": 7575,
      "Ġdoubt": 7576,
      "Ġham": 7577,
      "Ġhort": 7578,
      "Ġhiv": 7579,
      "Ġhast": 7580,
      "Ġhone": 7581,
      "Ġhub": 7582,
      "Ġhollow": 7583,
      "Ġhale": 7584,
      "Ġhills": 7585,
      "Ġhush": 7586,
      "Ġhanc": 7587,
      "Ġhiring": 7588,
      "Ġhamm": 7589,
      "Ġharsh": 7590,
      "Ġhoping": 7591,
      "Ġhsien": 7592,
      "Ġhttp": 7593,
      "Ġhints": 7594,
      "iced": 7595,
      "icop": 7596,
      "icide": 7597,
      "ications": 7598,
      "icured": 7599,
      "icized": 7600,
      "icraft": 7601,
      "iciary": 7602,
      "lead": 7603,
      "leys": 7604,
      "levision": 7605,
      "ionary": 7606,
      "omb": 7607,
      "omat": 7608,
      "omir": 7609,
      "omul": 7610,
      "omers": 7611,
      "omfort": 7612,
      "omiting": 7613,
      "omorphic": 7614,
      "Ġnut": 7615,
      "Ġnur": 7616,
      "Ġnest": 7617,
      "Ġnud": 7618,
      "Ġnich": 7619,
      "Ġnine": 7620,
      "Ġnests": 7621,
      "Ġnba": 7622,
      "Ġnagas": 7623,
      "Ġnurt": 7624,
      "Ġndp": 7625,
      "Ġnouns": 7626,
      "Ġnigeria": 7627,
      "Ġnidic": 7628,
      "Ġnpws": 7629,
      "Ġnarrator": 7630,
      "Ġthoms": 7631,
      "Ġthais": 7632,
      "Ġeve": 7633,
      "Ġethe": 7634,
      "Ġeag": 7635,
      "Ġeco": 7636,
      "Ġeating": 7637,
      "Ġepic": 7638,
      "Ġecos": 7639,
      "Ġejected": 7640,
      "enter": 7641,
      "entown": 7642,
      "entering": 7643,
      "entieth": 7644,
      "Ġlap": 7645,
      "Ġlag": 7646,
      "Ġlists": 7647,
      "Ġlaf": 7648,
      "Ġlots": 7649,
      "Ġlenz": 7650,
      "Ġlesions": 7651,
      "Ġlingering": 7652,
      "ila": 7653,
      "ilions": 7654,
      "ilway": 7655,
      "ilateral": 7656,
      "Ġbear": 7657,
      "Ġbeak": 7658,
      "Ġbeings": 7659,
      "Ġbeech": 7660,
      "Ġrenow": 7661,
      "Ġreje": 7662,
      "Ġreined": 7663,
      "Ġrebu": 7664,
      "Ġreleg": 7665,
      "Ġreclaimed": 7666,
      "Ġrehears": 7667,
      "Ġreorgan": 7668,
      "vehic": 7669,
      "thening": 7670,
      "theastern": 7671,
      "stic": 7672,
      "still": 7673,
      "sties": 7674,
      "stud": 7675,
      "states": 7676,
      "story": 7677,
      "style": 7678,
      "stream": 7679,
      "sticism": 7680,
      "stayed": 7681,
      "stew": 7682,
      "stearns": 7683,
      "Ġgro": 7684,
      "Ġgill": 7685,
      "Ġgang": 7686,
      "Ġgates": 7687,
      "Ġgio": 7688,
      "Ġgases": 7689,
      "Ġgps": 7690,
      "Ġgama": 7691,
      "Ġgdp": 7692,
      "Ġgifts": 7693,
      "Ġgosling": 7694,
      "Ġgingrich": 7695,
      "Ġgomul": 7696,
      "Ġisaac": 7697,
      "Ġislam": 7698,
      "Ġistan": 7699,
      "rober": 7700,
      "roph": 7701,
      "roplus": 7702,
      "rare": 7703,
      "rail": 7704,
      "raid": 7705,
      "races": 7706,
      "rade": 7707,
      "raged": 7708,
      "raham": 7709,
      "ctive": 7710,
      "ctors": 7711,
      "ctuation": 7712,
      "idiary": 7713,
      "Ġull": 7714,
      "Ġutc": 7715,
      "ceph": 7716,
      "ceful": 7717,
      "irs": 7718,
      "iry": 7719,
      "irals": 7720,
      "irates": 7721,
      "irts": 7722,
      "eted": 7723,
      "ethn": 7724,
      "etrate": 7725,
      "imen": 7726,
      "imbu": 7727,
      "imatize": 7728,
      "Ġontar": 7729,
      "oted": 7730,
      "otic": 7731,
      "otted": 7732,
      "ottur": 7733,
      "otiations": 7734,
      "ationally": 7735,
      "Ġstem": 7736,
      "Ġstip": 7737,
      "Ġstood": 7738,
      "Ġstress": 7739,
      "Ġstating": 7740,
      "Ġstages": 7741,
      "Ġstops": 7742,
      "Ġstrain": 7743,
      "Ġstiff": 7744,
      "Ġstrict": 7745,
      "Ġstuff": 7746,
      "Ġstimulated": 7747,
      "Ġstardust": 7748,
      "Ġstyles": 7749,
      "igated": 7750,
      "ighed": 7751,
      "igami": 7752,
      "uting": 7753,
      "utable": 7754,
      "utaki": 7755,
      "Ġforcing": 7756,
      "vergent": 7757,
      "vertheless": 7758,
      "olo": 7759,
      "olu": 7760,
      "oler": 7761,
      "olis": 7762,
      "olas": 7763,
      "olent": 7764,
      "olizing": 7765,
      "olamine": 7766,
      "urity": 7767,
      "urial": 7768,
      "urats": 7769,
      "urging": 7770,
      "urbed": 7771,
      "add": 7772,
      "adus": 7773,
      "seas": 7774,
      "sell": 7775,
      "sequent": 7776,
      "Ġyaho": 7777,
      "Ġyuan": 7778,
      "Ġyarm": 7779,
      "amous": 7780,
      "amie": 7781,
      "amism": 7782,
      "aminated": 7783,
      "thal": 7784,
      "thur": 7785,
      "thod": 7786,
      "thag": 7787,
      "those": 7788,
      "three": 7789,
      "through": 7790,
      "third": 7791,
      "chu": 7792,
      "chin": 7793,
      "chis": 7794,
      "chron": 7795,
      "Ġasus": 7796,
      "Ġasoc": 7797,
      "Ġasph": 7798,
      "Ġasunc": 7799,
      "Ġashamed": 7800,
      "lled": 7801,
      "llow": 7802,
      "Ġmoas": 7803,
      "Ġmother": 7804,
      "Ġmoons": 7805,
      "Ġmohen": 7806,
      "tery": 7807,
      "Ġweathered": 7808,
      "Ġweighed": 7809,
      "ifies": 7810,
      "ifice": 7811,
      "ifism": 7812,
      "ifiers": 7813,
      "oppy": 7814,
      "opolamine": 7815,
      "ulo": 7816,
      "ulia": 7817,
      "ulthood": 7818,
      "ulkar": 7819,
      "ulses": 7820,
      "Ġorche": 7821,
      "Ġordinary": 7822,
      "Ġorigami": 7823,
      "Ġorthod": 7824,
      "Ġrr": 7825,
      "Ġrid": 7826,
      "Ġrim": 7827,
      "Ġride": 7828,
      "Ġrice": 7829,
      "Ġrio": 7830,
      "Ġranger": 7831,
      "Ġriding": 7832,
      "Ġranks": 7833,
      "Ġriders": 7834,
      "Ġryan": 7835,
      "Ġrifts": 7836,
      "Ġritual": 7837,
      "Ġriina": 7838,
      "Ġrwand": 7839,
      "Ġrarot": 7840,
      "Ġwasting": 7841,
      "andah": 7842,
      "andalizing": 7843,
      "Ġvish": 7844,
      "Ġvib": 7845,
      "Ġvice": 7846,
      "Ġvital": 7847,
      "Ġvanish": 7848,
      "Ġvatican": 7849,
      "Ġvials": 7850,
      "Ġvessel": 7851,
      "Ġvasco": 7852,
      "Ġvomiting": 7853,
      "Ġvandalizing": 7854,
      "Ġconnot": 7855,
      "Ġconven": 7856,
      "Ġcongo": 7857,
      "Ġconsole": 7858,
      "Ġconquest": 7859,
      "Ġcondiments": 7860,
      "Ġhaven": 7861,
      "Ġhazards": 7862,
      "Ġhajj": 7863,
      "Ġyouth": 7864,
      "gered": 7865,
      "geons": 7866,
      "georges": 7867,
      "Ġsued": 7868,
      "Ġsupl": 7869,
      "Ġsucks": 7870,
      "Ġsuicide": 7871,
      "aky": 7872,
      "akart": 7873,
      "akha": 7874,
      "illies": 7875,
      "illie": 7876,
      "iests": 7877,
      "Ġfrust": 7878,
      "Ġfrank": 7879,
      "Ġfriction": 7880,
      "Ġfronts": 7881,
      "Ġatom": 7882,
      "Ġkn": 7883,
      "Ġkow": 7884,
      "Ġkiv": 7885,
      "Ġkens": 7886,
      "Ġkne": 7887,
      "Ġkier": 7888,
      "Ġkiss": 7889,
      "Ġkrist": 7890,
      "Ġkaren": 7891,
      "Ġkids": 7892,
      "Ġknew": 7893,
      "Ġkouns": 7894,
      "Ġkala": 7895,
      "ĠklÃ¶": 7896,
      "Ġkrush": 7897,
      "Ġkonami": 7898,
      "Ġkatja": 7899,
      "Ġkandah": 7900,
      "pelled": 7901,
      "Ġheight": 7902,
      "Ġheel": 7903,
      "Ġhesper": 7904,
      "Ġheyday": 7905,
      "estone": 7906,
      "estine": 7907,
      "estimates": 7908,
      "Ġcoming": 7909,
      "Ġcomets": 7910,
      "Ġcomoros": 7911,
      "Ġcompelled": 7912,
      "Ġneuro": 7913,
      "Ġnecro": 7914,
      "Ġnevad": 7915,
      "erson": 7916,
      "isted": 7917,
      "ortion": 7918,
      "ortly": 7919,
      "Ġexiled": 7920,
      "Ġexcurs": 7921,
      "Ġexerc": 7922,
      "Ġexotic": 7923,
      "Ġseab": 7924,
      "Ġselect": 7925,
      "Ġselling": 7926,
      "Ġselection": 7927,
      "Ġsejong": 7928,
      "Ġsewage": 7929,
      "Ġseeded": 7930,
      "ivan": 7931,
      "ivate": 7932,
      "ivity": 7933,
      "ivated": 7934,
      "ivized": 7935,
      "aced": 7936,
      "acle": 7937,
      "acid": 7938,
      "access": 7939,
      "acob": 7940,
      "ained": 7941,
      "quets": 7942,
      "Ġalike": 7943,
      "Ġaltern": 7944,
      "Ġalger": 7945,
      "Ġalga": 7946,
      "Ġalbert": 7947,
      "Ġaliens": 7948,
      "Ġalaska": 7949,
      "Ġchim": 7950,
      "Ġchoc": 7951,
      "Ġchart": 7952,
      "Ġchances": 7953,
      "Ġchron": 7954,
      "Ġchaos": 7955,
      "ĠchiÅ": 7956,
      "Ġchoudh": 7957,
      "Ġchillies": 7958,
      "Ġjet": 7959,
      "Ġjoc": 7960,
      "Ġjum": 7961,
      "Ġjag": 7962,
      "Ġjack": 7963,
      "Ġjaz": 7964,
      "Ġjude": 7965,
      "Ġjai": 7966,
      "Ġjelly": 7967,
      "Ġjerry": 7968,
      "Ġjamie": 7969,
      "Ġjulia": 7970,
      "Ġjakart": 7971,
      "Ġjacob": 7972,
      "Ġcancel": 7973,
      "Ġcanaan": 7974,
      "ighter": 7975,
      "usa": 7976,
      "uson": 7977,
      "usations": 7978,
      "usual": 7979,
      "ushing": 7980,
      "usgs": 7981,
      "Ġdear": 7982,
      "Ġdeals": 7983,
      "Ġdeact": 7984,
      "Ġdebr": 7985,
      "Ġdeli": 7986,
      "Ġdeeper": 7987,
      "Ġdeeds": 7988,
      "Ġdegre": 7989,
      "Ġdelet": 7990,
      "Ġprove": 7991,
      "Ġproduc": 7992,
      "Ġproxy": 7993,
      "Ġproxies": 7994,
      "until": 7995,
      "unless": 7996,
      "unlike": 7997,
      "unconstitution": 7998,
      "unattended": 7999,
      "osa": 8000,
      "osph": 8001,
      "osmith": 8002,
      "abre": 8003,
      "aber": 8004,
      "abis": 8005,
      "ables": 8006,
      "urers": 8007,
      "Ġshark": 8008,
      "Ġshank": 8009,
      "Ġshipp": 8010,
      "Ġsharks": 8011,
      "Ġuns": 8012,
      "Ġunite": 8013,
      "Ġunco": 8014,
      "Ġunde": 8015,
      "Ġunless": 8016,
      "Ġunsure": 8017,
      "Ġuneth": 8018,
      "Ġunbreak": 8019,
      "Ġuninter": 8020,
      "Ġunanim": 8021,
      "Ġuncom": 8022,
      "Ġunloading": 8023,
      "Ġunrelated": 8024,
      "Ġunwanted": 8025,
      "Ġunhurt": 8026,
      "Ġuntapp": 8027,
      "Ġunrecogn": 8028,
      "Ġunusual": 8029,
      "allic": 8030,
      "Ġnoting": 8031,
      "Ġnotice": 8032,
      "Ġ1000": 8033,
      "Ġ120": 8034,
      "ocles": 8035,
      "ocating": 8036,
      "occur": 8037,
      "occas": 8038,
      "ocratic": 8039,
      "Ġleaking": 8040,
      "Ġleavers": 8041,
      "Ġlemie": 8042,
      "Ġlethal": 8043,
      "ourished": 8044,
      "antly": 8045,
      "apse": 8046,
      "apolis": 8047,
      "essor": 8048,
      "essions": 8049,
      "redible": 8050,
      "fears": 8051,
      "felic": 8052,
      "fellow": 8053,
      "emic": 8054,
      "emorate": 8055,
      "Ġplays": 8056,
      "Ġplanks": 8057,
      "Ġplaited": 8058,
      "Ġplatform": 8059,
      "Ġplitvice": 8060,
      "renids": 8061,
      "renstra": 8062,
      "Ġabund": 8063,
      "Ġabnor": 8064,
      "Ġaboriginal": 8065,
      "Ġabatto": 8066,
      "Ġabraham": 8067,
      "Ġtracy": 8068,
      "Ġtraditions": 8069,
      "Ġtrades": 8070,
      "Ġtrapped": 8071,
      "umn": 8072,
      "Ġarte": 8073,
      "Ġarche": 8074,
      "Ġaromatic": 8075,
      "Ġarbit": 8076,
      "Ġarba": 8077,
      "Ġaryan": 8078,
      "Ġarias": 8079,
      "Ġarthur": 8080,
      "anyone": 8081,
      "aste": 8082,
      "asto": 8083,
      "astroph": 8084,
      "ountered": 8085,
      "usted": 8086,
      "Ġusa": 8087,
      "Ġusual": 8088,
      "Ġussr": 8089,
      "iporn": 8090,
      "artph": 8091,
      "Ġhasn": 8092,
      "Ġaftern": 8093,
      "Ġafcft": 8094,
      "Ġaffair": 8095,
      "Ġafraid": 8096,
      "Ġgoog": 8097,
      "Ġgoethe": 8098,
      "agious": 8099,
      "aggress": 8100,
      "agara": 8101,
      "onga": 8102,
      "ela": 8103,
      "eless": 8104,
      "ellect": 8105,
      "elopes": 8106,
      "Ġenable": 8107,
      "Ġencel": 8108,
      "Ġenceph": 8109,
      "perry": 8110,
      "period": 8111,
      "permits": 8112,
      "pervading": 8113,
      "Ġallen": 8114,
      "Ġallerg": 8115,
      "Ġpeers": 8116,
      "Ġpeaking": 8117,
      "Ġpeanuts": 8118,
      "iana": 8119,
      "iano": 8120,
      "soyuz": 8121,
      "dera": 8122,
      "Ġclay": 8123,
      "Ġclamp": 8124,
      "Ġclara": 8125,
      "Ġcliffs": 8126,
      "Ġclients": 8127,
      "Ġclashes": 8128,
      "izon": 8129,
      "izable": 8130,
      "Ġsaff": 8131,
      "Ġsahel": 8132,
      "Ġsaito": 8133,
      "Ġsaarinen": 8134,
      "Ġsachin": 8135,
      "Ġ28": 8136,
      "keys": 8137,
      "Ġintent": 8138,
      "Ġintact": 8139,
      "Ġintends": 8140,
      "Ġintellect": 8141,
      "ultural": 8142,
      "Ġcomply": 8143,
      "Ġcompound": 8144,
      "Ġcomparing": 8145,
      "Ġcomprom": 8146,
      "Ġcompares": 8147,
      "Ġcompounds": 8148,
      "Ġcomprehen": 8149,
      "Ġtrunk": 8150,
      "Ġtricking": 8151,
      "Ġtrusted": 8152,
      "Ġads": 8153,
      "Ġadt": 8154,
      "Ġadds": 8155,
      "Ġadjective": 8156,
      "Ġadulthood": 8157,
      "ogen": 8158,
      "ogenous": 8159,
      "ogenic": 8160,
      "iba": 8161,
      "ibal": 8162,
      "ibody": 8163,
      "oneering": 8164,
      "pton": 8165,
      "ptation": 8166,
      "ptical": 8167,
      "ptured": 8168,
      "Ġscot": 8169,
      "Ġscary": 8170,
      "Ġscub": 8171,
      "Ġscener": 8172,
      "Ġscared": 8173,
      "Ġscales": 8174,
      "Ġscouting": 8175,
      "Ġscratch": 8176,
      "Ġscopolamine": 8177,
      "Ġeval": 8178,
      "Ġevade": 8179,
      "Ġeviction": 8180,
      "ostic": 8181,
      "earlier": 8182,
      "Ġaging": 8183,
      "Ġoffline": 8184,
      "Ġoffensive": 8185,
      "avier": 8186,
      "avalanches": 8187,
      "avorings": 8188,
      "nowadays": 8189,
      "Ġonega": 8190,
      "Ġoneworld": 8191
    },
    "merges": [
      [
        "Ġ",
        "t"
      ],
      [
        "Ġ",
        "a"
      ],
      [
        "h",
        "e"
      ],
      [
        "i",
        "n"
      ],
      [
        "Ġt",
        "he"
      ],
      [
        "r",
        "e"
      ],
      [
        "Ġ",
        "o"
      ],
      [
        "Ġ",
        "s"
      ],
      [
        "e",
        "r"
      ],
      [
        "Ġ",
        "c"
      ],
      [
        "Ġ",
        "w"
      ],
      [
        "o",
        "n"
      ],
      [
        "č",
        "Ċ"
      ],
      [
        "a",
        "n"
      ],
      [
        "e",
        "n"
      ],
      [
        "a",
        "t"
      ],
      [
        "Ġ",
        "b"
      ],
      [
        "e",
        "s"
      ],
      [
        "i",
        "s"
      ],
      [
        "i",
        "t"
      ],
      [
        "Ġ",
        "p"
      ],
      [
        "e",
        "d"
      ],
      [
        "Ġ",
        "f"
      ],
      [
        "Ġ",
        "m"
      ],
      [
        "o",
        "r"
      ],
      [
        "a",
        "l"
      ],
      [
        "in",
        "g"
      ],
      [
        "Ġa",
        "n"
      ],
      [
        "o",
        "u"
      ],
      [
        "a",
        "r"
      ],
      [
        "Ġo",
        "f"
      ],
      [
        "Ġ",
        "in"
      ],
      [
        "Ġt",
        "o"
      ],
      [
        "Ġan",
        "d"
      ],
      [
        "a",
        "s"
      ],
      [
        "Ġ",
        "d"
      ],
      [
        "Ġ",
        "h"
      ],
      [
        "i",
        "c"
      ],
      [
        "l",
        "e"
      ],
      [
        "i",
        "on"
      ],
      [
        "o",
        "m"
      ],
      [
        "Ġ",
        "n"
      ],
      [
        "Ġt",
        "h"
      ],
      [
        "Ġ",
        "e"
      ],
      [
        "en",
        "t"
      ],
      [
        "Ġ",
        "l"
      ],
      [
        "i",
        "l"
      ],
      [
        "Ġb",
        "e"
      ],
      [
        "Ġ",
        "re"
      ],
      [
        "v",
        "e"
      ],
      [
        "t",
        "he"
      ],
      [
        "s",
        "t"
      ],
      [
        "Ġ",
        "g"
      ],
      [
        "l",
        "y"
      ],
      [
        "Ġ",
        "is"
      ],
      [
        "r",
        "o"
      ],
      [
        "r",
        "a"
      ],
      [
        "c",
        "t"
      ],
      [
        "i",
        "d"
      ],
      [
        "Ġ",
        "u"
      ],
      [
        "c",
        "e"
      ],
      [
        "i",
        "r"
      ],
      [
        "e",
        "t"
      ],
      [
        "i",
        "m"
      ],
      [
        "Ġo",
        "n"
      ],
      [
        "o",
        "t"
      ],
      [
        "at",
        "ion"
      ],
      [
        "Ġs",
        "t"
      ],
      [
        "o",
        "w"
      ],
      [
        "i",
        "g"
      ],
      [
        "a",
        "y"
      ],
      [
        "u",
        "t"
      ],
      [
        "Ġf",
        "or"
      ],
      [
        "v",
        "er"
      ],
      [
        "o",
        "l"
      ],
      [
        "u",
        "r"
      ],
      [
        "Ġa",
        "re"
      ],
      [
        "a",
        "d"
      ],
      [
        "s",
        "e"
      ],
      [
        "Ġ",
        "y"
      ],
      [
        "a",
        "m"
      ],
      [
        "Ġth",
        "at"
      ],
      [
        "t",
        "h"
      ],
      [
        "c",
        "h"
      ],
      [
        "Ġa",
        "s"
      ],
      [
        "l",
        "l"
      ],
      [
        "it",
        "h"
      ],
      [
        "ou",
        "n"
      ],
      [
        "Ġm",
        "o"
      ],
      [
        "t",
        "er"
      ],
      [
        "Ġ",
        "it"
      ],
      [
        "Ġw",
        "e"
      ],
      [
        "i",
        "f"
      ],
      [
        "o",
        "p"
      ],
      [
        "u",
        "l"
      ],
      [
        "Ġo",
        "r"
      ],
      [
        "Ġ",
        "r"
      ],
      [
        "Ġw",
        "ith"
      ],
      [
        "Ġw",
        "as"
      ],
      [
        "an",
        "d"
      ],
      [
        "Ġw",
        "h"
      ],
      [
        "Ġ",
        "v"
      ],
      [
        "Ġc",
        "on"
      ],
      [
        "Ġh",
        "a"
      ],
      [
        "Ġy",
        "ou"
      ],
      [
        "g",
        "e"
      ],
      [
        "Ġs",
        "u"
      ],
      [
        "a",
        "k"
      ],
      [
        "il",
        "l"
      ],
      [
        "i",
        "es"
      ],
      [
        "Ġf",
        "r"
      ],
      [
        "Ġa",
        "t"
      ],
      [
        "Ġ",
        "k"
      ],
      [
        "p",
        "e"
      ],
      [
        "Ġ",
        "he"
      ],
      [
        "l",
        "d"
      ],
      [
        "es",
        "t"
      ],
      [
        "Ġc",
        "om"
      ],
      [
        "Ġb",
        "y"
      ],
      [
        "Ġn",
        "e"
      ],
      [
        "er",
        "s"
      ],
      [
        "is",
        "t"
      ],
      [
        "or",
        "t"
      ],
      [
        "Ġe",
        "x"
      ],
      [
        "Ġs",
        "e"
      ],
      [
        "i",
        "v"
      ],
      [
        "'",
        "s"
      ],
      [
        "a",
        "c"
      ],
      [
        "m",
        "ent"
      ],
      [
        "a",
        "in"
      ],
      [
        "q",
        "u"
      ],
      [
        "Ġa",
        "l"
      ],
      [
        "Ġc",
        "h"
      ],
      [
        "Ġ",
        "j"
      ],
      [
        "Ġc",
        "an"
      ],
      [
        "Ġha",
        "ve"
      ],
      [
        "ig",
        "h"
      ],
      [
        "u",
        "s"
      ],
      [
        "Ġd",
        "e"
      ],
      [
        "Ġp",
        "ro"
      ],
      [
        "the",
        "r"
      ],
      [
        "u",
        "n"
      ],
      [
        "o",
        "s"
      ],
      [
        "a",
        "b"
      ],
      [
        "Ġfr",
        "om"
      ],
      [
        "u",
        "re"
      ],
      [
        "Ġs",
        "h"
      ],
      [
        "Ġu",
        "n"
      ],
      [
        "at",
        "e"
      ],
      [
        "al",
        "l"
      ],
      [
        "it",
        "y"
      ],
      [
        "o",
        "d"
      ],
      [
        "Ġn",
        "ot"
      ],
      [
        "Ġ",
        "1"
      ],
      [
        "i",
        "ve"
      ],
      [
        "o",
        "c"
      ],
      [
        "Ġ",
        "le"
      ],
      [
        "ou",
        "r"
      ],
      [
        "an",
        "t"
      ],
      [
        "g",
        "h"
      ],
      [
        "a",
        "p"
      ],
      [
        "es",
        "s"
      ],
      [
        "re",
        "d"
      ],
      [
        "om",
        "e"
      ],
      [
        "f",
        "e"
      ],
      [
        "e",
        "m"
      ],
      [
        "en",
        "d"
      ],
      [
        "igh",
        "t"
      ],
      [
        "p",
        "ort"
      ],
      [
        "Ġp",
        "l"
      ],
      [
        "Ġwe",
        "re"
      ],
      [
        "re",
        "n"
      ],
      [
        "i",
        "al"
      ],
      [
        "Ġthe",
        "y"
      ],
      [
        "Ġa",
        "b"
      ],
      [
        "ou",
        "gh"
      ],
      [
        "Ġt",
        "ra"
      ],
      [
        "u",
        "m"
      ],
      [
        "ou",
        "t"
      ],
      [
        "re",
        "s"
      ],
      [
        "u",
        "d"
      ],
      [
        "Ġa",
        "r"
      ],
      [
        "Ġthe",
        "ir"
      ],
      [
        "Ġw",
        "or"
      ],
      [
        "an",
        "y"
      ],
      [
        "0",
        "0"
      ],
      [
        "as",
        "t"
      ],
      [
        "oun",
        "t"
      ],
      [
        "u",
        "st"
      ],
      [
        "Ġu",
        "s"
      ],
      [
        "i",
        "p"
      ],
      [
        "ar",
        "t"
      ],
      [
        "ic",
        "h"
      ],
      [
        "Ġh",
        "as"
      ],
      [
        "ar",
        "d"
      ],
      [
        "an",
        "s"
      ],
      [
        "Ġa",
        "f"
      ],
      [
        "ou",
        "s"
      ],
      [
        "Ġg",
        "o"
      ],
      [
        "r",
        "y"
      ],
      [
        "Ġw",
        "he"
      ],
      [
        "a",
        "g"
      ],
      [
        "on",
        "g"
      ],
      [
        "at",
        "ed"
      ],
      [
        "oun",
        "d"
      ],
      [
        "e",
        "l"
      ],
      [
        "Ġwh",
        "ich"
      ],
      [
        "ion",
        "s"
      ],
      [
        "id",
        "e"
      ],
      [
        "Ġ",
        "en"
      ],
      [
        "Ġb",
        "ut"
      ],
      [
        "p",
        "er"
      ],
      [
        "Ġa",
        "ll"
      ],
      [
        "Ġp",
        "e"
      ],
      [
        "i",
        "an"
      ],
      [
        "s",
        "o"
      ],
      [
        "d",
        "er"
      ],
      [
        "Ġ",
        "("
      ],
      [
        "al",
        "ly"
      ],
      [
        "Ġc",
        "l"
      ],
      [
        "Ġw",
        "ill"
      ],
      [
        "i",
        "z"
      ],
      [
        "Ġs",
        "a"
      ],
      [
        "ou",
        "ld"
      ],
      [
        "Ġ",
        "2"
      ],
      [
        "i",
        "a"
      ],
      [
        "k",
        "e"
      ],
      [
        "Ġin",
        "t"
      ],
      [
        "ul",
        "t"
      ],
      [
        "Ġcom",
        "p"
      ],
      [
        "Ġt",
        "r"
      ],
      [
        "Ġo",
        "ther"
      ],
      [
        "Ġa",
        "d"
      ],
      [
        "ation",
        "s"
      ],
      [
        "o",
        "g"
      ],
      [
        "Ġth",
        "is"
      ],
      [
        "ve",
        "l"
      ],
      [
        "Ġmo",
        "re"
      ],
      [
        "Ġbe",
        "en"
      ],
      [
        "op",
        "le"
      ],
      [
        "is",
        "h"
      ],
      [
        "i",
        "b"
      ],
      [
        "on",
        "e"
      ],
      [
        "p",
        "t"
      ],
      [
        "Ġs",
        "c"
      ],
      [
        "Ġc",
        "ount"
      ],
      [
        "Ġe",
        "v"
      ],
      [
        "o",
        "st"
      ],
      [
        "ac",
        "k"
      ],
      [
        "it",
        "e"
      ],
      [
        "ic",
        "e"
      ],
      [
        "e",
        "ar"
      ],
      [
        "Ġa",
        "g"
      ],
      [
        "he",
        "r"
      ],
      [
        "Ġmo",
        "st"
      ],
      [
        "ak",
        "e"
      ],
      [
        "i",
        "e"
      ],
      [
        "i",
        "le"
      ],
      [
        "Ġof",
        "f"
      ],
      [
        "a",
        "v"
      ],
      [
        "n",
        "ow"
      ],
      [
        "Ġon",
        "e"
      ],
      [
        "o",
        "re"
      ],
      [
        "p",
        "l"
      ],
      [
        "a",
        "ge"
      ],
      [
        "Ġpe",
        "ople"
      ],
      [
        "Ġ",
        "\""
      ],
      [
        "Ġ",
        "im"
      ],
      [
        "in",
        "e"
      ],
      [
        "at",
        "er"
      ],
      [
        "Ġin",
        "d"
      ],
      [
        "n",
        "ing"
      ],
      [
        "Ġ",
        "ro"
      ],
      [
        "Ġp",
        "r"
      ],
      [
        "a",
        "ce"
      ],
      [
        "im",
        "e"
      ],
      [
        "o",
        "k"
      ],
      [
        "am",
        "e"
      ],
      [
        "Ġa",
        "c"
      ],
      [
        "an",
        "g"
      ],
      [
        "Ġh",
        "ad"
      ],
      [
        "Ġp",
        "h"
      ],
      [
        "Ġm",
        "ay"
      ],
      [
        "c",
        "l"
      ],
      [
        "en",
        "ce"
      ],
      [
        "Ġal",
        "so"
      ],
      [
        "Ġs",
        "p"
      ],
      [
        "Ġf",
        "e"
      ],
      [
        "Ġn",
        "or"
      ],
      [
        "Ġs",
        "ome"
      ],
      [
        "Ġd",
        "is"
      ],
      [
        "ic",
        "al"
      ],
      [
        "in",
        "d"
      ],
      [
        "Ġbe",
        "c"
      ],
      [
        "Ġo",
        "ver"
      ],
      [
        "ab",
        "le"
      ],
      [
        "Ġt",
        "e"
      ],
      [
        "Ġm",
        "any"
      ],
      [
        "Ġre",
        "s"
      ],
      [
        "ig",
        "n"
      ],
      [
        "il",
        "d"
      ],
      [
        "ren",
        "t"
      ],
      [
        "Ġ",
        "ra"
      ],
      [
        "Ġit",
        "s"
      ],
      [
        "l",
        "and"
      ],
      [
        "r",
        "it"
      ],
      [
        "Ġo",
        "ut"
      ],
      [
        "Ġf",
        "ir"
      ],
      [
        "f",
        "or"
      ],
      [
        "r",
        "u"
      ],
      [
        "Ġs",
        "pe"
      ],
      [
        "Ġc",
        "ar"
      ],
      [
        "al",
        "s"
      ],
      [
        "ver",
        "y"
      ],
      [
        "Ġne",
        "w"
      ],
      [
        "t",
        "en"
      ],
      [
        "Ġd",
        "o"
      ],
      [
        "i",
        "ke"
      ],
      [
        "Ġthe",
        "re"
      ],
      [
        "en",
        "s"
      ],
      [
        "as",
        "s"
      ],
      [
        "a",
        "ct"
      ],
      [
        "Ġt",
        "w"
      ],
      [
        "Ġa",
        "m"
      ],
      [
        "i",
        "re"
      ],
      [
        "ar",
        "y"
      ],
      [
        "Ġp",
        "art"
      ],
      [
        "Ġy",
        "ear"
      ],
      [
        "Ġfir",
        "st"
      ],
      [
        "a",
        "u"
      ],
      [
        "e",
        "p"
      ],
      [
        "Ġs",
        "o"
      ],
      [
        "Ġp",
        "er"
      ],
      [
        "ar",
        "k"
      ],
      [
        "b",
        "er"
      ],
      [
        "Ġyou",
        "r"
      ],
      [
        "o",
        "se"
      ],
      [
        "Ġm",
        "e"
      ],
      [
        "f",
        "f"
      ],
      [
        "Ġt",
        "ime"
      ],
      [
        "Ġab",
        "out"
      ],
      [
        "Ġcon",
        "t"
      ],
      [
        "i",
        "ent"
      ],
      [
        "Ġh",
        "is"
      ],
      [
        "Ġu",
        "p"
      ],
      [
        "ter",
        "n"
      ],
      [
        "fe",
        "ct"
      ],
      [
        "c",
        "ess"
      ],
      [
        "Ġd",
        "if"
      ],
      [
        "a",
        "ch"
      ],
      [
        "u",
        "e"
      ],
      [
        "an",
        "ce"
      ],
      [
        "at",
        "es"
      ],
      [
        "Ġk",
        "now"
      ],
      [
        "u",
        "b"
      ],
      [
        "ing",
        "s"
      ],
      [
        "ol",
        "d"
      ],
      [
        "Ġwhe",
        "n"
      ],
      [
        "Ġwor",
        "ld"
      ],
      [
        "i",
        "ver"
      ],
      [
        "Ġa",
        "p"
      ],
      [
        "re",
        "at"
      ],
      [
        "Ġc",
        "ent"
      ],
      [
        "Ġwh",
        "o"
      ],
      [
        "Ġcom",
        "m"
      ],
      [
        "er",
        "m"
      ],
      [
        "ad",
        "e"
      ],
      [
        "ment",
        "s"
      ],
      [
        "Ġaf",
        "ter"
      ],
      [
        "re",
        "e"
      ],
      [
        "Ġth",
        "an"
      ],
      [
        "Ġfor",
        "m"
      ],
      [
        "r",
        "ough"
      ],
      [
        "Ġc",
        "o"
      ],
      [
        "Ġp",
        "ol"
      ],
      [
        "Ġn",
        "o"
      ],
      [
        "ul",
        "ar"
      ],
      [
        "Ġv",
        "is"
      ],
      [
        "c",
        "k"
      ],
      [
        "r",
        "ic"
      ],
      [
        "w",
        "e"
      ],
      [
        "Ġp",
        "res"
      ],
      [
        "Ġf",
        "l"
      ],
      [
        "a",
        "il"
      ],
      [
        "ct",
        "ion"
      ],
      [
        "Ġsa",
        "id"
      ],
      [
        "Ġint",
        "o"
      ],
      [
        "w",
        "n"
      ],
      [
        "Ġl",
        "ike"
      ],
      [
        "Ġg",
        "r"
      ],
      [
        "Ġtw",
        "o"
      ],
      [
        "d",
        "ay"
      ],
      [
        "t",
        "e"
      ],
      [
        "Ġof",
        "ten"
      ],
      [
        "ent",
        "s"
      ],
      [
        "Ġcon",
        "s"
      ],
      [
        "Ġre",
        "c"
      ],
      [
        "c",
        "es"
      ],
      [
        "t",
        "s"
      ],
      [
        "Ġw",
        "ar"
      ],
      [
        "Ġon",
        "ly"
      ],
      [
        "Ġdif",
        "fe"
      ],
      [
        "â",
        "Ģ"
      ],
      [
        "Ġthe",
        "m"
      ],
      [
        "Ġre",
        "l"
      ],
      [
        "ay",
        "s"
      ],
      [
        "b",
        "s"
      ],
      [
        "c",
        "ial"
      ],
      [
        "Ġ",
        "qu"
      ],
      [
        "he",
        "d"
      ],
      [
        "it",
        "ion"
      ],
      [
        "or",
        "d"
      ],
      [
        "o",
        "in"
      ],
      [
        "p",
        "le"
      ],
      [
        "Ġs",
        "k"
      ],
      [
        "Ġw",
        "ould"
      ],
      [
        "on",
        "s"
      ],
      [
        "Ġb",
        "as"
      ],
      [
        "or",
        "s"
      ],
      [
        "ation",
        "al"
      ],
      [
        "au",
        "se"
      ],
      [
        "Ġp",
        "re"
      ],
      [
        "i",
        "ed"
      ],
      [
        "p",
        "h"
      ],
      [
        "Ġa",
        "ir"
      ],
      [
        "Ġb",
        "o"
      ],
      [
        "Ġth",
        "rough"
      ],
      [
        "Ġsh",
        "ow"
      ],
      [
        "Ġev",
        "en"
      ],
      [
        "it",
        "ies"
      ],
      [
        "Ġun",
        "der"
      ],
      [
        "cl",
        "ud"
      ],
      [
        "i",
        "ous"
      ],
      [
        "Ġc",
        "all"
      ],
      [
        "Ġan",
        "y"
      ],
      [
        "Ġre",
        "port"
      ],
      [
        "th",
        "is"
      ],
      [
        "Ġus",
        "ed"
      ],
      [
        "Ġcount",
        "ry"
      ],
      [
        "a",
        "re"
      ],
      [
        "r",
        "ies"
      ],
      [
        "Ġb",
        "l"
      ],
      [
        "Ġe",
        "ar"
      ],
      [
        "Ġg",
        "et"
      ],
      [
        "if",
        "ic"
      ],
      [
        "o",
        "od"
      ],
      [
        "v",
        "ed"
      ],
      [
        "Ġ",
        "if"
      ],
      [
        "Ġs",
        "m"
      ],
      [
        "Ġe",
        "as"
      ],
      [
        "Ġbe",
        "t"
      ],
      [
        "Ġwor",
        "k"
      ],
      [
        "c",
        "on"
      ],
      [
        "Ġa",
        "ct"
      ],
      [
        "Ġre",
        "g"
      ],
      [
        "Ġre",
        "qu"
      ],
      [
        "Ġne",
        "ed"
      ],
      [
        "Ġdiffe",
        "rent"
      ],
      [
        "u",
        "c"
      ],
      [
        "Ġb",
        "ack"
      ],
      [
        "or",
        "y"
      ],
      [
        "ur",
        "ing"
      ],
      [
        "'",
        "t"
      ],
      [
        "Ġt",
        "our"
      ],
      [
        "Ġs",
        "er"
      ],
      [
        "Ġin",
        "v"
      ],
      [
        "Ġin",
        "clud"
      ],
      [
        "Ġl",
        "ar"
      ],
      [
        "Ġ1",
        "9"
      ],
      [
[...]
